[PAD]
[UNK]
[START]
[END]
!
,
.
?
a
b
c
d
e
f
g
h
i
j
k
l
m
n
o
p
q
r
s
t
u
v
w
x
y
z
the
of
to
in
and
is
that
for
was
with
said
on
he
by
be
this
at
from
as
not
will
it
are
has
also
his
who
have
can
jakarta
indonesia
which
an
there
we
after
they
one
were
but
because
had
or
so
been
when
time
their
two
still
only
you
first
team
if
about
more
new
people
indonesian
number
however
its
police
year
out
last
other
all
according
even
no
national
through
then
made
now
match
three
being
government
united
him
cnn
did
up
world
us
million
just
president
many
news
city
years
very
would
rp
do
while
able
players
like
film
second
than
season
party
her
technology
them
make
case
meanwhile
general
such
against
want
since
public
held
what
goal
into
become
before
head
percent
during
well
place
must
league
until
kpk
currently
again
game
next
could
points
area
addition
around
java
several
over
player
take
most
day
get
previously
namely
ministry
reported
four
minister
between
good
south
used
com
explained
same
some
asked
old
my
law
west
received
position
information
community
former
media
long
various
group
continued
end
startups
event
work
immediately
state
home
our
including
later
regarding
minute
free
use
known
these
corruption
won
both
best
local
process
innovation
central
admitted
based
director
win
added
users
carried
pt
play
five
madrid
special
sunday
friday
wednesday
thursday
score
coach
managed
took
latest
monday
dki
increase
does
right
support
meeting
back
company
saturday
member
goals
called
club
market
country
name
social
actually
governor
stadium
week
countries
east
court
series
continue
cup
north
service
office
wib
business
especially
top
song
high
tuesday
statement
go
development
considered
children
found
far
finally
she
know
your
games
released
real
open
chairman
music
stated
international
final
research
half
family
should
today
how
billion
due
states
results
night
thousand
without
already
money
minutes
decision
left
system
confirmed
those
house
every
may
project
always
another
services
members
form
see
manchester
each
became
need
often
though
main
action
future
official
dpr
regional
different
agency
starting
man
related
came
morning
building
body
played
security
reports
using
although
program
bandung
provide
id
quoted
deputy
me
given
total
video
follow
important
really
residents
result
startup
early
data
fact
front
part
third
management
account
investigation
price
ago
performance
days
suspect
big
album
under
come
foreign
times
parties
health
where
center
car
way
help
reason
fans
ready
face
named
apart
application
together
life
itself
election
started
show
revealed
dont
food
young
think
champions
off
announced
activities
scored
victory
article
water
six
arrested
course
road
incident
too
commission
attack
lot
school
quite
village
regency
condition
competition
much
trial
ball
report
told
record
order
start
own
legal
transportation
per
red
contract
down
person
met
juventus
bali
give
target
any
return
star
things
stage
barcelona
read
taken
himself
plan
line
makes
metro
potential
behind
find
affairs
women
here
opportunity
jaya
better
persib
industry
month
suspected
teams
never
months
district
chief
merdeka
products
net
officially
criminal
education
level
chelsea
fc
trump
liga
feature
hospital
happy
statistics
alleged
friends
political
china
done
working
playing
yet
needs
release
am
died
title
change
side
presidential
singer
football
google
tourism
seen
previous
wants
few
areas
download
airport
hit
jalan
story
korea
making
difficult
feel
manager
love
almost
concert
lost
problem
hand
move
source
brought
trillion
gadgets
committee
portal
got
wanted
rossi
land
transfer
round
decided
full
problems
via
victims
example
human
hopes
experience
hours
joko
hope
officers
yes
occurred
online
winning
capital
digital
directly
look
rights
following
least
ids
bring
letter
longer
field
why
funds
power
tni
october
defense
visit
close
premier
leave
september
yesterday
gave
ahead
reached
recently
lead
shot
instagram
ronaldo
bank
january
reportedly
august
further
construction
meet
race
advantage
thing
content
striker
air
golkar
set
hard
getting
having
festival
role
sea
asian
plans
training
card
involved
once
arsenal
malaysia
seven
period
november
milan
quality
career
test
widodo
strong
location
persija
present
woman
try
standings
failed
wrote
white
sports
twitter
photo
companies
relations
control
production
led
point
death
means
prison
live
hold
matches
pair
penalty
headquarters
great
appear
soon
away
investigators
usually
students
toll
victim
singapore
tried
focus
large
going
december
july
beat
actor
launched
product
traffic
small
child
press
age
budget
asia
recorded
june
liverpool
sector
sumatra
issue
complete
juara
goalkeeper
mobile
al
ended
songs
secretary
financial
whether
wife
features
films
expected
say
cause
session
successfully
perpetrators
pay
study
therefore
trying
la
sent
tourists
de
squad
stop
fight
england
room
efforts
indeed
eradication
presence
began
men
outside
figure
facebook
officials
eight
prepared
completed
provincial
carry
university
representatives
middle
culture
something
thailand
camera
opened
box
similar
value
candidate
certain
island
throughout
post
possible
access
black
others
claimed
seems
attention
status
device
april
reach
energy
evidence
followed
list
version
band
host
success
character
fire
platform
run
available
design
heart
economic
visitors
hotel
london
current
website
vehicles
compared
improve
taking
policy
put
agus
class
situation
screen
regulation
concerning
bad
concluded
positive
midfielder
created
oil
terms
afternoon
japan
less
march
pressure
scheduled
appeared
past
looking
additional
along
citizens
republic
cases
military
investment
palace
relationship
mother
islamic
closed
felt
spanish
went
easy
near
tax
sales
unfortunately
reduce
waiting
photos
appearance
ask
injury
clear
impact
located
sold
pass
train
agreed
continues
names
tour
admits
marquez
offer
among
enough
council
create
unit
fourth
apple
tourist
history
surabaya
collaboration
gold
european
sure
force
spread
growth
keep
conveyed
needed
draw
motogp
station
entered
everything
chance
travel
build
cooperation
tournament
kick
planned
korean
compete
included
launch
son
break
caused
ii
believes
leadership
maintain
entertainment
chinese
activity
consumers
examination
conditions
enter
include
cancer
region
carrying
february
personnel
emphasized
interest
works
believe
forced
stay
conference
gp
turn
running
suara
thats
comes
provided
considering
agreement
weeks
increased
interesting
beautiful
accompanied
response
actions
search
develop
kim
experienced
mourinho
participants
leader
moreover
model
visited
award
british
despite
novel
summer
space
super
thanks
true
italian
bogor
finance
selling
workers
certainly
devices
join
payment
clubs
communication
cities
im
moment
android
plus
solo
attended
basuki
popular
let
groups
province
single
champion
quarter
entitled
father
happened
looks
supporters
opening
movement
share
bekasi
directorate
smartphone
concept
global
expressed
park
suspects
defeat
french
issued
kevin
obtained
thought
muhammad
presented
returned
candidates
uploaded
whose
caught
little
interested
los
phone
fast
buy
earlier
born
pssi
senior
natural
driver
amount
saudi
step
enjoy
network
witness
act
shows
private
type
budi
customers
turned
short
youth
coffee
circuit
messi
philippines
killed
matter
regulations
chose
user
doubles
injured
campaign
care
drug
spain
passengers
attacks
facilities
maybe
david
smart
supported
division
internet
opportunities
thousands
accident
generation
unique
germany
york
alias
book
implementation
judges
track
prosecutor
rate
cars
choose
entering
receiving
america
fashion
furthermore
rest
units
audience
medical
invited
vehicle
vice
bambang
capacity
everyone
receive
skin
within
seconds
add
fell
holding
treatment
paris
personal
spokesman
light
mosque
staff
championship
practice
risk
code
evening
passed
ceo
electronic
gas
samsung
wearing
infrastructure
referee
signed
weekend
operation
maximum
partner
willing
arena
provides
site
australia
above
cross
written
message
ahmad
easier
low
conducted
discussed
english
rice
instead
request
collection
james
someone
association
alone
issues
largest
route
discussion
eid
accordance
economy
employees
hands
traditional
assistant
changes
defender
russia
marcus
judge
attorney
km
wait
built
joint
witnesses
isis
question
steps
chair
god
leaders
resources
beginning
honda
prices
grand
awards
reuters
television
famous
harry
southeast
captain
husband
themselves
euros
parents
reasons
ceremony
constitutional
goods
perpetrator
changed
designed
paid
quickly
replace
ability
blood
india
offers
arema
daily
flow
regions
talk
developing
equipped
highest
doctor
prevent
developed
choice
wedding
arrived
france
hundreds
increasing
nine
served
doesnt
submitted
events
japanese
meters
nation
cultural
serious
providing
color
investors
antara
doing
domestic
american
difference
healthy
medan
religion
argo
elections
paragraph
tangerang
words
mass
religious
finished
fifth
partners
funding
opponent
saw
offered
answer
boy
speech
arrest
eat
proven
speed
taste
andi
introduced
rules
says
debut
schedule
shown
joined
dollars
german
applications
forward
threat
yamaha
solution
assistance
limited
major
papua
tomorrow
types
higher
owner
camp
italy
lose
trade
watch
blue
hall
strengthen
discuss
giving
idr
inter
remaining
golden
board
islands
perform
planning
safe
yogyakarta
dead
job
claims
believed
forces
understand
violence
acts
arrival
art
authority
increasingly
semifinals
showed
baby
panel
ticket
civil
clothes
donald
uses
battery
sell
call
drugs
worked
easily
successful
app
europe
sign
achievement
range
myanmar
serie
tito
war
physical
active
cant
houses
tickets
commissioner
mayor
avoid
direction
hopefully
performed
psg
resolution
detention
opinion
roma
suffered
transactions
allegedly
neymar
racing
sandi
denied
jose
late
scene
officer
normal
cost
hot
preparing
sport
stopped
appointed
arabia
beauty
cut
mentioned
operating
participate
videos
padang
king
justice
allowed
organization
sentenced
committed
procurement
assessed
bayern
leg
selection
titles
voice
happen
hoped
thank
accused
governments
sri
contacted
towards
estimated
finish
agung
consumption
didnt
shooting
artist
democratic
filled
acting
psm
turns
existing
safety
likely
worth
bus
date
effect
equipment
gb
store
sulawesi
corner
recent
category
ensure
eyes
prepare
rider
thus
earthquake
accept
garuda
cannot
defendant
targeted
theme
commander
era
feels
green
madura
header
mens
proud
takes
moved
expensive
monitoring
electric
engine
favorite
heard
image
fine
israel
nothing
operations
busy
coil
independence
sound
female
implemented
institutions
reluctant
term
cristiano
allows
besides
challenge
flight
regent
twice
friendly
note
river
dance
beating
lorenzo
save
aceh
athletes
student
winner
actress
charged
directed
dpp
fighting
produced
crime
questioned
zidane
distribution
kilometers
swift
christmas
couple
exchange
museum
musicians
places
van
bringing
demand
friend
style
abroad
disease
standard
effort
initial
brand
michael
representative
extraordinary
loss
pancasila
supporting
mixed
organizations
hosts
illegal
marriage
sleep
womens
galaxy
luis
marketing
material
miss
declared
display
john
makassar
seemed
coordinating
plane
professional
attend
review
anything
deal
disaster
electricity
embassy
existence
owned
task
biggest
executive
nations
abdul
motorcycle
scoring
simple
suddenly
wenger
details
levels
ship
targets
authorities
broke
determined
foods
lee
rupiah
touch
achieve
basis
brother
interview
leading
mission
package
projects
trend
agenda
function
benefits
independent
narcotics
promised
fully
anyone
produce
protection
complex
eye
sources
badminton
eating
hollywood
option
programs
reading
cards
cash
heavy
atletico
desire
prince
rumors
average
damage
actors
charge
chosen
environment
hour
initially
lives
society
faced
fish
mount
semarang
un
elements
muslim
serve
iii
predicted
spirit
variety
bill
exhibition
guard
hong
key
lower
muslims
prime
strategy
succeeded
belonging
drivers
internal
poor
sriwijaya
survey
idea
peace
population
row
view
completely
dortmund
drink
journey
stock
supports
supreme
atmosphere
netizens
assets
beach
married
mr
sexual
ac
achievements
department
detained
mark
birth
drama
fired
income
jambi
marc
published
competitions
terror
direct
wear
kalimantan
microsoft
credit
definitely
stories
vietnam
formed
identity
iphone
occur
ordered
phase
reporting
resident
struggle
faction
fun
inspector
page
revenue
villages
creative
landslide
australian
kpu
qualifying
contains
facing
gaming
ham
includes
restaurant
ten
undergo
apparently
hidayat
lap
seats
comfortable
concerned
leaving
original
wrong
send
speaker
zone
commitment
determine
europa
monitor
replaced
secured
technical
clean
seasons
ambassador
dutch
kong
negative
strategic
vision
living
culinary
musician
shopping
sugar
trophy
angeles
bridge
buildings
grow
shop
titled
accounts
attitude
books
chances
dr
housing
sanchez
threatened
sentence
depok
junior
remain
spend
troops
blasphemy
forget
lasted
locations
roads
seeing
size
anniversary
armed
daughter
dpd
figures
hair
rain
residence
fa
ice
rumored
dangerous
finals
obama
chairperson
costs
damaged
handed
indra
maritime
progress
significant
unable
malaysian
plays
wide
achieved
girl
mitra
qatar
secure
becoming
proposed
arts
holiday
port
racer
inside
looked
pro
reality
divorce
napoli
singles
sometimes
cell
containing
portugal
update
becomes
documents
fall
required
terrorism
youtube
methamphetamine
questions
ban
border
helped
intelligence
possibility
recording
welcome
respect
everton
examined
forum
foundation
institute
noted
tv
artists
crimes
dozens
loan
options
secret
seem
undergoing
banten
sale
antonio
invite
pertamina
rich
taxes
apply
check
rejected
showing
emerged
phones
surprised
announcement
dream
registered
broadcast
hamilton
medal
movie
ri
rock
affected
occasion
clearly
formula
handling
malang
plenary
alternative
ever
investigating
collected
please
tea
valentino
batik
distance
flag
producer
comment
duel
effective
families
grateful
lack
aircraft
banks
comments
double
farmers
method
perfect
politics
sanctions
stages
sudirman
accepted
customer
integrated
modern
pak
peoples
encourage
inauguration
pain
san
street
pictures
registration
aware
base
enforcement
mineral
positions
qualify
ramadan
below
formation
motor
responded
saying
tottenham
chocolate
initials
participating
nuclear
pan
specifically
basic
cover
disney
fee
plastic
worried
characters
prayer
respective
stars
vs
widely
replacement
canceled
celebration
mean
politician
russian
summons
founder
serving
virtual
visiting
yellow
majority
milla
mode
regular
ways
coming
demonstration
menu
refused
salary
uno
remains
reveal
monaco
strength
conte
focused
fruit
rose
treated
bit
departure
protect
schools
equivalent
realized
vote
entire
owners
pounds
segment
sensor
syria
appeal
common
spent
tough
intended
suicide
weather
aka
raised
weight
ali
barca
bribery
closing
expert
file
fund
performing
ps
reporters
sixth
transaction
approach
birthday
connection
ducati
immigration
kind
mention
studio
citing
joining
lady
preparation
ranging
andrea
developers
experts
legend
memory
raya
sweet
waste
investigated
shares
signing
terminal
learn
losing
shared
tight
determination
automatically
banking
controlled
ensured
guests
imam
realize
talking
academy
anticipate
buying
contributed
crew
fastest
semen
spurs
investigate
involving
lampung
behavior
conflict
launching
marijuana
pks
sun
fresh
ios
moving
palembang
section
afp
considers
optimistic
sex
younger
brain
dark
items
munich
records
cinema
continuation
express
smartphones
warning
circulating
co
el
vacation
acquisition
tennis
wars
alex
army
confirm
limit
peak
policies
attending
exercise
fahri
manufacturer
mind
targeting
terrorist
wins
administration
seventh
advanced
performances
toyota
across
boss
coast
emergency
nusa
separated
blocked
cyber
riau
annual
distributed
floor
learning
managing
silva
agent
bought
contact
remember
selected
anthony
bomb
brazil
celebrate
elected
guardiola
kukar
morata
parliament
pop
releasing
riders
teachers
asean
confiscated
heads
sergio
straight
tells
aji
block
chris
inaugurated
kemayoran
lawyer
attract
auction
button
kuala
language
sense
tons
aff
factors
mu
purchase
contribution
driving
duties
failure
proposal
studies
talent
defending
expand
factory
fan
impossible
manufacturers
hearing
kept
meat
medium
mental
models
rohingya
abuse
afraid
anti
basketball
conduct
destination
enjoyed
finding
fishing
gift
listed
paul
requires
allow
lawsuit
placed
promote
rooney
verdict
fake
persela
property
broken
consisting
dress
gubernatorial
jerusalem
nicknamed
satisfied
supply
borneo
necessary
threats
applied
brazilian
fate
homecoming
pre
connected
detail
developer
institution
islam
preparations
taylor
researchers
rise
square
storage
understanding
defenders
edition
explore
kanye
knowledge
originally
singing
core
musical
non
doctors
ecommerce
fifa
lukaku
parts
pc
ridwan
vr
allegations
calls
client
devils
difficulty
disappointed
karya
legendary
meaning
participated
patients
permit
fuel
whatsapp
delivery
grams
intention
premium
scale
senayan
skills
tell
colleagues
contain
duo
hazard
horror
knows
prospective
sad
thomas
wonder
accommodate
coalition
continuing
criticism
dani
defend
drinking
faster
goes
lovers
netherlands
attacking
consider
costa
divided
lumpur
payments
weapons
argentina
defeating
mexico
traveling
windows
answered
brands
mainstay
materials
mcgregor
nature
operate
palestinian
watched
williams
carries
confident
explain
fields
gets
injuries
medals
motorbike
shortly
bureau
competing
concern
firm
midst
prabowo
rule
strengthening
tested
turkey
appearances
asking
bag
cells
foot
ground
sites
subsidiary
bts
decree
enthusiasm
inspired
mini
opponents
unlike
agencies
bottom
brigadier
criticized
decline
eko
requirements
responding
shape
citizen
dominated
gelora
giant
murder
prosecutors
tobacco
whole
advance
banyuwangi
flood
persipura
promise
rio
siti
usual
capable
consumer
destinations
feeling
forest
handled
iran
kalla
numbers
sky
writing
calm
closer
improving
profit
solutions
transferred
absence
abu
combination
jr
judicial
likes
ones
processed
reminded
careful
either
improved
involvement
manage
missile
priority
ram
scheme
surprise
wiranto
deliberately
hate
mechanism
messages
nusantara
sequel
tanjung
temporarily
boarding
cream
daniel
overall
slowly
wall
chile
proof
relatively
resistance
saiful
attacked
balance
markets
reclamation
sheeran
sister
smoothly
software
tbk
agree
bieber
conversation
defeated
lionel
occupied
separate
slightly
supervision
uk
upload
useful
catch
consecutive
filed
pairs
purpose
stand
volume
background
channel
diego
minimum
objects
passing
perez
pp
streaming
susi
valencia
alves
inaugural
marine
vocalist
approximately
gives
linked
prayers
switch
trip
constitution
employee
extra
glass
jazz
promotion
reaching
suitable
truck
expansion
fat
habib
postponed
pregnant
surgery
corporate
halal
lover
tanah
violated
absent
bodies
breaking
contained
gomez
lineup
platforms
priced
science
silver
complaints
demands
established
extended
grab
ideas
juve
marvel
prior
rates
returning
stomach
table
worlds
assist
crisis
fulfill
household
jorge
perry
promoted
sevilla
soap
welcomed
appearing
coordination
deemed
laptop
machine
taiwan
computer
ecosystem
fair
fill
fpi
lake
lucky
uber
appears
fit
freeport
guilty
peter
radio
robert
saved
winger
appealed
chicken
dealing
explanation
leaves
quick
responsible
retail
travelers
umrah
union
views
adam
collect
spending
stuck
wing
approved
escape
explosion
financing
millions
missing
superior
watching
worry
blancos
exist
findings
greater
harassment
orders
overcome
trafford
alexis
brings
causes
combined
crowd
factor
individual
pogba
ring
shirt
accompany
assists
bin
coaching
edy
extension
feet
lines
properly
resulted
winners
bengkulu
charges
conducting
conjunction
covered
emirates
fisheries
permission
respond
soft
whatever
attractive
businesses
consists
effects
maung
re
relevant
teacher
violations
window
animals
billboard
categories
del
hero
leicester
newest
palestine
temporary
tradition
word
basically
buffon
door
likewise
mario
mayweather
packages
regularly
responsibility
southern
buried
confidence
creating
facts
gamers
greeted
industrial
israeli
issuance
partnership
refugees
soekarno
waters
causing
excited
fairly
gate
impressive
milk
simply
cameras
colors
freedom
jusuf
knew
luxury
ratio
challenges
changing
queen
rooms
saint
soldiers
systems
affect
aspects
cabinet
email
functions
gap
intel
megawati
provisions
reduced
theater
tired
arab
discussing
helping
license
parking
stress
symbol
eastern
exact
founded
maintained
maulana
nba
permanent
testing
aspect
audio
bi
claim
coutinho
duterte
hotspur
narrow
thai
trains
entrepreneurs
gone
inquiry
kylie
mall
stefano
telephone
adi
ayu
boxing
christian
debt
diet
extend
fantastic
integration
pilgrims
ppp
praised
regulated
salah
sharing
signs
appreciation
battle
crystal
di
label
mercedes
mouth
nearly
occurs
sing
tests
tokyo
adding
aimed
api
dimas
familiar
klopp
removed
ships
william
alcohol
argentine
automotive
bale
cambodia
convey
drinks
fasting
gede
growing
input
medicine
might
mui
raise
trust
visits
anticorruption
church
directors
ferrari
fierce
hadi
kurniawan
maintaining
statements
tonight
certificate
hear
jay
jordan
journalists
martin
pedrosa
revision
spoke
childrens
dewi
humans
male
maverick
nickname
operational
participation
pattern
picture
ranks
smooth
stronger
viral
beyonce
buses
california
crossing
interests
kampung
negotiations
pacific
serves
sony
summoned
surprising
values
baru
celebrity
congestion
congress
deep
dry
duty
earth
enjoying
familiarly
marked
meetings
patient
washington
appropriate
blues
certainty
cheap
cooperate
girls
influence
jack
losses
missed
viewers
capabilities
commerce
facilitate
implement
kane
reply
sharp
smith
starring
subject
degrees
generally
initiated
midfield
processor
specifications
stressed
text
tool
variant
aid
anas
confused
draft
honor
hti
imagine
powerful
pretrial
strengthened
tri
address
andre
begin
collaborated
components
counter
eighth
identified
indian
indictment
promises
reporter
rivals
ace
animal
attractions
brilliant
celebrities
gresik
magazine
ministers
myself
pizza
shots
typical
vettel
zinedine
advised
evan
fly
introduce
iwan
offering
prize
sorry
aims
cold
decide
drive
federer
heritage
hosted
ideal
prove
remained
reza
composition
ingredients
passenger
pray
raisa
ranked
sean
standards
substitute
trusted
airlangga
ar
assisted
bigger
compensation
earned
jk
kg
paper
patriot
prestigious
town
finishing
jayapura
length
mistakes
pitt
protest
questionnaire
vegetables
warm
analysis
communicate
dual
et
flagship
lifestyle
mistake
processing
recommendations
sidelines
sitting
withdraw
dedi
gunners
subdistrict
unity
violating
weinstein
aggressive
bike
boost
cadres
cool
ed
environmental
funeral
kill
rather
royal
signal
suarez
thinking
tony
trigger
abang
communities
democracy
die
expect
flying
helps
implementing
invitation
joe
keyboard
lyrics
pieces
rapper
speak
talks
deny
duration
experiencing
habit
instant
jolie
putra
remove
satria
shocked
solve
southampton
starts
temple
yudhoyono
displayed
happens
inflation
insurance
resort
standing
worship
bangkok
borussia
classic
crucial
dian
engineering
hendra
honorary
improvement
juan
lazio
liam
mostly
okay
packs
plants
presents
rarely
syrian
begun
cloud
comedy
excise
fraud
importance
justin
lukman
resignation
ade
chaos
companys
competitive
dialogue
flights
hajj
heat
idol
initiative
pol
posted
severe
spot
upcoming
welfare
achmad
designer
exactly
headset
object
pushed
seoul
spotlight
sweden
tenggara
tweet
walk
wild
apologized
fried
hatta
indah
indonesians
moon
procedures
recommendation
trophies
unknown
walking
write
yourself
amazing
cake
diseases
emil
logistics
martial
opera
sufficient
ajax
benefit
choosing
congregation
cooking
installed
ive
jobs
link
register
seriously
terrorists
trouble
wish
bacteria
concerts
context
coordinate
diplomatic
dropped
egypt
las
mm
reaches
strike
sultan
alert
angry
articles
brown
costume
delicious
popularity
qualified
rear
recovery
referred
rushed
seat
tower
universities
bar
conceded
customs
decisions
developments
dwi
episode
eventually
guest
koran
moments
muda
posts
poverty
prix
solid
weak
attached
chat
command
confederations
decades
historical
irfan
lenovo
ordinary
pole
provinces
rival
silent
stations
agents
arsene
beaten
canada
commercial
empty
exciting
guarantee
maluku
sectors
valid
zealand
administrative
affordable
buyers
chili
connect
depth
discovered
glasses
interfere
jams
prevention
raw
swimming
thrones
warriors
allegri
branch
critical
dua
philippine
appointment
aubameyang
boat
dismissed
eliminated
gaga
jersey
kuningan
map
plant
referring
ryan
sam
santoso
shoes
soccer
suggested
temperature
tom
urban
venture
wider
akbar
awarded
burden
coaches
coordinator
dominate
equalize
ex
impression
luck
mas
mi
moscow
ongoing
sees
worse
confirmation
demonstrations
federation
files
george
imposed
massive
organizers
path
pitch
prisoners
recognize
represented
tools
accusations
announce
bung
communications
fishermen
hesitate
inspection
investigator
jessica
mining
nme
pep
persiba
pregnancy
shihab
st
burning
diversity
drew
essien
momentum
monas
pasar
phenomenon
routes
behalf
bmw
breath
collecting
connectivity
consuming
delivered
destroyed
fellow
flooding
gain
hardware
holidays
ivan
le
older
operator
organizing
podium
thinks
touched
wore
xiaomi
athlete
chen
deserves
enthusiastic
greysia
happiness
nadal
possession
procedure
recognized
sending
setiawan
showbiz
tend
tens
virus
ai
airlines
anymore
availability
beijing
fajar
footage
gianluigi
integrity
motorbikes
movements
pln
precise
remarks
structure
actively
amazon
anton
efficient
fear
halim
lets
lombok
reads
reds
sukabumi
western
worldwide
yusuf
apartment
author
brothers
caption
decreased
espanyol
fighter
hotels
iraq
kelapa
lived
networks
nur
persecution
retire
servants
cheese
crowded
deadlock
discussions
prefer
prohibited
razer
recruited
setting
shoot
smoking
stands
stepped
telegram
votes
zarco
apologize
campus
establish
fees
firmly
masters
mpr
paying
requested
santiago
separately
traders
trick
ad
comply
decrease
driven
establishment
evacuated
factions
forms
kingdom
mandiri
metal
paulo
penetrate
ranking
reducing
salt
surface
trading
bangladesh
bronze
cavaliers
clip
complained
dog
headed
marco
movistar
none
ran
relatives
resigned
resolved
streets
tan
uniform
verification
assessment
bima
bluetooth
closest
consideration
deployed
disclosure
entry
exports
false
halftime
images
industries
interestingly
master
olympics
premiere
presentation
simultaneously
teco
admit
advertising
aim
approval
ethics
euro
footballer
format
gathering
hectares
index
landslides
laws
loans
loved
marketed
maximize
mrs
praveen
producers
respectively
rt
runs
slamet
speculation
tries
turkish
winter
worst
advantages
assembly
circulation
creation
debate
educational
faces
fitness
gear
icon
provider
providers
recruit
scorer
seed
theres
voting
aged
alonso
artificial
businessman
carlos
competitors
controversial
dangdut
handle
huawei
improvements
joy
knee
louis
occupy
ocean
pretty
quoting
summit
taxi
underwent
usb
violation
attempt
bbc
bundesliga
clashes
habits
herself
invites
jasa
mandate
mohamed
nice
nintendo
psms
sub
todays
trailer
turning
volunteers
africa
balikpapan
cast
cole
competed
defendants
dispute
drone
external
extreme
giants
intensive
listen
matters
mothers
nasution
northern
oscar
papuan
purchased
realization
roberto
steal
stone
stores
taufik
terry
trumps
wijaya
arrive
boxer
celebrating
college
diabetes
differences
else
ethnic
granted
grew
logo
manpower
mega
meter
obstacles
romantic
andy
calling
centers
championships
couldnt
evaluation
export
graphics
havent
holds
iron
marketplace
ntt
persons
readiness
replied
reputation
urged
zulkifli
attracted
bombing
circulated
dinner
floods
kilograms
laskar
lewis
mars
offices
recommended
simultaneous
socialization
susilo
variants
vitamin
alvaro
comfort
emotional
exclusive
headphones
pink
principle
relax
ride
smile
tommy
tree
abilities
activists
completing
defended
described
focuses
hd
homes
hybrid
imports
increases
individuals
nasir
optimal
repeatedly
rolling
sake
bay
cleaning
consume
fiscal
fled
height
holy
kardashian
ki
lamongan
ownership
portuguese
stick
tournaments
amnesty
applies
awareness
batam
bri
capture
consumed
ensures
excessive
invest
iskandar
jones
learned
loyal
ninth
presenting
respondents
searched
selfie
sellers
semifinal
sporting
surya
yoga
appreciate
brigade
crazy
facility
furious
intake
lights
pick
provision
referees
script
sit
spotify
surrounding
syarif
symptoms
tweeted
wave
agriculture
aviation
cloth
commemoration
doubt
estimates
followers
governors
grande
juice
kamil
makeup
monitored
presidents
rating
regime
theaters
thin
tires
treat
ulama
universe
albums
breakthrough
contents
detailed
dismissal
dj
griezmann
import
innovations
jong
masses
sides
submit
truth
ve
wealth
wireless
audit
contribute
dating
exposed
focusing
gathered
hasan
intends
magic
marga
necessarily
notification
rescue
revenues
sanjaya
studying
uefa
usa
warner
accessed
amounting
attraction
crash
elementary
expectations
hamzah
kai
mountain
pkb
professor
slow
steven
styles
suffering
arif
bnn
eka
ending
heroes
hunt
lies
mix
perspective
princess
producing
punishment
rely
remote
sir
spectators
supervisory
wanting
boys
bruno
bull
century
dominant
flooded
interior
isco
journal
leads
particular
pilot
rodriguez
sang
stable
studied
transport
vendors
wellknown
airline
alumni
appreciated
bella
cigarettes
denmark
elite
execution
experiences
genre
lending
lg
newspaper
promoting
putri
qualification
scoreboard
steel
waves
whom
accelerate
accidents
allocation
asus
bags
cholesterol
condolences
engaged
examine
follows
lens
minor
pack
passport
pressing
sick
territory
breakfast
clinton
drop
grammy
karawang
labor
manner
mutual
securing
teguh
adele
bicycle
closely
clothing
debby
eggs
germain
globally
inspiration
instructions
kate
obligations
olympic
operators
protein
sabang
sessions
sleman
talked
ariana
bang
borobudur
channels
characteristics
criteria
crossed
depends
desktop
duet
kinds
mata
militants
netflix
praise
predicts
procession
rare
realm
riding
speaking
strange
survive
updates
web
wet
xi
bobby
bribes
considerations
density
disorders
document
dragon
entrance
foster
gareth
guide
hes
insists
languages
moto
noodles
opposing
quarterfinals
raid
starred
thick
threshold
warned
yahya
anang
animated
associated
cafe
cigarette
commented
concerns
fintech
gray
iv
karno
maria
messaging
oh
potter
push
railway
rian
seeds
snapchat
storm
suzuki
trafficking
tragedy
whistle
committing
demanded
dominance
ensnared
garut
hanif
joshua
katy
memorandum
messenger
minimal
obligation
pekanbaru
rehabilitation
singers
suffer
tips
wayne
whats
allah
belgium
declaration
disabilities
falling
filming
gunawan
hp
killing
measuring
muhammadiyah
nominations
notes
peaceful
rey
routine
scenes
seek
snapdragon
speakers
spreading
assesses
checked
console
enrique
enterprises
fulfilled
gay
gideon
grant
ligue
monument
picked
pm
pride
slick
struggling
sung
suspended
tag
transparent
uncle
warehouse
worn
acceleration
collaborate
convenience
enlivened
eruption
explains
fought
fox
gun
ibra
markle
meant
nokia
nominated
nugroho
painting
pixel
plate
promoter
putin
ratu
reference
regretted
replacing
represent
require
resign
smes
stored
trucks
unitary
afc
ambition
arrests
attempts
automatic
bonus
burned
cancel
climate
dated
disappointment
emergence
ends
feelings
hary
hometown
horse
humanitarian
imported
investigations
jenner
opens
optimally
returns
rid
stamford
ui
umbrella
vegas
viktor
adapt
angel
beta
bottas
chef
colored
coordinated
courts
crude
czech
disclosed
discourse
embedded
flash
htc
liked
motivation
nose
orange
personally
ramos
teeth
afghanistan
akp
ancient
blind
bond
cadre
comic
complaint
dollar
edge
eric
error
escaped
footsteps
gea
hamish
intensity
jennifer
permits
purposes
rolled
shift
stones
teammate
tegal
tsunami
upon
visible
watford
zero
zlatan
andika
anywhere
barack
bayu
bros
democrats
dubai
egy
eve
expenditure
failing
followup
girlfriend
guardian
harmony
hunting
indications
javanese
kilometer
leaked
mid
neighboring
rizal
sensation
switzerland
testimony
upper
accompanying
asset
banned
bench
bukit
certification
checking
commissioners
completion
danger
ezra
facial
firmino
insisted
interval
journalist
keeping
kota
mohammad
repeat
repsol
sara
sauce
sells
sleeping
smoke
specific
aggregate
bed
charity
cinta
conventional
degree
dish
evacuation
garden
honest
mah
min
parent
rakhine
recognition
recover
reform
rural
settlement
sparked
strongly
tablet
tariff
adapted
amsterdam
barrels
calendar
clause
convicts
curious
detect
dijk
exit
expression
gambir
gifts
jesus
manila
monster
pocketed
pondok
protests
rudy
secretariat
servant
species
teaching
teammates
wind
auto
briefly
catalan
civilians
confession
featured
foreigners
hurricane
incidents
jonathan
laboratory
mail
marawi
newcastle
ok
prone
races
rudi
sebastian
settle
shouted
successor
supposed
taman
topic
venue
adds
administrators
airports
archipelago
belgian
beyond
childhood
coconut
contrary
dc
designers
flores
gus
hanging
helicopter
huge
inmates
jonghyun
legally
merchants
portion
protected
superseries
tesla
alexander
apples
applicable
cat
choices
coached
convention
creativity
depression
dreams
fauzi
fiorentina
gather
illness
informed
managers
nick
reject
rising
shops
steve
swansea
abdullah
accessories
acquired
approached
bright
cm
denpasar
fallen
max
neck
regret
restaurants
ricky
santos
smartwatch
volleyball
acknowledged
cheaper
collapsed
copa
crashed
creator
currency
defensive
erick
gen
hayden
hearts
johnson
lebak
lyon
mature
organized
pierre
pills
reception
referendum
studios
victor
anticipated
corn
districts
ear
efficiency
hbo
hospitals
hurt
influenced
kicked
lighting
lots
luckily
mane
methods
powered
retired
smell
surprisingly
tears
tempo
viewed
weapon
wishes
zayn
accurate
acid
apps
bonucci
certificates
colleague
concrete
dan
deficit
element
frontman
gratitude
heavily
husein
jackson
lowest
loyalty
memories
persebaya
prioritize
raja
resolve
salman
screening
vessels
wont
yani
barito
bear
benchmark
canadian
celtics
controller
correct
da
decade
gaza
letters
mkhitaryan
mouse
ott
physically
residential
salim
sat
selfies
stability
strict
suspicion
tasks
teenagers
tracking
wembley
arranged
arriving
ben
complicated
consistent
continuously
depending
dishes
enliven
entrepreneur
generals
guarantees
harvey
indicated
istiqlal
measure
observer
pki
pratama
probably
proved
relies
rhythm
surroundings
timor
voters
adventure
advice
aziz
breast
carlo
coal
controversy
cook
cruise
cs
dare
diesel
expo
federal
fighters
friendship
hang
italia
kupang
lin
lucas
perfectly
planet
profile
rapid
realizing
robot
shelter
snow
sterling
threaten
trapped
valuable
xbox
xl
activist
asks
belief
bitcoin
captured
cilacap
conservation
esp
except
flat
goalless
hakim
isnt
kitchen
larger
marshal
pocket
restore
rico
simon
technological
visual
writer
amended
bands
bap
barat
cable
charles
controlling
disturbed
doubled
faculty
feared
flats
judged
landed
lifted
lined
lively
marry
operated
presenter
preventing
processes
prosperous
pulled
rahmat
satellite
selatan
sydney
treason
triggered
witnessed
worker
anxiety
apparatus
arrangement
begins
caste
celebrated
chemical
chest
danilo
destroy
discount
edi
hoax
ibl
identify
infection
involve
mate
outlets
petition
preseason
promising
ruben
sharia
specialist
trends
youngest
adults
bomber
carnival
catalonia
comedian
companion
costumes
deadline
exploring
ferdinand
gamelan
guaranteed
hello
hidden
lift
manufacturing
ordering
passion
precisely
preliminary
rental
spoken
summon
swedish
telecommunications
texas
unbeaten
alam
blessing
britain
buttons
clients
cycling
elizabeth
enemy
exception
exhibited
fail
gates
grabbed
hashtag
iqbal
julia
ma
rahman
riedl
sacked
sensitive
sensors
solidarity
veteran
weighing
youre
zola
caliphate
classes
compact
comprehensive
count
deciding
defeats
ease
entourage
fernando
founders
glance
gusti
harm
highlighted
jember
johannes
keys
legislative
liu
machines
missiles
nomination
revised
roll
scientists
settings
shanghai
sounds
sunderland
tisha
vulnerable
academic
adjust
bowl
cervical
christie
cofounder
collections
courtois
delayed
exists
hijab
iconic
ideology
involves
joong
komodo
lawyers
lung
lying
manado
multiple
recipients
revocation
savings
shootout
sustainable
wifi
wood
aluminum
angkasa
astra
benzema
cavani
chicago
commit
commodities
compatible
delay
earn
equal
fahmi
forestry
hat
johan
legs
leonardo
lgbt
licensing
literature
militant
pura
rains
reliable
reunion
rubber
runnerup
self
surrounded
surveillance
addressed
adult
anwar
benjamin
calculation
espn
fiber
gallagher
gigi
gunung
inc
iot
navas
obtain
opposite
pornography
rocked
roles
rw
scott
shake
teenager
tends
yoo
adrift
alibaba
ambitions
batu
berry
closure
component
consisted
dahlan
dealers
discovery
donated
eradicate
issuing
menteng
miami
movies
passes
pilgrimage
prevented
psychological
pursuing
pyongyang
recovered
recruitment
refuse
rodrigo
rome
scary
selangor
tech
telkom
tensions
trained
chan
cirebon
coldplay
commemorate
covering
derby
finger
freely
funny
gradually
herrera
ill
maps
noel
propose
protocol
pursue
putu
smuggling
snacks
spaniard
uruguay
versions
wrapped
assigned
bournemouth
cleveland
climbing
commonly
difficulties
distribute
drake
examining
fleet
flowers
frame
hide
impressed
iraqi
kids
knowing
li
mecca
mirror
ms
origin
pos
printing
repair
sapta
sets
sidewalks
silat
talented
trials
uploading
walked
andrew
aris
broadcasting
cardiff
communicated
consulate
contrast
cooperative
couples
hernandez
lopes
mentality
msi
navy
nou
opinions
opposition
os
paired
pontianak
prima
print
produces
regard
rocket
staying
tire
trio
ulema
urges
whereas
african
agricultural
andri
bribe
cellphone
dam
exploded
gading
graha
grounds
heru
hijau
mike
openly
packaged
pelita
percentage
postpone
prof
reasonable
relegation
sar
shifted
soul
spicy
subdistricts
suit
suspension
taxpayers
totti
welcoming
alive
aragon
beer
blaugrana
crown
deliver
drawn
evaluate
ferry
flyover
gonzales
guitar
harris
heading
highly
hr
hye
matthew
migrant
motion
muara
nervous
nor
piece
pool
promotional
proper
ratification
restrictions
rita
rush
scotland
shipping
smaller
stephen
sworn
talents
toro
trans
transition
tweets
violate
wheel
workshop
amin
brian
chipset
cyberspace
danny
defamation
detachment
dragged
grave
guidance
inappropriate
inch
jonas
lingard
macron
malik
montella
monthly
offside
packed
prosecution
radicalism
rent
signature
spider
statue
strikes
throwing
usd
ventures
whereabouts
wine
withdrawn
accepting
allowing
apology
approaching
bait
balanced
beef
boyband
brad
brunei
chip
circle
declined
describe
dimensions
doors
egyptian
exo
florida
forever
henry
homeland
icardi
kidney
lesson
mclaren
millennials
nails
observed
patterns
philippe
practicing
scandal
suspicious
theft
torino
treasurer
verstappen
vidal
visa
winds
adequate
angle
applicants
batang
boats
bruyne
calories
celebrations
designs
disappeared
expanding
faith
gender
gods
gonzalo
intense
lane
laps
laundering
packaging
patrol
politicians
pornographic
productivity
profits
puts
relying
rented
requests
sharapova
strip
supplies
tiger
turin
unusual
absolutely
adjusted
anger
bearing
charging
clarify
consortium
contest
corporations
directions
eden
elegant
emma
environmentally
evil
finances
graduates
hobby
jedi
laos
leste
liquid
melayu
mexican
miller
mitsubishi
nutrition
prefers
reaction
respects
risks
samuel
selena
solar
stadio
tactician
technologies
transmission
trees
venezuela
wonderful
adopted
casualties
collaborating
comeback
contracts
copy
determining
disorder
ecstasy
expanded
fingerprint
fortunately
frequently
grade
happening
ji
judging
liter
loud
loves
luke
maintenance
melbourne
micro
motivated
pollution
rank
researcher
salaries
sari
select
taught
themed
transit
trips
utama
verge
verse
ancelotti
asensio
belongs
bologna
connecting
decisive
dogs
eva
filter
flower
gabriel
grass
hits
immigrants
incumbent
installation
instruments
introduction
jean
joke
mountains
otto
outstanding
polling
ports
quiet
relaxed
remind
resulting
revoked
saputra
sudden
synergy
understands
unesco
vladimir
ap
bounced
cows
deserve
donations
downloaded
elephant
featuring
fielded
firman
forgotten
fruits
garbage
gary
gorilla
gross
hamid
hostage
ismail
kamal
landing
laptops
liver
modes
ngurah
oculus
offline
pixels
prisons
productive
puerto
puncak
questioning
rai
reserve
rosso
sm
spring
stroke
unite
wings
announcing
arms
bilateral
blessed
boyfriend
depp
excitement
extortion
filling
hatred
imprisonment
interact
ite
karim
ministries
palm
parade
practical
predict
principles
profession
richard
runner
serang
sim
slander
steam
struck
subs
susanto
synonymous
thoughts
tolerance
traveled
utilizing
willian
abraham
acted
ahsan
alli
alliance
annoyed
applicant
burnley
carbohydrates
congratulations
deaths
eliminate
francesco
ghz
hackers
immune
karaoke
leak
maximized
mh
ourselves
projected
pure
raffi
rejection
securities
semi
settlements
tenure
tied
tone
twins
aging
biological
bone
bps
colorful
copies
corps
daud
diana
embankment
emotions
encouraged
engines
everywhere
gang
highlight
hitting
indigenous
inhabited
instrument
jacket
jam
ll
minimize
nasa
nu
practices
purchasing
richter
rossoneri
sons
stance
supporter
survived
tribute
ads
aspirations
chain
charts
consultation
der
distributing
eaten
empowerment
equalized
exploration
fires
fps
introducing
jamie
jerez
lite
maya
mystery
naturally
nico
noise
notebook
putih
recruiting
sadness
saut
siregar
sms
spots
stole
sued
taxis
tigers
tongue
uncomfortable
wage
wasnt
weaving
wiretapping
aggressively
arrears
avengers
beneficial
berlin
bread
breathed
brilliantly
burn
cancellation
cargo
chancellor
conflicts
consistently
dowry
fbi
gardens
giroud
greatest
insulting
johann
jung
mac
mandatory
nissan
operates
petrucci
picking
pique
plaza
raising
saracen
saving
sheila
si
slam
soil
universal
urge
victoria
zheng
aaron
awaited
blew
bni
calculated
celsius
chasing
cinemas
circular
column
corridor
deposit
diving
flew
framework
functional
ghost
guarding
highway
leipzig
marcelo
marks
marquee
muscle
pacquiao
pen
poland
quota
rafael
refers
regulate
screens
silence
spices
stealing
steering
stopping
struggled
uniquely
volcanic
acne
advisory
anyway
ari
atm
badly
blackberry
challenged
container
creators
disbursed
ears
engagement
feud
graduate
graduated
guys
halloween
hampered
han
historic
hurry
ignored
ilham
intend
ita
jurgen
lately
legends
marca
obviously
organic
organizer
oversee
pencak
polish
predecessor
recipient
renewable
roof
serial
sight
spice
therapy
wahid
ward
washing
withdrew
anfield
austrian
bananas
bca
brom
cctv
checks
coastal
computers
consist
converted
courage
danish
drones
earphones
francisco
guntur
hacking
ipb
koeman
marcos
marham
markus
measures
meghan
mixture
mosques
motive
naked
nikita
nominal
notifications
nuances
observations
opec
performers
prohibition
promo
prototype
rail
rainy
rapidly
regardless
renovation
revenge
seeded
snack
strikers
tb
tender
thanked
ties
undergone
accuracy
affair
bottle
carefully
clarification
digestive
disrupted
drawing
equally
fed
feedback
guards
habibie
identification
ireland
jae
keeps
lion
lunch
magnitude
mosul
necessities
neighbors
overseas
pb
penalties
plot
prestige
prioritized
qualifiers
reborn
recovering
requirement
reveals
robin
satisfaction
substance
thor
timur
viewing
weeknd
amid
andor
cairo
chrome
compare
concentration
contemporary
cooked
corporation
dared
deadly
delegation
demian
description
emphasize
escorted
expires
exposure
ford
gerard
ho
innovative
jonatan
krl
library
lowered
massimiliano
mediation
membership
munir
pace
panic
parliamentary
penetrated
porto
proceeds
protecting
repeated
reserves
ricciardo
riots
romance
runway
stakeholders
stolen
sumba
tattoo
truly
ufc
valley
vegetable
wake
wales
whoever
worthy
audiences
besar
bottles
bravo
cakes
clash
connects
conor
contingent
conversations
cry
dealer
discounts
dna
dor
etihad
falls
forbidden
furniture
globe
grace
grandmother
guarded
hadid
incentives
inequality
intervention
lacazette
nvidia
pants
photography
placing
pokemon
protested
regulates
shame
siri
sought
sp
spatial
stabbed
threatening
vocational
weekly
alfred
allocated
argument
arm
axelsen
ballon
bastian
billy
combine
commotion
competitor
dedicated
dewa
displays
dressed
encouraging
excess
explored
frequency
gong
haris
hi
impose
inches
inclusion
indicates
indication
lock
madonna
multi
outlet
playstation
racers
rais
retirement
reviewing
rihanna
sealed
snake
synchronization
technique
transformation
unicorn
advertisements
albion
arie
asphalt
assistants
cabello
camps
centered
christopher
climb
cls
crater
crushed
destruction
discrimination
dispatched
eddy
emoji
executed
exercising
fantasy
feed
fixed
hamlet
hillary
ibrahim
identical
independently
jin
knife
lemon
mary
mauricio
mesut
moderate
naturalized
nearest
nobel
normally
oled
outdoor
pedestrians
perhaps
philosophy
pillars
promotions
protesters
provoked
reduction
reviewed
sail
strongest
threw
throw
trending
unexpected
wary
wibowo
abused
adrian
arise
augmented
ballistic
carter
ceballos
chamber
chemicals
circles
closeness
complement
convincing
crying
deals
depend
desired
dhani
diverse
dressing
dylan
egg
evasion
executor
eyeing
fame
golf
haji
investor
lewandowski
locked
millennial
mueller
novels
nutrients
presidium
rankings
saleh
sandro
scientific
sidoarjo
subordinates
suppress
tariffs
tidal
toilet
transfers
wong
abbas
abe
accidentally
aired
ampat
analyst
appreciates
arifin
athletic
bahrain
banda
blocking
bombs
boots
brave
candidacy
clinic
colombia
condemned
conducive
consequences
corden
county
deceased
decorated
della
demonstrators
discipline
divide
draws
entertain
entertaining
evacuate
existed
fatwa
forming
foul
franco
hart
hulu
inactive
infected
jati
jeans
lecture
longest
manggarai
mentions
native
oldest
onto
overtake
parked
partnered
pleased
rb
saves
semester
soldier
split
subscribers
superstar
tactics
transmigration
urine
venues
vigilant
wei
wheels
woo
amir
andreas
applying
arthur
austria
belitung
candy
challenging
chart
convict
crossbar
employment
entirely
festivals
hammer
healing
huda
indoor
informatics
jci
jon
khan
layer
les
meets
merak
mice
murray
neither
obstacle
payne
polices
powder
principal
professionals
purely
relieve
slot
sophisticated
standby
swiss
tab
termination
togetherness
yemen
atalanta
beans
boston
bwf
celta
centimeters
chassis
choi
claudio
craig
dates
dawn
deeply
denies
depressed
diamond
disciplinary
dubbed
dynamic
erwin
essential
fatigue
frozen
glenn
guy
ha
inviting
ipad
johnny
kang
labeled
laugh
meal
motorized
natsir
nougat
oxygen
pakistan
pets
properties
recommend
ritual
ronald
rowling
ruled
rutan
seeking
seminar
slated
subsidies
superhero
syndrome
teach
thrown
uploads
xavi
allianz
amazed
americans
americas
amounted
angelina
banjarmasin
barrier
classified
cooperates
cutting
electronics
embezzlement
ensuring
generations
granting
greet
gt
iceland
idx
interviewed
jumped
lie
lips
luna
midnight
otherwise
pepe
peru
queue
readers
refugee
revolution
roger
samarinda
sandy
shock
sidewalk
significantly
situations
sr
subsidy
superiority
technically
tension
topics
vocal
wears
arguably
billions
blog
boxes
cak
claiming
click
coverage
crotone
daihatsu
daughters
departed
detected
echo
encourages
establishing
fireworks
fix
floyd
frank
goodbye
gps
homework
hyun
inflammation
influential
intensively
jury
koreas
kyo
latin
lecturer
leo
maker
midfielders
mongolia
mood
notice
palestinians
preview
quran
radar
raises
rally
regrets
rini
robbery
subscription
thwarted
vitamins
abandoned
accessible
actual
alexa
altitude
answers
autonomous
azhar
bars
bass
bird
blade
browser
civilization
coral
curry
dhabi
dramatic
entity
ev
floating
greatly
hiding
ihsan
jimmy
jl
jointly
kilogram
lacking
lebanon
lightning
menus
mirna
montreal
newly
ondemand
oneplus
output
owns
portable
pressed
ray
regulatory
respected
sand
stoke
tama
tasted
toba
toni
versa
volunteer
absorption
adaptation
avoided
barrel
blow
bonds
booking
collapse
colonel
commodity
cornell
correctional
creations
cristian
cups
designated
disrupt
doha
doll
effectiveness
enterprise
entrusted
eradicating
flavor
formal
gopro
grip
harbor
holder
incidentally
investing
jd
jeddah
kings
marseille
mtv
oppo
orderly
penetration
peninsula
polemic
proves
ratified
recordings
sassuolo
skl
sociedad
stalls
stockholm
tae
undeniable
upstream
vital
wang
widespread
wounds
writers
aditya
adjunct
assumption
auspices
bbm
bid
cellular
collision
consultant
cultures
dancers
dances
database
declare
deleted
distinctive
documentary
farmer
fingers
garlic
geological
gomes
gtx
hague
hinder
hull
importantly
incoming
indicator
inspire
jeremy
jet
lieu
loew
mama
massage
mentally
motorcycles
narrowly
oasis
olympique
osvaldo
pilots
printed
raden
receipt
relied
riyadh
rob
roy
sepang
shades
starbucks
stops
strategies
sumatran
tiara
tissue
tomatoes
touching
trauma
tropical
unmitigated
vicky
vivo
wanna
absorb
accommodation
anthem
arabian
architect
banana
beaches
betawi
brexit
campaigns
chased
citizenship
citra
corrupt
courtyard
cuisine
custody
demanding
dharma
effectively
eliminating
evans
evenly
examples
exhibitions
expire
flavors
flexible
fundraising
gallery
glory
hamas
herbal
herry
humanity
jan
jewish
jump
knights
livestock
lopez
luiz
madiun
martinus
mayors
mertens
motorcyclists
mou
muscles
norway
nova
nurul
obtaining
opener
oso
pablo
partnerships
password
pepper
personality
pet
placement
portfolio
positively
punished
putera
sciences
searching
seller
skyrocketed
spaces
techniques
tract
tunnel
twin
unconscious
updated
vive
yu
aceshowbiz
adopt
auctioned
awakening
awi
backed
betis
cardboard
cemetery
ces
communist
criminalization
default
desperate
dignity
dion
dynamics
electrical
enters
experiment
fairy
firdaus
flexibility
forth
ginseng
gpu
hartono
hector
hell
hills
hmd
houston
humble
install
instructed
intentionally
interactive
interface
ipo
iranian
keita
kroos
lakers
lighter
lions
lpg
luxurious
motors
occasions
oreo
paolo
pension
philip
raphael
rebels
shaped
shinee
sme
tasked
telling
themes
tiny
tip
voted
aside
batch
beast
beckham
boaz
bonuses
buyer
calvin
cameroon
chapter
comics
communicating
demonstrated
disadvantaged
drastically
episodes
expired
farewell
favor
fu
gorontalo
graduation
grilled
gulf
healthier
herman
iman
instantly
investments
irregularities
karangasem
kh
malay
mechanical
mine
mohamad
priest
prisoner
recalled
refusal
relationships
religions
rides
scenario
seriousness
sisters
sovereignty
spokesperson
substances
tier
tio
tonny
understood
unless
vigo
villa
wheeled
width
yahoo
yulianto
advancing
affects
antoine
arya
axel
blame
blitar
buni
calculations
detainees
editor
emerge
fights
guitarist
hattrick
hill
inferior
intentions
interaction
item
levine
lifting
medina
morocco
moves
optimize
organs
passports
playground
poll
posting
potentially
qr
reconciliation
remembered
ricardo
rift
sanction
satan
scope
screened
specify
surely
thunder
transparency
vacancies
weekends
wisdom
zon
zoo
achieving
addiction
ambon
analyze
animation
balls
banyumas
batman
bones
carbon
combines
configuration
continent
controls
critics
fatal
fever
footed
gor
hacked
hasnt
heri
imprisoned
iniesta
ink
intersection
interviews
intimate
latitude
lazy
liquor
listening
lte
lunar
matchday
measured
mel
moral
nelson
numbered
organize
pages
particularly
phenomenal
radical
rebounds
reverse
revitalization
rockets
satisfactory
sd
simeone
siro
stake
stocks
stunning
suggest
susy
timberlake
valverde
villarreal
violent
visitor
wages
walker
wallet
acer
actresses
arresting
aura
balinese
bitter
branches
bundle
cal
charm
complain
compound
conservative
contractor
dancing
delivering
disturbing
dolls
dozen
editing
empire
estate
estimate
expressing
fence
garcia
gdp
generated
hawaii
hive
hole
incubator
kit
lrt
magelang
maneuver
matic
motorsport
mpv
mrt
nam
painful
palu
panther
poso
purchases
ranieri
reactions
relation
revealing
rohit
runnersup
santa
scattered
socialize
stood
surprises
tense
texture
tours
walls
yunus
allegation
ammunition
ankle
befell
benfica
beverage
bite
bride
bromwich
burst
chronic
citys
conclusion
contested
corners
cosmetics
coupled
creates
criticize
dangers
dirty
disasters
distributor
dwp
enemies
excellent
exercises
fifty
flown
genres
harvest
hip
honey
hyuk
ika
ivory
jason
leather
lukas
mainly
manual
massa
middleton
nia
occupies
outer
paint
parks
patrick
planes
pr
putting
realistic
refinery
regencies
representing
ruling
schumacher
shah
shut
slim
submission
swept
toronto
touring
traditions
unpleasant
vi
wolf
woods
acquire
albert
arose
bestselling
bowie
careless
chaired
collective
combat
constantly
coppa
covers
democrat
edison
effendi
electoral
excel
finds
franchise
geophysics
hinted
hosting
indie
insult
insults
javier
jek
kartika
keith
kickstarter
kirana
ktm
lama
lastly
lasts
lenses
mada
maduro
marcel
mohammed
muhamad
noor
oversees
overtaken
plantation
primary
prominent
purple
pushing
qualcomm
rap
refer
refuses
remission
resistant
restructuring
roundabout
rpm
shipments
shortcomings
soda
soundtrack
spark
subsidized
toxins
trailed
tribe
tuban
underground
underwater
verona
vietnamese
wash
wayang
wow
yang
admiral
affleck
ambassadors
antioxidants
aperture
appetite
asleep
attracting
autopsy
awarding
beloved
bey
blockchain
bumi
cabin
caffeine
cattle
chronology
clarity
climbers
coincide
cyrus
deliberation
detrimental
diaspora
diligent
disciplined
disturbances
divestment
elderly
erdogan
eu
fabrics
facilitated
flu
forensic
futsal
gregoria
halep
isolated
ivanka
joked
ken
labuan
lamar
lanes
legislation
lessons
marathon
mom
morgan
moses
negara
netizen
networking
obesity
obey
parker
petersburg
practically
princes
prompted
puan
raided
realtime
respiratory
riot
rotation
sexy
sits
stir
submitting
suggestions
taxation
tora
upgrade
voices
vowed
wimbledon
adoption
afghan
alan
alberto
algorithm
argued
bored
broad
carey
clouds
comparison
competitiveness
conspiracy
darussalam
des
dong
dust
edward
equality
eriksen
exceeded
factual
fare
florentino
fugitive
greg
grown
immediate
inform
inner
intellectual
interim
invested
knocked
latif
lobby
lowering
lupus
manages
ministerial
nets
nights
observers
odd
offensive
packing
participant
pleasant
pointed
prediction
rd
reasoned
recitation
recommends
registering
rescued
roni
sentences
shifting
shocking
sinking
sole
subang
sunset
terrible
toy
unclear
veronica
victorious
weakness
accelerated
accommodated
activate
adhi
adventures
advisor
analog
aoki
avocado
avoiding
ballot
blok
botanical
carrots
ceiling
cheapest
christians
consolidation
crane
cucumber
dawah
din
disappear
doli
douglas
economics
enforced
engineers
expelled
fault
fellaini
ferguson
fiction
fulfillment
gordon
hari
hee
holland
hungary
iannone
institutional
juergen
kediri
lebron
lightweight
limitations
manuel
matt
md
megapixel
minority
negotiating
nowadays
paulinho
photographer
racial
safer
sampdoria
satay
screenplay
senate
shadow
slipped
specially
stade
strait
submerged
suharto
tail
telegraph
thiago
trap
travis
umar
vaccine
wasted
worrying
wound
woven
zones
aladdin
ambulance
aroma
asma
backgrounds
bamboo
bangka
blizzard
booth
brief
bsd
capability
caribbean
castro
compounds
confirming
convince
cycle
decorations
denny
descent
describes
deserved
directing
disappointing
divorced
djarum
donate
doubts
drunk
duri
duta
elza
essence
everyday
evidenced
expertise
gif
gossip
greatness
hoaxes
hub
implies
integrate
julian
kartini
kmh
kris
margin
melania
memorable
meteorology
nm
olivier
overcoming
pedro
portrait
privacy
publication
pursuit
quadra
questionnaires
rape
rebel
represents
rounds
samyang
sexually
similarities
simulation
southwest
streak
sungai
taeyang
taiwanese
tenth
thumb
tie
topped
ultimate
ultimately
uniforms
victories
violates
wheat
wit
youths
zika
accessory
accumulation
agendas
appoint
assignment
bagus
bedouin
busan
chainsmokers
chamberlain
convert
dicky
diphtheria
disputes
disturb
domain
emery
factories
fisher
frustrated
goat
guterres
handover
harapan
headsets
helpful
innovate
insulted
introduces
laughter
linkedin
mendes
metropolitan
millennium
missions
nicolas
obliged
phil
pillar
plug
pon
pose
positioned
poster
px
rainbow
reservoir
revoke
rgb
robben
sacrificial
safely
scores
sentiment
soup
stepping
stranger
tackle
tastes
throat
tunggal
turmoil
unfair
uniqueness
utilizes
verified
versus
wooden
zen
zhang
amd
ash
attorneys
authentic
balotelli
bicycles
bloom
bob
boosted
bradley
cadets
careers
cent
channeled
chong
collectors
consistency
convicted
corsair
craftsmen
crowdfunding
dell
diagnosed
dismantle
dissolve
dpw
fabio
ffi
filters
firsthand
goalkeepers
guidelines
highlights
indicators
irving
joseph
manahan
marino
miles
mitigation
module
motifs
nail
nani
navigation
nominees
nutritional
objection
offense
paintings
pedestrian
praying
preserve
priok
propaganda
ramsey
reflected
refresh
relocation
resource
reviews
sincere
stabbing
sticks
stimulate
suggests
throne
thwart
tofu
tpf
unveiled
vain
warnings
xinhua
adorable
advocate
ages
agrees
arbitrary
arrives
balloons
bixby
breathe
bridges
cameron
canceling
chase
compatriot
computing
convoy
cute
debris
diploma
disbanded
donny
eager
educate
evaluated
fernandez
fined
forcing
fujifilm
functionality
governance
gram
hardy
hilton
hormone
hungry
illustration
inevitably
inseparable
irma
lestari
lord
mans
matcha
melati
merah
minus
negeri
pal
polii
practiced
profitable
publicly
pull
puppet
quit
reflect
resumed
rivalry
ross
rumor
saga
saifuddin
sections
senen
shareholders
suv
swish
syndicate
taliban
tendency
tim
treasury
trivial
ultra
unexpectedly
var
volley
alis
ambitious
amendments
armand
assess
bajo
benz
bigbang
bintang
businessmen
cahill
calcium
cannabis
cleanliness
contractors
debts
definite
dodi
dominates
eldest
enforce
exceed
exchanged
fi
finalize
finalizing
folger
formulate
gaal
gateway
hanks
heaven
hoffenheim
holders
holes
hunger
illegally
indirectly
infinity
injection
inventory
investigative
kereta
kuwait
lifetime
lonely
lp
ltd
maximizing
miley
mojokerto
naga
nationalism
nationally
observe
orlando
playoff
qualifier
responses
restoration
rings
robots
roman
sacred
scholars
seventeen
shook
shrimp
souvenirs
spiderman
stem
stipulates
stoner
sturridge
sufferers
survival
suu
tall
tel
trace
turmeric
vazquez
vienna
vip
vitolo
weaken
wearable
www
zakat
accusation
ahmed
alongside
artistic
batteries
beasts
bilbao
boiled
borders
brussels
bunga
cech
ceremonies
chess
chi
compiled
consulting
contributions
contributor
cooperating
criminals
cure
currencies
dancer
detection
diplomats
donation
eleven
euphoria
faisal
fakhri
fathers
feyenoord
fits
forests
freed
goblin
gratification
heated
hugo
icons
ida
identities
ikea
infrequently
innocent
insigne
jane
kiss
kopassus
koscielny
kyi
levies
limits
longterm
maman
mataram
mess
moore
mourning
nationals
neatly
nominate
occupying
olga
ooredoo
oprah
pickup
pioneer
poured
predictions
processors
programming
projector
publishing
releases
revival
sams
sandra
scenery
shoulder
showcase
sketch
slumped
southgate
streep
strictly
sukhoi
synthetic
tape
tasikmalaya
turbo
uae
valve
virgin
watson
advocates
aiming
alcoholic
allies
aviv
bankrupt
batak
bennington
breathing
cage
calmly
carolina
chrisye
clarified
climatology
coincides
collaborations
concepts
cuadrado
dana
danu
deeper
dele
demo
diarrhea
dormitory
dramatically
enthusiasts
entrepreneurship
epicenter
equalizer
ernesto
eternal
forefront
gasoline
groom
harsh
hassan
hospitalized
idn
infections
internationally
irresponsible
istanbul
jo
kante
lawrence
linkin
links
mask
nila
oce
pedersen
pier
pieter
pk
pleasure
poisoning
polite
powers
printer
psi
ransom
relieved
remake
saifullah
samples
sarah
seal
smiling
soni
spectacular
spin
sponsors
storing
subsidiaries
surveys
sutan
tank
theory
thoroughly
thriller
tougher
translate
underpass
unfortunate
valuation
varied
voiced
weighs
welcomes
yen
acceptance
advertisement
alexandre
amendment
arrange
attempted
baidu
banner
bazaar
benny
blank
celtic
cons
courier
depart
diplomacy
durian
earthquakes
evicted
expenses
farm
flags
gbr
geothermal
gita
giuseppe
greeting
guess
harder
huang
iftar
joachim
kicks
laila
liquidity
malaga
mariah
merchandise
mirrorless
motorists
mukti
musa
noble
objective
optimized
pa
parole
pearl
playoffs
prayed
prizes
prohibit
pros
prosperity
publish
radiohead
rampant
refrigerator
republican
roro
segments
shirts
siblings
simone
snap
sophia
sores
starter
strengths
subroto
succeed
sympathizers
tracks
trustees
ups
vincenzo
wan
wisma
wtp
accessing
administrator
adviser
ashley
assault
assisting
attributes
babies
baggio
balai
beats
belong
bloody
bojonegoro
bother
burns
butler
cannes
carlton
cats
colombian
complied
concentrate
cosmetic
cylinder
decides
dk
embrace
emissions
emmanuel
emotion
esports
explaining
fitri
folk
fort
frequent
funded
futures
hamdi
harmful
honeymoon
imitating
jenkins
jesse
kelly
kpop
kuching
lib
madrasah
mbah
melly
menstruation
michelle
microsd
miguel
minds
modified
naver
noon
observatory
olimpico
opposed
optical
paradise
postponement
pressured
reap
replaces
resolutions
riri
searches
sheikh
sizes
sounded
spirits
surrender
sweat
teaser
temperatures
ter
tighten
tps
triple
vary
wherever
absolute
agrarian
alpha
andres
anne
arabic
bathroom
burger
canker
carvajal
categorized
chilean
clasico
clips
clock
coincided
combining
con
cotton
designing
edwin
elephants
encouragement
enrich
ethical
filing
footballers
fortune
genoa
helmi
hoping
horses
hostages
ideally
imagination
imagined
inaugurate
inspections
interchange
johor
ka
kedah
khalid
kutai
leisure
lieutenant
luciano
lungs
macedonia
mad
maradona
marinus
mentioning
metabolism
microphone
middlesbrough
mindanao
mocca
mushrooms
noodle
normalization
observing
olly
orphans
oscars
outlook
panels
pit
shooter
sissoko
sk
skill
slovakia
solved
span
spearhead
spreads
stating
stayed
sugiarto
tales
teuku
torque
toxic
udinese
ugm
warrant
websites
willy
workplace
yama
yogi
yuan
accelerating
advertisers
affiliated
allied
amg
aqil
beverly
bless
boring
branding
cc
celine
charlie
cheered
chiellini
cluster
clutch
confirms
consensus
contracted
delhi
disbursement
dji
dunkirk
duren
eddie
embarrassed
embracing
endless
enthusiastically
escort
estadio
fatah
firefighters
flick
foam
forbes
gameplay
generate
ghana
hdmi
hdr
heavyweight
hundred
husbands
idris
illicit
inspectorate
intelligent
intervene
ix
joo
kimi
laid
leonard
literacy
load
loaned
makers
manufacture
milner
moyes
mw
mysterious
negotiation
nephew
netanyahu
ni
observation
occasionally
optimism
orgasm
palmas
parc
pence
pessimistic
pouring
prohibits
qatari
racist
radius
ragnarok
raheem
recipe
refined
refusing
renew
sedan
shield
shine
sluggish
ssd
stickers
strengthens
stupid
sulaiman
surakarta
surfaced
surpassed
synchronize
tap
teachings
tempting
thibaut
thigh
urgent
vincent
walcott
accompaniment
accountability
ah
apartments
asn
attendance
ayat
borrow
bound
brotherhood
carpet
comey
comfortably
compliance
cooling
copyright
customary
dependence
detroit
digitally
disabled
displaying
drummer
echelon
entities
enzo
extract
flows
forwarded
gadget
gajah
globes
habitat
hack
harmed
hashtags
helicopters
hm
horan
hospitality
installments
itb
iwa
jeff
jumping
kesha
khedira
landscape
launcher
longing
maldives
mastermind
michel
minang
monitors
moreno
mulia
muri
negligence
negotiate
nielsen
nigeria
operas
photographers
poison
ramadhan
ramon
raul
relief
remainder
sacramento
sane
savory
scout
shareholder
sharpness
sheet
shower
silk
sleepy
slots
spa
stainless
struggles
sue
supervisor
tale
tooth
underwear
utara
vacuum
valued
whiskey
widow
accountable
advocacy
aide
aleppo
anticipation
aspar
assad
atari
backup
blamed
bold
brake
brakes
cam
caretaker
cave
charming
clearer
cocoa
collided
congratulated
contributing
dear
declining
denis
destroying
diaz
didi
dig
distributors
djan
doping
earning
elimination
evident
exclusively
exploited
extending
fadil
fahd
farid
filmmakers
formulated
giver
grammys
honored
ian
inka
kickoff
laughing
lecturers
legitimate
libya
maldini
mandala
marsha
matched
maturity
mazda
mcmenemy
meaningful
monetary
neighbor
ng
nolan
oath
org
panicked
pays
perkasa
planting
possibilities
possibly
preferred
proceed
publics
railways
resting
rivers
riza
roadmap
rumah
sacrifice
sakti
satya
scan
scanner
sheets
shortage
sings
skype
soe
spacey
stab
stall
sticker
strap
supermarket
swallow
taeyeon
techcrunch
theo
trash
ukraine
uncovered
upside
valtteri
wheelchair
whenever
widen
workshops
yasin
zain
zte
abadi
academics
agreements
aground
airways
aman
ander
anderlecht
anticipating
apron
assume
bajaj
bases
belonged
bills
blunder
broadcasts
bryan
casual
chester
commuter
conceding
cow
cryptocurrency
cuts
departing
dependent
deported
descendants
deviated
dicaprio
digestion
diligently
doctoral
donna
dono
economist
edinson
exam
feasibility
federico
fiji
gal
gaston
genitals
greetings
guided
heal
hiatus
insight
jealous
josefina
klok
knight
lanka
lightly
listened
liters
loose
malware
manny
marrying
mauro
mobility
monetization
mp
najwa
nationality
nightclub
nikon
objected
ong
outcome
panda
pelangi
perched
pinned
polaroid
qaeda
quantities
rainfall
receives
reflection
regents
reigning
resemble
rex
sammy
sc
scudetto
seeks
shy
specter
sperm
spiritual
stan
stark
sting
striking
suitcase
superman
suppliers
sword
taufiq
tent
toilets
translation
weaknesses
wi
withdrawal
yard
yon
abdurrahman
aggressiveness
ariel
assen
audition
awakens
bailly
barbie
barkley
bath
benefited
bernardo
borne
branded
bruce
cambuur
cara
chips
clashed
contestants
continuous
conveying
corrected
counterfeit
crocodile
curriculum
custom
daydream
deportivo
edit
expressions
finalized
flour
grossed
guangzhou
handsome
honestly
il
ilija
imposition
incredible
initiator
ir
jackets
jewelry
joins
josep
kudus
laser
lounge
magical
maia
makkah
mg
minerals
mirza
mutiara
nsh
offended
offerings
oranges
patience
paulus
pcs
perception
pineapple
planted
pope
posture
prioritizes
professionally
psychology
publisher
qualities
quantity
raqqa
reduces
reefs
reflecting
rene
renowned
representation
scared
secondary
selecting
seung
sh
sidelined
silenced
slid
spy
stabilization
stamina
standalone
stronghold
suits
supplier
surfing
tempted
terminated
theresa
threatens
transformed
transported
underestimate
unhealthy
upgraded
utilization
vardy
vat
veterans
viii
visas
weakening
wolfsburg
absorbed
adopts
annoying
applause
arises
aulia
austin
authorized
bankruptcy
banners
barry
bathing
battling
chievo
cleaner
cloudy
coco
coffers
commands
composed
concentrated
convincingly
declaring
deposited
detective
dieng
disbandment
disneyland
disposal
dries
educated
ellen
employer
encounter
enhanced
ensnare
experiments
fest
fikri
forcibly
frustration
gala
geforce
googles
hemsworth
hs
idols
inconsistent
instruction
interpol
jafar
jia
kata
kazakhstan
kendall
kia
kiki
koni
lab
leaks
lubis
macbook
maroon
martins
minh
minimalist
mirage
moch
modular
moratorium
morbidelli
nahdlatul
nerves
nest
nickel
nightmare
occurrence
owi
papa
performer
pin
pork
poses
recall
regulator
reminds
repairs
ripe
rolls
rosberg
saul
schedules
scholarship
scholarships
scottish
shouldnt
sideways
solving
spokeswoman
sponsor
sticking
stylish
suggestion
summarized
supervising
switching
synchro
tablets
thickness
toys
trail
trainer
unai
understandably
unlimited
utilize
vacant
welbeck
wig
wise
wolff
yogurt
aa
abduh
afgan
airasia
alba
ananda
archives
ashamed
ate
athletics
aung
billboards
birds
boe
bounce
bullets
campaigning
caring
chairs
chandra
cheers
christine
civic
clan
clown
completes
conversion
dedication
delete
diameter
didier
diy
dorna
downloads
downtown
drowned
durov
eclipse
efficiently
electrification
emails
engineer
equity
execute
explosives
extent
favored
fcs
folded
gained
ginger
grandson
grossing
inclusive
jalil
juniors
kabul
kid
koreans
lai
launches
listeners
mainland
manson
marin
marouane
masks
mino
mkd
mo
mogensen
myriad
nafa
newcomer
nicky
overthrow
overthrowing
pantai
pasuruan
perfume
pharrell
philips
plain
playboy
prambanan
pursued
react
reproductive
rivaldo
rotate
satisfy
seniors
shakhtar
shaking
shaved
shinzo
simic
specialties
spielberg
tactical
teenage
tevez
torture
toughest
translated
treating
treatments
tuna
ubud
urgency
uzbekistan
walt
wamena
writes
yamaguchi
activated
aids
anderson
arbitrarily
arman
arrivals
awan
axis
bautista
beliefs
belt
blocks
bolt
boundaries
burdened
cafes
cancelled
cartoon
catering
certified
charlotte
chinas
cita
collaborates
collaborator
competence
confiscate
cooper
corrections
croatian
cube
cultivation
dairy
daniele
dashboard
dave
debuted
demonstrate
dot
esteban
excessively
executives
foo
forgive
forgot
francis
fronted
gavin
germs
gerrard
goats
gratuities
harvard
highspeed
hpv
huffington
hyundai
ignore
juanda
julie
kiai
kito
kurdish
lag
lallana
layout
leverkusen
mahmoud
marko
martinez
merauke
minaj
mugello
murderer
nacho
neuer
nguyen
originating
outwit
palapa
paypal
penitentiary
pill
potro
prepares
preserved
priorities
ra
ratings
refreshing
revive
ryuji
sample
schalke
se
seekers
severance
shoe
silicon
skull
smarter
sour
spacecraft
spectrum
spray
stipulated
stretch
summoning
sundanese
supportive
surplus
symbols
tc
tengah
tents
territories
thorough
ti
tyler
uncertainty
uncover
unwanted
upset
violators
wells
westlife
withstand
adjustment
amounts
aprilia
asman
assimilation
backflow
baking
banning
blake
boca
bola
booths
britney
btn
caesar
cambodian
carrick
ceremonial
coffin
congo
coordinates
coquelin
corp
correctly
crews
crowds
cynthia
davao
decorate
delays
diponegoro
disallowed
discriminatory
divisions
drank
du
echoed
eibar
embed
emerick
emission
emmy
emphasizes
exceeds
exporting
fertility
finland
firing
forecast
gaining
geneva
gm
guardians
heres
huddersfield
immobile
incomplete
indicate
ingredient
innards
inputs
invitations
ironically
johansson
kelurahan
kerber
kidding
lessa
linking
listing
literary
lloris
lure
maharani
mahmud
mapping
miracle
misused
motif
museums
mustafi
navigate
nazi
neat
nike
obstructing
paparazzi
paramount
parried
peacefully
persuade
pioli
pirates
pom
promos
psy
pulau
pusamania
rama
raped
rays
reaped
rejects
relates
removing
renault
repaired
repatriation
resolving
responsibilities
retiring
rickshaw
ridicule
rouhani
sambo
secrets
sensitivity
shaw
shouting
similarly
slightest
slump
somewhat
spears
spike
sustainability
testifying
tightly
timeline
titan
tracker
transferring
turnover
undisclosed
unstoppable
urging
usage
vds
vuitton
waited
yana
yuli
yuyu
zuckerberg
abc
accelerator
accounting
addicted
adidas
aerial
agile
allergies
alternatives
appeals
architecture
arturo
asserted
atp
banega
bezel
bloomberg
bowling
boxers
boyzone
brush
budgeted
bullying
cagliari
caps
chooses
cleaned
clooney
conclusions
confronted
confusion
consoles
constant
counted
curiosity
dams
debit
deployment
desk
dier
dirt
disband
dock
dolores
dominic
downstream
edan
emre
ethnicity
examinations
eyed
fabregas
facilitating
fatalities
felipe
finnish
firearms
firefox
fossil
founding
fulfilling
fusion
ghosts
hafiz
hamburg
handball
harmonious
helmet
hondo
hunted
indicating
kamura
kasper
kendrick
kennedy
kerinci
kidul
knock
laurent
layers
lily
marketplaces
marzuki
meazza
mentawai
metallica
moana
musk
nasi
newspapers
orbit
overflow
pekalongan
pi
piano
pistons
plagued
platinum
pointing
polo
pot
precious
preservation
problematic
proximity
pulling
pulo
punk
recounted
rejecting
renovated
reopened
reward
ronny
runners
saliva
salmon
seize
silverstone
slogan
smallest
soared
socializing
sonoda
sop
sorong
speeches
speeding
speeds
stefan
stems
strive
structuring
su
superbike
tattoos
telescope
termas
ting
tomb
traction
trademark
unemployed
unemployment
usman
valentine
verses
vertical
vessel
vest
virgil
vomit
waterproof
wigan
abundant
acho
admin
afford
aga
alessandro
alvarez
amar
aniston
antibiotics
atlanta
auditor
beverages
brains
breakthroughs
brutal
buddhist
bullet
bulls
cameo
cap
casey
casting
cd
cement
chaotic
churches
coating
competent
counterattack
coup
crossings
cuba
curved
dampen
dean
deploy
desmond
devastated
devil
dilan
disc
dissolved
diverted
drag
dramas
drastic
dropping
drums
duke
durable
easiest
ecuador
elton
errors
evidences
farming
favorites
fifi
filipino
filmed
float
flynn
franck
gadjah
garmin
grows
headband
hop
hotter
hurts
interference
intimidation
invalid
inzaghi
jackman
jets
joel
jokingly
jungle
justified
killer
klitschko
kompas
kyle
labels
leagues
liberation
logan
longitude
loudly
luka
malls
manokwari
marina
mechanisms
mediatek
meditation
naming
natuna
nearby
nemanja
nuts
outskirts
owen
para
paramore
pebble
pivot
porsche
proceedings
profiles
progressive
projection
proportional
publishers
random
refund
reinaldo
resembles
resume
rocks
ronaldinho
scientist
secretly
seized
separation
separatist
slight
slower
smalling
staples
survivors
susan
sympathy
tencent
theyre
thieves
thirst
torn
toulon
treasure
trilogy
tyson
unrest
volcano
yangon
abusing
alien
amelia
analyzed
aquatic
assassination
associations
atms
avatar
beside
booming
boycott
breaks
bryant
budgeting
calculate
capturing
carpool
chemistry
clerics
clinical
coat
collector
columbia
commenting
confidently
consular
courtroom
cpu
crush
culprit
curtain
damascus
damon
davide
davies
decent
dede
dior
diplo
disburse
dismantling
diva
documentation
dominating
earnings
elsewhere
enriched
expenditures
formulation
fraudulent
gattuso
gbk
genie
ghani
gian
gmail
grandfather
hadad
honesty
humiliated
incentive
indiana
intentional
internazionale
interpreted
itunes
jamil
jinping
juku
jun
kasih
kidnapping
kip
knockout
lars
lay
legacy
lewd
licenses
lima
lt
mako
membrane
memphis
menstrual
minors
multiplayer
nanda
nari
nathan
neighborhood
noisy
nuggets
oklahoma
ombudsman
overturned
petitioners
phrase
pile
piracy
plea
pockets
proposals
purwokerto
queues
raids
receipts
reinforced
relegated
rica
rookie
rough
rounded
saba
samir
sani
sank
shorter
shoulders
skinny
sma
sn
sooner
spare
srikanth
stairs
stalled
standardization
stays
territorial
timing
trailing
ump
uncertain
underestimated
unidentified
unsatisfactory
validity
vicinity
vocals
void
vortex
worshipers
ws
abolition
adopting
affection
airs
alerted
allowances
analysts
ancestors
annulled
arrangements
auditorium
bears
beautifully
bedroom
belongings
brisbane
bulgaria
candles
cares
carrie
carve
carved
catalunya
cellphones
chand
cheated
cheating
cinnamon
classroom
coincidentally
composite
congested
consultations
convinced
crosses
csr
darker
darul
debtors
denver
despicable
discord
domestically
donuts
drove
duels
edin
eiffel
embarkation
emir
entertained
evelyn
extinguish
extinguished
extremist
fade
fears
fennel
fixing
flee
fostered
genius
gum
hanafi
harassed
harman
heating
hz
ifa
insider
inspected
inspiring
intermediary
irama
jared
jasmine
jc
juju
killings
ko
kri
kusuma
kvyat
laughed
leon
loris
luggage
ly
marwan
matching
maurizio
mayoral
merkel
minnesota
monte
mortgage
mortgages
munaf
nano
nazar
neo
nieto
nyonya
oka
om
optimizing
ousmane
overwhelmed
oxlade
pati
periods
petr
pirlo
playmaker
predator
prevents
provocation
psis
psychologist
raining
rakyat
ramli
realizes
reopen
revise
ria
rogue
sami
satellites
seminars
sindhu
smells
smokers
sophistication
spends
sporty
stipulation
suk
supervise
supplied
tehran
terminator
thread
transformers
unreasonable
updating
utilized
vin
vino
warehouses
workforce
wuling
yesterdays
yonhap
accepts
agreeing
akhmad
ally
alphabet
amen
anak
anggun
antonius
appointing
aston
asylum
authenticity
bashar
belotti
besiktas
bing
blanchett
blockbuster
boosting
broadly
brokers
brooklyn
camila
chilies
cinematic
circumstances
clarke
complementary
complications
connections
consult
continuity
cortana
counterterrorism
cried
crushing
cuban
dallas
davis
debbie
decoration
delighted
desert
dies
dredging
drilling
eminem
entirety
ernest
excuse
explosive
fills
fishery
geographical
gig
glasgow
graphic
graves
guns
hamdan
handles
horizontal
icw
indepth
insulin
intensified
intimidated
ips
irrigation
ja
joao
jordi
jpg
ketapang
kite
knicks
kopi
ku
laut
legion
loses
loving
lyke
madison
maestro
malaria
malicious
malnutrition
mandarin
mango
manhattan
mascherano
mathias
memorize
merchant
merger
monsters
mosquito
mustafa
narrowed
neglected
neutral
olive
oral
organizational
paralyzed
pavilion
phoenix
pizzi
plantations
pmi
podolski
poetry
pond
porn
potentials
pounding
pour
pratt
prosecuted
puzzle
quote
rajoy
rambutan
rebound
reiterated
remix
replica
respondent
reynolds
robotics
root
sa
sacrificed
saddened
safari
samad
sends
shakespeare
shapes
shelton
shenzhen
sinar
singh
slices
songwriter
souvenir
stadiums
stranded
sudan
suns
surge
sweeping
swiftly
swifts
taboo
tang
thompson
toddlers
token
tong
traded
tribune
triggers
unions
urinary
va
velden
ventura
vp
watches
womans
writings
yg
yoon
youll
accumulated
accurately
admitting
airplane
alarm
alberts
amran
anime
annabelle
ara
ardian
argue
associate
attach
attitudes
auditors
baghdadi
balloon
bean
beatles
blend
blessings
boer
bokeh
bombings
cables
canal
cardiovascular
celebrates
ceramic
chun
civilian
cl
clark
classy
climax
clippers
collaborative
commitments
consultative
cooperated
counting
curated
curator
dara
decreasing
definition
delta
deposits
dive
dizzy
dp
dresses
dried
edm
embassies
emerging
enjoyable
envoy
evacuating
expedition
fabric
fernandinho
fictional
floors
fm
foundations
fountain
gayo
gini
goh
governing
granada
grandchildren
greece
gridiron
guam
gym
hacker
headphone
heynckes
hindu
homemade
hormones
ilir
inundated
iq
irish
jameel
jeffrey
karma
kcna
kimmel
kuta
kw
kwan
lcr
lex
lorde
lotus
mateo
matsunaga
mb
meatballs
megapixels
mia
microfinance
milestone
miniature
misano
misunderstanding
motocross
motorola
municipal
negotiated
nerve
nevertheless
northeast
notebooks
nwokolo
occupants
ohio
omen
openness
overhaul
panasonic
papers
patrols
peer
persuasive
perth
pesantren
petroleum
philadelphia
premiered
presidency
prostitution
proving
provocative
railroad
ramen
reader
regeneration
rendang
reproduction
retain
richest
risky
rog
rojo
roots
ruler
sachsenring
saracens
selective
sfc
shallow
shenhua
sirah
sneakers
sort
stephens
stream
subdivision
subway
successive
suppressed
surround
swipe
tien
timothy
tmz
tomo
torres
tragic
treble
tremendous
unilateral
walks
warming
warmly
watermelon
widjaja
zainal
abidin
adapting
adjustments
afif
akil
albar
alvin
analytics
ankara
anna
anto
anytime
apex
approve
aquaculture
arrogant
ashraf
assured
autodromo
avenue
awaits
beng
bina
binding
boateng
borrowing
bothered
braking
buriram
calculating
candle
caviar
censorship
cgv
chefs
cheng
chopsticks
closes
cohen
commissions
completeness
confederation
contacts
cooperatives
copper
counseling
cyanide
damayanti
dane
deer
defence
dennis
deterrent
develops
donating
dough
drogba
eduardo
emas
empower
en
engadget
executioner
expecting
explode
extensive
fertile
filmmaker
flip
fluent
fluid
foxes
gerry
gifs
gloves
guillermo
headaches
heavier
herald
hercules
hired
hobbies
horn
ht
hung
immortalized
incubation
intercontinental
internally
joan
joey
joon
journalistic
juhl
junk
jurisdiction
kendal
kissing
knot
kremlin
ky
leaf
lisbon
lohan
lottery
luca
macan
mainstays
mainstream
maintains
mandated
manually
marie
mattia
mic
mindset
minions
mitchell
muse
nabil
nan
nicholas
nicola
nostalgia
odor
oppose
oriented
orleans
overtook
palermo
patent
pd
performs
photocopy
plotted
politically
potassium
potato
provisional
provoke
rano
rector
reflects
relative
ridiculous
romero
saas
satisfying
scream
seafood
semedo
serena
shin
siak
signaled
siliwangi
soo
soviet
speculate
stamp
stormed
substitution
swim
switched
swordsman
tear
terminals
traces
traore
tribes
underway
unforgettable
uphold
useless
valentines
variations
wba
weakened
weird
willingness
witan
yielded
zoom
abolished
affixed
allowance
angered
annually
anonymous
aries
asmat
assignments
attacker
babel
bakrie
ballroom
bayer
bleeding
bouquets
bpd
breasts
brightness
brighton
buddhists
butterfly
canelo
cared
carl
catalog
cesar
chang
chou
clerk
conjuring
correa
credibility
criticizing
curling
cylinders
darwin
deceived
deezer
demi
dining
disability
disclose
dispersal
distinguish
disturbance
don
downs
dribbled
drought
drum
dunn
edwards
emilia
encountered
endurance
energetic
enhance
etc
exacerbated
experimental
fanny
fatty
fenerbahce
fergie
foxx
girona
grindelwald
groundbreaking
guides
handset
happily
hilir
hometowns
horizon
households
inaugurating
info
informal
intermediate
intestines
invasion
ivy
jackie
jokes
journalism
joyce
jurassic
kardashians
klein
kudo
lands
legislature
leia
lennon
levy
logistical
manta
marketers
marking
massacre
matsutomo
mayer
melt
mistaken
misuse
motives
mud
nominee
nonstop
oblak
oliver
origins
orphanage
outbreak
pamela
panzer
partially
pas
penetrating
penny
pentagon
permanently
pickford
pneumonia
poem
policeman
posters
prinsloo
prioritizing
prohibiting
quipped
ranges
reacted
references
reforms
repatriate
resist
reversed
revolutionary
robertson
rude
russell
salling
screaming
sennheiser
seo
separating
shaken
shiny
siege
simplify
simpsons
sin
sis
skytrain
sliced
smelled
smp
sorrow
specializes
stephan
stiff
storyline
stroll
stylist
sunda
sunil
susceptible
suzuka
switches
taipei
takahashi
tayyip
tenor
toppings
traveler
tube
twilight
tyas
unlikely
unstable
venice
verbal
vicente
vigilance
vizcarra
widened
wilshere
wished
yaya
zakir
abaya
acoustic
airbnb
airing
algeria
amaze
aquarium
ario
artifact
audi
bacca
baku
basel
bawang
bidding
billed
blown
borja
bristol
budapest
bureaucratic
cannon
cans
capello
cashless
casino
cassation
ceasefire
cherry
chevrolet
childs
cliff
climbed
coloring
congregations
conscience
consul
containers
contributes
courses
cubes
dad
darmian
davy
dealt
delights
den
dessert
destiny
determines
disk
disperse
donors
dragons
dul
economical
elevated
elevator
empoli
endanger
er
erawan
erwan
evolution
exhaust
exhausted
expresses
eyeliner
farah
fats
feeder
fictitious
fines
firecrackers
footwear
fp
frankfurt
gaps
gesture
giggs
gloria
goalscorer
graham
grapes
hakan
haley
handing
highways
hogwarts
honorarium
howard
hugh
humor
ibu
injuring
insert
invitees
iso
jealousy
jutting
karang
laver
leap
lebanese
lego
leica
limiting
lip
lists
locker
magnesium
malcolm
marcello
mariska
mates
matuidi
medicines
mentors
mnc
mni
molotov
motegi
mushroom
mx
nicole
ninja
nutritionist
orientation
outperformed
pajero
paku
parallel
paralympic
passionate
pdi
peel
pledged
premeditated
pretext
preventive
proclamation
prophet
prospects
psps
rachman
rafflesia
recapitulation
regulators
relay
removal
renewed
rep
responsive
restricted
reunite
rewarded
riko
ritchie
robbers
robbie
rocky
rotated
router
rui
savior
setup
severely
sharpen
shohei
signaling
singaporean
sketches
smuggled
smurfs
sparrow
spell
spoiled
stressful
stubborn
summarizes
sunny
tamarind
tarnished
taxpayer
teddy
thanksgiving
theatrical
toddler
transmitted
travels
tricks
tugu
twenty
unavoidable
unfavorable
unpredictable
vader
versatile
visio
wagner
wanda
weightlifting
werner
willem
wolverine
wrap
yuri
accents
acids
adha
aisle
alfredo
amateur
anemia
anis
antioxidant
anugerah
apologies
arguing
asri
assembled
astronaut
attackers
attendant
autofocus
bahar
bambu
banteng
battlefield
beautify
belarus
beltrame
bezels
bio
bo
bontang
bracelet
brighter
bromo
bucks
builds
bureaucracy
butter
calderon
calmer
cambridge
campuses
candra
cape
casillas
chung
committees
confiscation
coupon
cruyff
customization
danang
dbs
debora
defenses
deserted
dome
donut
dota
drafting
dumbledore
dying
edited
educating
employers
enable
enjoys
ericsson
erupted
evaded
exorbitant
expel
expose
exterior
fia
flesh
flowed
frans
genetic
gibran
gili
greek
happier
haruna
heyday
hoon
hottest
hugged
identifying
ina
indo
infantry
injected
injustice
inscription
insomnia
inspiron
interpretation
inventories
issuers
itching
jaguar
janeiro
janet
joanne
joni
judgment
jyp
karo
kindergarten
lamp
lemar
leto
liberal
lisa
loaded
lobbying
machinery
migrants
mile
millimeters
mosquitoes
motivate
nicki
notified
nude
objections
oic
oily
olivia
orchestra
pacheco
paddock
painted
palau
parisiens
partnering
paser
passwords
paths
pikachu
pipeline
pits
playlist
playlists
pmk
prague
precision
presenters
quarters
ramayana
rani
recipes
recognizing
recycled
redeem
redemption
relaxing
remembrance
renting
repeating
resilience
reunited
rises
romi
roses
royale
rr
rs
rubble
scouts
serge
splash
straps
substitutions
surrogate
sweep
swt
tahrir
tapanuli
tarakan
telecommunication
textile
thermal
transgender
traumatized
treats
unlawful
unlock
unlucky
varies
veil
venezuelan
vodka
voltage
vouchers
watering
wellington
wira
withdrawing
womb
wta
xhaka
yan
zein
accounted
acquitted
adamant
andriana
angela
anxious
arcade
arsa
attracts
azarenka
bakar
bandar
barbera
bb
bem
benteke
bernard
bild
biscuits
borrowed
bow
breeding
burdensome
caballero
casing
catalans
centuries
cgi
chatting
chevron
circuits
clearing
clowns
cocaine
codes
coins
collects
compatibility
confusing
cp
crashing
creature
cruel
deadliest
deepening
dello
depicting
designation
diagnosis
digest
dilemma
dini
disappearance
disbanding
dissatisfied
disseminate
djakarta
doni
doused
dpo
duck
edges
editorial
ello
endangered
ende
energi
equestrian
eredivisie
eroded
eunhyuk
evaluating
expects
exploitation
fabiano
fails
finalists
fond
forbade
fra
freelance
freshness
ga
gangnam
ge
georgia
giorgio
goncalves
grabs
grief
guinness
halid
handful
haunted
hela
helmy
horrific
hostility
iduna
iims
imitate
industri
intan
intolerance
intolerant
ionic
jacob
jazeera
jeju
jerry
joking
kaka
keyboards
kindness
kiosk
kitkat
klaassen
kpr
larson
latter
lavrov
lectures
liberty
lippo
locally
louvre
lsi
magazines
mahendra
mainz
majoring
marwa
materialize
mathematics
maturing
melody
migration
mixing
mj
mls
modus
monza
moussa
mozilla
narrative
naruto
needing
nio
nobody
obscene
occupation
octo
oman
onions
operandi
osaka
ostapenko
outdoors
panjang
panorama
pcc
peas
pellegrino
persie
petrol
photographed
pioneers
pkk
plunged
poorly
possessive
pound
premature
pricing
professions
prolonged
pronounced
punches
puppets
queens
quietly
ratna
rematch
repatriated
resisted
riana
rickshaws
rooftop
rotten
routinely
ruddy
sabah
salam
salzburg
sambal
sanitation
schemes
schmeichel
schuman
seattle
setu
sharply
shes
simpler
slaughtered
smoother
sparkling
sphere
staged
strokes
submarine
sum
surah
suzy
teaches
teluk
tenants
terrorized
testify
tightened
toughness
troy
tua
uncovering
utah
vans
vii
vinyl
viruses
vogue
volcanology
wade
wipe
acquiring
adams
advances
aggregator
anastasia
answering
approaches
arguments
arjen
artha
athens
attendants
ba
backbone
banti
bell
biaggi
bloggers
bra
bremen
brent
buckingham
capcom
catching
cathedral
clarkson
coin
cola
collusion
coma
competes
complacent
concurrent
congratulate
congregants
consent
constipation
cooler
countered
coupe
cramps
crv
curse
daley
deadpool
differently
discounted
dismiss
doubted
dwayne
elaborate
embroidery
encryption
engulfed
entrepreneurial
ep
ethiopia
eviction
expiration
explicitly
feri
fewer
florian
franchises
friction
fundamental
fuss
gedung
glamorous
golovkin
gosling
gowa
haiti
harassing
hefner
hiking
hindus
hizb
hokage
hypertension
icelandic
ikat
intangible
intervened
jad
jim
karel
kasim
keane
kelley
kidambi
kimchi
kpi
lcd
lenna
louder
macau
maneuvers
mangrove
mariano
marissa
mattis
measurable
mediate
mentor
mere
mermaid
michigan
mira
misses
mk
moba
mocked
moraes
na
natalie
nausea
ndf
ngos
northwest
nuance
overlap
paco
paralysis
pascal
patiently
pavel
persecuted
persis
pgn
pindad
plagiarism
pledge
pma
popularized
posed
professors
protesting
puddles
raced
racism
recess
reclaimed
reef
reign
reina
remembers
reminder
renovations
reprimanded
reshuffle
responds
retailers
retro
rim
romania
royalties
ruby
salahuddin
samurai
sensational
server
shark
sharper
sheep
shelf
shells
shining
shipped
smelter
smiths
soaring
soccerway
softbank
solely
sore
sourced
specified
spontaneously
spotted
sprint
stagnant
statues
steep
subjective
supervisors
suspend
suwardi
suzdal
swallowed
swelling
teja
teletubbies
ternate
terrain
thief
timo
titanic
topping
triangle
tse
tumor
tvri
twist
typhoon
uc
unacceptable
undertaken
unqualified
validation
vargas
villain
virginia
vomiting
walkman
wijnaldum
wilson
wipes
wives
wozniacki
ying
zombie
aan
abdominal
abortion
accompanies
addison
admiration
admission
adnan
aftershocks
ak
allegiance
alumnus
amal
archery
arsenals
astronauts
automated
azzurri
bachelor
bald
bargaining
battalion
beatings
belly
benitez
bint
blowing
boarded
booked
boot
bot
brace
brass
breastfeeding
breeders
broccoli
browsing
bruises
budgets
builtin
bumper
cassava
cesc
chapecoense
chiefs
ciro
cleansing
cleric
clever
coke
colon
competency
complementing
conclude
condemning
consolation
contes
contradicts
convenient
copenhagen
craft
creatures
curation
deadlocked
degeneres
dejan
dementia
denominations
departures
deploying
devi
devoured
dia
dio
disguised
disruption
dissolution
dose
doubtful
dribbling
drives
dslr
dw
eagerly
editors
ego
embarrassing
emperor
engage
enriching
entrenched
epl
esa
examiner
extinct
extinction
extremism
feasible
fiance
fitr
flies
flowing
fluids
formally
freeze
gestures
gianluca
glitter
groove
guiding
harun
haryanto
hassle
henderson
hendy
heung
holdings
housewife
hut
idc
immerse
immunity
imposing
indy
interacting
irene
irritation
itc
jammed
javi
justices
karl
kerr
kingdoms
kumar
kwh
labs
lacks
lied
lingga
lydia
magnificent
manifestation
marginalized
marker
marotta
melanie
metabolic
metropolitano
mobilize
molesting
monkeys
morale
moringa
murphy
nato
naval
necessity
neural
neutrality
niantic
niki
nina
niro
noah
norwegian
noticed
nyai
obstruction
ocha
odemwingie
olympiakos
ono
ora
outermost
overtaking
overwatch
oyster
pad
paladins
patch
patty
pembangunan
pending
perrie
petty
populated
potatoes
preparatory
procedural
productions
promoters
puri
pyeongchang
quarterfinal
raiden
reckless
reclaim
recycling
remittance
requiring
rescheduled
reservations
restless
rifle
risen
rm
rows
screams
seismic
showroom
sincerely
sincerity
smiled
smk
smuggle
socialized
spal
surfers
sync
tectonic
teen
terrace
toffees
tolerate
totaling
traced
transact
troublesome
tycoon
underprivileged
unilaterally
venturebeat
venus
vine
viva
volatile
wa
waist
waiters
wondering
wouldnt
yap
zoe
adelaide
adobe
adsit
advancement
advise
aerospace
alwi
amoled
aqsa
arson
asmara
auctions
aurora
autonomy
awake
awkward
backstage
balances
bantul
basri
bcl
bet
billing
biopic
boeing
bonaventura
bookings
bose
bosnia
boundary
briefing
brno
bs
burgers
burial
caliber
canon
carrier
carsten
challenger
changi
characteristic
charger
chats
christinna
coca
cognitive
coinciding
colin
colonial
colossal
compilation
condemn
conglomerates
connoisseurs
conquered
consequence
continental
contributors
countdown
creatinine
creep
criticisms
crowned
cska
cured
cv
cyclists
daddy
damaging
dayak
deepest
dendi
denying
destroys
disadvantages
disappoint
discover
disguise
displaced
disputed
divulge
djokovic
dora
doses
dreamed
dropout
dumped
elly
employed
empowering
eni
epic
es
escalated
explanations
farhat
ferraris
fiesta
foil
fooled
fuji
gabon
gangs
giri
glastonbury
godin
gondola
grouper
gunfire
gut
hans
harington
heartbroken
heroic
hockey
hood
hug
huh
humane
impacts
inevitable
infectious
innocence
inpatient
inserted
installment
intensify
israels
jang
jcc
josh
karate
kd
kenny
knitting
kodam
kubica
ladder
largescale
lava
leroy
libyan
lipstick
lng
loading
localization
logitech
lucasfilm
lutfi
madness
mansur
martian
mawson
mcdonalds
megawatts
merge
meryl
meyer
millas
milo
minahasa
miranda
moka
moreira
mugabe
muller
mummy
mus
narrowing
nexus
norms
novak
offal
onion
onslaught
organ
ospina
ota
overweight
oysters
paragliding
paraguay
parrot
paste
patra
pennywise
pistols
pity
pixar
pluralism
poisoned
pomegranate
pradipta
premise
prequel
protective
qualifications
reale
registry
remembering
reminisce
requesting
retains
rimini
roughly
sailing
scales
scare
seine
shawn
shireen
shortcut
showcased
skins
slack
sliding
soaking
soar
soloist
somalia
soundcloud
soy
specialty
strawberries
stripes
sumbawa
supervised
surrendered
swings
ta
tanks
teigen
thighs
thrill
thumbs
ticketing
touches
transform
transnational
transporting
tricked
tripadvisor
triumph
tucked
tvs
unicef
uproar
vacancy
vera
volvo
warship
weddings
whatsoever
whites
widianto
wildlife
winfrey
xp
yeah
zinc
zverev
accusing
admired
aesthetic
allan
allergic
ama
amazingly
ancestral
artwork
assaulting
astronomers
autumn
awaiting
backs
badung
bae
barometer
baz
birmingham
bitten
blogger
bombarded
bp
bundled
busquets
capitalize
casually
champagne
chemotherapy
cherries
chromebook
chyna
cia
classical
collagen
compromise
concede
condemns
constrained
conti
cores
cornered
coubertin
counsel
counselor
crafts
davids
dedicate
deepen
defined
definitive
defoe
depicted
describing
diamonds
dire
dismantled
distant
dizziness
drops
duffy
eats
eccentric
eder
editions
ega
elba
elect
embraced
emphasis
encrypted
equalizing
equip
eun
evidently
expander
exported
extends
fallon
fals
fandi
felix
festive
fidget
fiera
folding
formats
formulating
fractured
freiburg
fulfills
functioning
gambling
gani
gazzetta
gelato
gran
griffin
guinea
heartbreak
helper
hitler
hiv
hungarian
husbandry
ideals
imitated
impeachment
injure
installing
jiangsu
karta
kicker
kicking
kis
kuncoro
kyrie
lance
leds
leeteuk
letting
lettuce
ligament
louisa
lps
macro
magnet
mandy
marchisio
marianus
mascot
mhz
mieke
mighty
mimi
mnet
morals
moura
mt
multimedia
multinational
multipurpose
mutually
naik
nana
naughty
nazis
neto
netted
neville
nigerian
nightclubs
nikola
nutritious
objectives
outfit
outperform
overview
pangeran
par
pasir
passive
paula
pave
peat
peek
pelicans
perfected
phantom
phd
photograph
polished
porridge
possessed
practitioners
predicate
preferences
proficient
protects
pulse
puspa
pyramid
quake
queuing
quicken
rained
ranch
rantau
ratify
recognizes
reconcile
relaxation
rentals
repairing
rick
rina
rinna
risa
riyad
roar
rockstar
ron
rotterdam
rulers
salon
sanctioned
sao
scarlett
schick
schumer
senators
setia
shaarawy
shapovalov
shazam
shia
sink
slip
slopes
songwriters
sook
soraya
sponsored
stale
stamps
storytelling
subside
substation
suction
suffers
sunglasses
surveyed
sushi
suspicions
syrup
tally
tandem
tantamount
tara
teens
thugs
tile
tinder
tj
tomlinson
tomorrows
ton
toured
touted
tracing
trainers
transmit
treaty
turtle
twelve
udayana
umpteenth
unanimous
unprofessional
utensils
vacationing
vinci
viviane
vrij
warrior
wax
wholesale
wu
zainul
acceptable
acquainted
adjacent
adjusting
advisers
ambushed
anchor
apologizes
arctic
arnold
assessing
assumed
assurance
atb
atlantic
atocha
ayana
babys
baht
bannon
banyan
barely
beard
bhakti
biak
billionaire
bintan
biru
bj
bookstores
boro
brawl
cahaya
captive
carles
castle
cbs
chanted
characterized
cheer
chewing
cited
cj
cleared
cohesiveness
coleman
commonplace
complexity
compose
connector
conquer
conquering
consolidate
contaminated
cosmopolitan
couture
dailymail
dashed
defensively
deficiency
delegates
demographic
demolished
dendy
derivative
discouraged
disgusting
dissertation
doku
donetsk
donghae
dossier
dull
durability
elon
enforcing
enormous
equator
equitable
erin
everest
exceeding
excels
exotic
faris
feminine
financed
fisherman
flank
fleas
flushed
fog
folklore
forgetting
fragile
fugitives
futuristic
garner
girder
grocery
hamburger
hangs
hats
headers
hezbollah
hiddleston
hindered
hiphop
hirota
historically
hotspots
humidity
icc
idi
iglesias
iko
immersive
immunization
improves
indigo
individually
initiatives
injections
insidious
insights
insist
instrumental
interactions
intimacy
invisible
iphones
ipod
jake
junto
kean
keto
kiko
knees
koko
krakatau
lan
larry
latte
legalization
legalized
lesbian
linda
lindelof
lipi
logic
lotte
mafia
maja
mats
matteo
meals
melted
memo
mild
mobilization
modeling
modest
monoxide
morrissey
motorcyclist
mystical
nasri
negatively
niall
nishimoto
nongovernmental
nurse
nurses
obedience
omar
omega
overflowing
oxford
palette
pastel
pemuda
pie
piero
pinang
plaintiff
predetermined
professionalism
protagonist
protector
publicist
pump
radiation
ramirez
rasmussen
rasul
rational
rawa
rebellion
reddy
reflex
rego
relics
reni
resellers
residency
rewards
roberts
robotic
robson
roland
royce
ruki
russo
sacks
sadistic
sate
satire
sbs
scratch
scuderia
sdn
sentiments
sera
sergi
seto
sharpened
shelters
shortness
showman
shutter
signals
silvio
simpang
slide
slotted
soba
sofa
spawned
spinach
spine
spur
sticky
structural
subsequent
succession
sucking
sugary
suicidal
surviving
tables
tackles
temples
terim
thesis
thinkpad
thwarting
timberwolves
titi
totally
toto
touchscreen
trendy
trident
turnbull
uncommon
unnecessary
unprecedented
vancouver
vegan
verify
verizon
vidi
vivi
voucher
waking
washed
waterfall
watts
weekdays
weibo
wesley
westminster
wh
widening
wolves
wrinkles
yun
zahir
zainuddin
accent
acute
advises
aftermath
agam
agatha
aggrieved
algorithms
alor
alternately
alzheimer
amy
anchored
angie
antoni
aquila
argues
autism
automation
avenge
babe
backing
backpack
bagged
barrage
beds
bein
bend
bernthal
bladder
blonde
bonita
buffalo
cabbage
camry
canteen
captivating
carriages
casilla
cassio
clearance
cliffs
comb
commensurate
complaining
composer
confessed
consultants
coo
crackers
cranberries
cruz
cubic
culkin
daan
dalam
daring
darth
decreases
dehydration
dense
deodorant
dick
dimension
diplomat
directive
distinguishes
divers
dominique
eagle
eagles
easter
economically
ecotourism
embeds
emotionally
enchantment
endure
escalation
evra
fajr
fariz
ffb
figo
fitting
flavored
forbid
formidable
forwards
fowler
fukushima
garage
gennaro
giacomo
gli
goodison
gout
gradual
grain
grants
graph
grille
gucci
guidebook
hammers
harrison
headache
hellas
hey
highlighting
hiring
hokkaido
homeless
hone
hormonal
hornets
housewives
hrs
hygiene
ie
immoral
imperial
implied
importers
inadequate
infinite
intact
intercourse
interrogation
irregular
issuer
jansen
jepara
jihad
judd
jumbo
kadir
kbs
kelvin
khairy
kidneys
kieran
kobe
koja
kurt
lambert
lamborghini
lampard
lana
laura
laying
lemonade
len
leveled
lightroom
lille
linux
lippi
lone
marines
masood
maxime
methane
milwaukee
minangkabau
minecraft
mio
mucus
mujahid
mulan
mumbai
mv
nadine
naim
nathaniel
nephews
nestled
nevada
nicks
noer
northeastern
notion
obese
obsessed
obvious
oca
oddity
oliveira
optimization
ornaments
pane
panglima
papaya
paredes
participates
pbb
periodically
peripheral
pga
piercing
pilgrim
plugged
prema
preserving
prism
procuring
projectors
prolific
provocations
quarantine
quest
rabbit
radicals
rafa
rappers
recalls
recep
recreation
redeemed
refuge
renato
reschedule
residences
resorts
rested
restored
restriction
rinse
rituals
riyadi
rod
rope
roten
ruins
russias
saber
sahid
salted
saudis
sauna
sbn
scratches
screenshot
screenwriter
secondly
sei
selvi
sentani
serum
shed
shootings
shoppers
silencing
slept
slowed
socks
socrates
soto
spacious
specs
spectacle
starters
statuses
steady
stoves
stuff
subsided
subsidence
successors
sukma
sungmin
symposium
systematic
tasting
tended
tengku
therapist
thinner
thuwunna
tokens
tracked
trunk
twitch
umbrellas
underage
undermine
understandable
uruguayan
vandalism
vented
vero
veronika
vibration
vintage
waqf
wd
welding
werent
westbrook
whale
woke
worsened
wrist
xiii
yoko
yong
zoning
abolish
abundance
accuses
addie
aero
agate
ahed
akihito
alluded
allure
almighty
amalia
amiens
amri
andry
apoel
armband
attachment
aunt
baa
bada
baghdad
balenciaga
bangladeshi
banjar
baoding
barnum
basin
beam
belafonte
beto
biography
bishop
bookstore
boon
bosses
bourdain
bram
bratislava
bribing
bulgarian
bunker
buttocks
capita
capsule
carrot
cassano
catholic
celery
cha
charter
cheaply
chichibu
choir
circulate
claude
clemency
cocktail
cocktails
coincidence
colorado
commemorating
competencies
compiling
coms
conglomerate
contestation
cosmo
costar
cpo
crescent
crops
cucumbers
dakota
debated
delevingne
demolition
dental
depicts
detain
detecting
devoted
dialysis
dignified
disable
discomfort
discusses
disseminated
distances
diversion
divert
donovan
dots
dreamers
drowsiness
dublin
dunk
dunkin
dusun
eg
ek
eligible
emblem
engineered
ergonomic
erna
escaping
escobar
eusebio
excelled
exchanges
exercised
explorer
fallout
farouk
financially
fostering
fouled
frequencies
gastric
gaze
gerald
gerd
gibbs
gms
godzilla
goffin
goodness
gorgeous
grated
gsp
guantanamo
guerrero
gutierrez
gwen
harajuku
hardline
havana
haven
hawkins
headlines
heirs
historian
horsepower
houthi
hove
hualien
hummels
husni
hyo
ideological
impaired
implementer
indias
indoors
inf
inflammatory
inheritance
insurgents
integrating
intergroup
interrogated
interrupted
irvan
islamiyah
iss
johns
joints
js
karet
kaya
kazan
kensington
kidnapped
ktp
lasting
layoffs
legality
leopard
liechtenstein
lil
lindsay
llorente
lobster
lodge
lodging
logical
losers
lotion
macos
madrasas
marini
marshall
matured
mccain
medalist
melodious
memes
merseyside
mertesacker
michelin
microphones
midway
migraines
miko
militia
mina
mojo
mourn
muscular
myths
nata
nationalist
nowhere
obeyed
occurring
odds
odyssey
offshore
olaf
opted
ore
overdose
overtime
ovo
owning
panji
parachuting
partying
peanut
philipp
pig
piles
pipes
plates
poet
posing
postmortem
proposes
proposing
prosper
rat
rats
rebuild
regain
rehearsal
resembling
revived
richie
romagnoli
rum
rx
sainz
salad
scooter
scorers
scriptwriter
seas
selfish
servers
setback
shaun
sickle
simplicity
sinai
skk
slippery
slope
slowing
smiles
solidity
somewhere
spilled
stealth
stewart
suppressing
swear
sweater
tactic
tam
tanker
taobao
tata
tattooed
theatre
thereby
thr
throws
titans
toast
towed
turner
unanimously
underdeveloped
undergraduate
underlined
unicorns
unified
unmanned
upheld
upholding
usher
vampire
vast
vehemently
verifying
versace
vertically
vows
vulnerability
wahlberg
warships
whitson
windsor
wire
wisely
wojciech
wreaths
xx
xxi
youngster
zuma
abdel
accuse
accustomed
adapter
adheres
admire
adorn
adultery
af
aldi
alejandro
alertness
alessio
allocate
alms
alzheimers
amanda
amusement
analyzing
anker
anticipatory
armpits
arrow
assumptions
await
azerbaijan
bake
bangsa
barnes
beings
bellamy
berg
betrayal
biennial
blooming
blunt
broadway
budaya
butt
calf
canoe
carelessness
caroline
carriage
chants
classification
clinics
clues
clusters
cmo
cnbc
coated
colds
collins
cologne
combustion
comi
compensate
concise
conditioner
conducts
conferences
conmebol
conscious
correction
counters
cousin
cowell
crabs
cravings
credible
credits
crop
cultivate
daeva
damai
datar
deck
denial
densely
departs
desirable
deteriorated
detonated
diplomas
discharged
discontinued
disrespectful
dl
doctorate
domination
donor
doodle
doubling
drain
drainage
ea
eki
embedding
enforcers
enzymes
erp
essentially
estates
ethereum
evolved
examines
exchanging
executing
exploit
expulsion
fadhil
feast
feat
fiba
fiercer
flashy
flyovers
forerunner
forums
foxconn
fracture
freezing
fs
gameiro
garnered
gijon
gladbach
grades
graduating
granit
groceries
grosjean
gulen
hahaha
hallmark
hallway
harvested
headscarf
healthcare
hectic
heed
heel
heels
helpless
hendry
henrique
hermitage
ibf
ibn
iced
idolized
imbalance
importing
incised
incitement
inconvenience
indies
inherited
insistence
insufficient
intent
intercepted
ironic
itf
jafri
jkt
jude
judiciary
kayu
kdp
keeper
kenya
keown
kitty
knives
knots
knowles
kosambi
kyrgios
latvia
laureate
leggings
lethal
letty
leukemia
levante
licensed
lining
lit
livi
lowe
luxembourg
maiden
majapahit
malala
malignaggi
mandara
manor
maryland
masterpiece
masud
mat
mcfadden
merry
ming
misappropriation
misleading
misunderstandings
mitigating
mob
mochtar
morris
murders
nada
nasal
natives
needle
negligent
neil
nfc
nik
nil
noire
oceans
octagon
oppression
orang
osama
outreach
outsmart
overflowed
overhauled
overlapping
pakistani
partly
peanuts
pegged
pena
perdana
piled
pleaded
poppy
praising
preceded
privately
proactive
processions
proctor
prospect
psn
psv
psychiatric
pudding
puja
rabat
rack
rafinha
ramp
ravi
raymond
redding
reformation
refreshed
relate
replies
retails
retained
ribs
roasted
sakai
salazar
santo
sayyaf
scenarios
schiaparelli
schiller
schooling
schweinsteiger
scouting
screamed
seaworld
seba
sedans
sentul
serbian
shattered
shell
shifts
shocks
signings
sipg
situ
skilled
slimmer
snakes
sneijder
snippet
socialist
sodium
solemn
someones
sovereign
specialists
speculated
spoil
sprayed
springs
ss
stats
studded
stumbled
stunting
substations
sukarno
summary
surf
surpass
suso
swollen
sxsw
tabs
tackling
tahar
tak
tanaka
tango
tari
tart
tdi
teased
technician
telomeres
thi
thrive
thurman
tiago
tiga
tite
tomato
tortured
touchpad
towels
trader
transparently
troubled
trousers
tunisia
unmarked
uns
utility
uu
uus
valuables
vendor
villagers
vina
voicing
vulnerabilities
wallets
warmth
warn
wawrinka
webcam
werder
wikipedia
winston
wizarding
wizards
workspace
worries
yield
zac
zucchini
abdulaziz
abnormal
abyss
accessibility
adrien
affirmation
afrin
aggression
ahmadiyya
albu
allen
allison
amber
amino
anders
angles
angus
anisa
antenna
aoyama
arch
architectural
arden
arlo
ashe
assure
atomic
attaching
az
bachelors
backdrop
bacterial
baek
bafta
ballet
ballots
bans
bara
barriers
bassist
bate
battles
battleship
bauza
bc
beirut
belts
bertrand
bfc
bhumibol
bids
biometric
bionic
blankets
bollywood
bombers
bonar
bonfire
boom
bordering
botox
bravia
breach
breakup
brooks
browsers
bu
buaya
buckle
buckwheat
buds
buildup
bush
calming
calorie
captains
cardiac
carelessly
cassette
catapulted
cataracts
cayenne
celeron
checkpoints
cheerful
chew
clement
cleverly
collar
collectively
combing
commanders
commits
compatriots
complainant
complemented
complements
condemnation
conditioning
confinement
confrontation
consolidated
consolidating
constructive
cooks
counts
couriers
coworkers
croatia
crunchy
cunha
currents
cybersecurity
dame
daryl
davidson
delaying
deliberative
desserts
deteriorating
dimensional
dino
disagree
discotheque
dispatch
ditch
djs
dnf
dolphin
downward
ds
durant
dye
dynasty
earliest
earns
ebt
efendi
embargo
embryo
empathy
equated
erik
evictions
exaggerated
excellence
exile
expedia
exporters
facto
faizal
fattah
firecracker
fishy
flavonoids
fleeing
flocked
flyer
forged
fossils
frames
fries
gamer
generator
gently
georgina
ginter
giornata
glee
glow
glucose
grizzlies
guru
gw
gymnasium
haider
halmahera
hannah
hariri
hati
hayward
hazardous
hebei
heights
hema
heroin
het
hike
hitman
holmes
hostile
hotline
housed
hunters
huong
ical
idle
iib
illusion
illustrate
imf
inaccurate
inception
inconsistency
incorrect
ingress
inscribed
interfered
jarvis
jasin
jbl
jews
juke
jumanji
juni
kali
karen
kenedy
kepa
kissed
kita
koala
kua
lacked
laksa
langdon
languishing
ledger
leptospirosis
lina
login
loudspeakers
lovato
lyric
magician
maha
manipulate
manipulated
mante
mapped
marcell
marched
marching
marius
mashable
meaningless
mediterranean
memorized
mendy
mercy
meteorological
midrange
ml
mobil
mobilized
monika
monopoly
monreal
motto
narcotic
neglect
nes
newt
niche
nile
nipples
nishikori
nostalgic
notch
nuri
obamas
oils
olympiad
oneself
orient
ornamental
oven
overhead
overnight
ovi
parameters
parental
parsley
patricio
pavement
pennsylvania
periodic
pescara
petrus
phases
phu
pious
plots
po
polemics
populations
popup
portability
portland
predecessors
prerogative
programmed
prostate
proteins
psoriasis
ptt
publications
pumpkin
puteri
qibla
quantum
quell
ramsay
rappler
recharge
recorder
redesigned
regained
rehabilitated
remotely
reprimand
resemblance
restoring
rfef
richer
rijeka
roam
rovers
rub
ruth
sabu
sack
sakura
sauber
scissors
screenings
seasoning
sekar
senator
seng
sequels
sequence
setar
settled
sexiest
shandy
shipment
shone
shouts
shutdown
shuttle
signatures
silang
similarity
slogans
spectator
speculations
spraying
spt
stabilize
stains
sterile
stigma
stimulates
stray
strenuous
strives
structures
stumbling
stylus
suga
suggesting
superb
superheroes
supplements
supposedly
surgeon
surpassing
swallowing
swc
sweeteners
swing
swiping
takata
takeshi
takuya
tamimi
tasty
tearing
th
thicker
ticketed
tighter
titus
tonne
toraja
towns
translator
trillions
trinity
tumors
turan
turf
ugly
umm
undercover
unfinished
unfit
unhappy
universitas
unnamed
unscrupulous
uss
uterus
verbally
vibrations
villeneuve
viola
vista
visuals
vita
vitorino
vulgar
waitress
wakanda
walter
wardrobe
warmup
wearer
wingers
woody
worsen
xviii
yawning
ye
yo
zakaria
zhao
accommodates
addresses
ado
adrenaline
aeon
aerosmith
aesthetics
agnelli
agro
ahm
aides
airbag
airbags
airbus
alami
alley
ammar
amplifier
andriy
angelo
antiterrorism
apk
arabica
arakan
areola
arizona
arjuna
authentication
avail
avalanche
avril
ayaka
bahri
bakr
barcode
barisan
barista
basket
bent
beny
berries
bidders
billie
blaming
blooded
bonito
borrowers
bouquet
brushing
bullied
bun
cages
canned
caracas
cart
cavities
centralized
ceramics
chae
channeling
chatter
che
checkpoint
cheek
chorus
christiansen
cimb
clapham
clara
claw
coalitions
coercion
col
collateral
colliding
commonwealth
conan
concludes
confidant
consulted
continents
contra
conveys
cope
coronation
councils
coupons
curb
cyclone
daimler
damn
daniil
dawson
dea
deadlines
decorating
denim
dera
derived
destructive
dias
dimitrov
dusty
dyn
easing
ela
eng
entangled
entrances
epidemic
europeans
expense
eyelashes
fainted
fares
fauna
feeding
figment
finalist
firearm
fischer
flanked
flock
fonsi
forbids
forehead
forgiven
formations
fortunate
fractures
francois
franklin
frankly
fuzhou
glad
goalscoring
gonna
gotten
gq
gratuity
grohl
groin
gudmundsson
guise
gunman
gunshots
gustaf
gymnastics
handicrafts
hartley
hathaway
headquartered
helmets
hint
hire
icu
idlib
ign
implements
importer
impress
incomes
indri
influencing
infrastructures
initiate
inn
insecure
installations
interconnection
interfaith
io
ip
islamist
jacobs
jodie
josua
juices
julio
juna
karina
keen
kentucky
kfc
khadr
kiat
kinect
kobayashi
kolev
kompany
korem
kuntz
kur
ladies
lagerfeld
lakes
lamps
lauren
laurie
layered
lentils
liability
lighten
lila
listings
literate
livelihood
lizard
loop
lu
luigi
lula
maghrib
majesty
makmur
malnourished
mamma
manan
markings
martha
massachusetts
materialized
matias
maximally
mccartney
measles
mediaset
mei
melia
merpati
metered
minho
mixer
moa
modifications
moisture
mongolian
monica
monologue
montolivo
mor
moroccan
motorhead
mubarak
mutation
mute
mutton
nate
naturalization
necklace
newey
nias
nirvana
nov
occupancy
offset
ojo
olla
optional
originated
overcame
overseeing
pacers
parades
paradigm
passage
pastor
paulin
pause
peach
pedophile
pellegrini
pereira
perotti
pharmacy
phillip
pioneered
pipe
poked
pools
positioning
poultry
poyet
practitioner
prada
pressures
privileges
probiotics
proclaimed
proliferation
quinn
radeon
rakuten
rambo
rearguard
recharged
reconsider
recurrence
reggae
relocated
reopening
repay
republicans
reserved
resigning
resurfaced
retaining
rework
riccardo
ringgit
robs
rocker
rogers
ruslan
sandwich
sarasvati
sausage
scarcity
scent
schroder
scourge
scrambled
sead
seasoned
shall
shane
shearer
shields
shinta
shophouse
shorts
sierra
sigurdsson
simona
simplification
sins
sistar
skeptical
ski
skip
slandered
slapped
slaughter
slice
sling
smoked
smugglers
sochi
sock
soundgarden
sponsorship
spooky
sprinkling
steadily
stella
straighten
strained
stretched
striped
sturdy
subscribe
substantial
suing
surfaces
swords
sympathize
synchronized
taj
tapes
tee
tello
testosterone
thirds
thrush
thx
tidy
tinggi
tizen
tomi
traitor
trek
trent
tribal
triggering
tvn
ubisoft
uhd
ukrainian
unchecked
unconstitutional
urinate
vapor
velvet
vicarage
viewfinder
violin
visually
volcanoes
voluntarily
volunteered
webb
weiser
welsh
whispering
wii
wisconsin
wladimir
woodward
worshiping
wright
xu
yankee
yards
yos
accommodating
adhere
ag
aku
allardyce
allotted
alloy
ambulances
anand
anji
ant
apologizing
appointments
appraisal
archaeological
architects
artillery
asahan
asam
ascertained
ashram
assessments
atlas
attribute
au
auditions
axa
backwards
bahadur
bahari
bakti
banknotes
barata
barbaric
barracks
barracuda
barred
bataclan
believers
bellas
benedict
benevento
binjai
bishops
blah
bloodstream
bmx
bodyguard
bonnie
bosnian
breed
brides
brighten
brilliance
broader
buddha
bulan
bury
busiest
buys
cadet
campaigned
captivated
cate
centre
chains
chambers
chanting
charcoal
charitable
chickens
christensen
cincinnati
clay
cleanup
collage
collide
colony
comedians
commendable
commercially
communism
comparable
comparing
comprehensively
concentrating
confront
confuse
considerable
consumes
convergence
copilot
cornea
crickets
criminalize
criticizes
cruelty
cruises
dalai
danced
dares
darius
darkness
daulah
deir
deli
deluxe
demon
desperately
detour
diario
digging
dimples
discharge
disclaimer
disco
dispersed
disruptive
dissatisfaction
divides
dodge
dolphins
dongping
dpc
drafted
dreaming
dumping
dur
dutra
ecosystems
edinburgh
eintracht
electrified
elevate
elias
ely
enlarge
ensued
equaled
erode
espana
estelle
exploding
explosions
extinguishing
fabrication
faithfully
falcao
fcc
fibula
filipe
filtering
flamel
flawed
florence
foldable
fore
forecasts
foreigner
formerly
fragments
franky
fullback
fuso
fx
gagarin
gearbox
gene
genk
gentle
genuine
geopolitical
ger
glover
goo
granite
gravity
grenade
grid
guessed
guts
hana
hanoi
harvesting
haul
hearings
heath
hectare
helio
henny
hera
honors
hook
houthis
hulk
ideologies
ikhwan
implications
impressions
impromptu
inability
incheon
incline
indiscriminately
infiltrated
influences
infotainment
inhumane
innova
inspecting
inspectors
instructor
insurgency
interferes
inundation
invoices
isolation
iteration
jabar
jail
jailed
jala
jermain
joanna
junhui
jupiter
karst
kb
khilafah
kian
koke
komuro
kwk
kyung
lasso
lavigne
lawsuits
liew
lo
luar
lucius
lucrative
mads
mantra
mao
marek
margaret
marlon
marshmallow
mason
matrix
mattel
matthews
meggie
melissa
memorial
mentoring
messy
mileage
minimizing
minogue
miracles
moise
montpellier
moran
moss
motivates
naples
nashville
nbc
newman
newton
nikki
niko
npg
offenses
omitted
optic
osis
outsiders
overpass
oy
oz
pap
parenting
pathetic
patterned
pattinson
paved
pawn
payet
perak
perfection
peripherals
persik
phillips
phong
pine
pioneering
pippa
plaintiffs
planets
plenty
pocketing
pokal
pora
portman
preaching
pregnancies
preorders
prepaid
preparedness
prescription
principals
procure
progressed
promotes
proudly
psychiatrist
punjabi
pwa
quaresma
quirky
randomly
ranger
rashid
rattled
rayong
rea
recycle
refineries
refrain
reprise
researched
resto
revitalize
rican
ridley
roby
rode
romanian
romas
rono
rotating
routines
salesforce
sally
sampling
sanders
sanogo
saud
sawah
sayaka
scamander
schaller
scorched
scorching
scroll
seafarers
sealing
secular
sergeant
shabby
shady
shaving
shi
showcases
shrink
sigh
siloam
skirt
skywalker
slipping
smoothie
snatch
sofia
sotheby
soundly
sparks
spartak
spinal
spit
sportsmanship
stagnate
stanford
starcraft
staring
statesman
strains
stunned
stunt
subjects
subordinate
subsequently
subtle
suci
suitcases
sundari
sundays
suning
sunlight
sweetness
swimmer
syariah
synergies
taekwondo
tagline
tahir
tambora
terminate
testified
theroux
thierry
thirteen
todd
tolerant
tomas
tones
toothbrush
tops
tore
tormo
toshiba
towel
tram
traversed
tray
trd
troop
ts
typing
ufo
ultimatum
unconditional
unification
usbc
ux
vega
villas
visionary
vitali
volkswagen
voyage
walsh
wanyama
waving
widest
wim
wizard
wook
workload
wushu
xenia
yas
yifan
yourselves
yuchen
yunan
yup
zabaleta
zebra
zimbabwe
zombies
zs
ab
abdomen
abel
abrams
acknowledgment
activating
ada
addressing
adventurous
advisors
agility
ahn
airborne
alana
alaska
alike
amel
amidst
amman
anorexia
antagonist
antique
archive
armored
artifacts
aru
ass
assassin
assemble
asymmetrical
attends
authoritarian
avocados
avoids
axle
axon
azhari
bachir
backbeat
baked
baker
ballad
bandwidth
banquet
baseball
bats
battlegrounds
befallen
beggar
bestival
betrayed
bisexual
blaise
blogs
bombed
boulevard
brink
broker
brushes
brych
bsn
buffer
bundles
buton
buyout
calibration
calmed
campbell
capitalists
carcass
carmelo
cartel
cashback
cavill
cavity
cessation
chanel
checkup
cheryl
chia
chimed
christina
christo
cleaners
clicks
cnblue
coastline
coc
coding
coelho
colt
combinations
composing
concoction
concurrently
confidential
confidentiality
constraints
contention
contradictory
controllers
controversies
convertible
cookies
cooled
copied
corbyn
corriere
crab
crack
creed
criminalized
crispy
ct
cto
cupboard
customize
customized
daesh
debutant
decorative
deducted
defects
defends
deliveries
demonstrating
denounced
deportation
descended
descript
desi
desires
dex
dfb
diagonal
dialect
digitization
digits
disciplines
discourage
displace
distended
ditto
diversification
dmitry
doan
dornan
dos
drained
drawback
driverless
dungeon
dysfunction
edo
ejaculation
elga
emily
emitted
enforces
enix
enlarged
epson
eriksson
erk
ether
etienne
expatriates
fabinho
farms
favorable
finishes
flares
fleets
flickr
fold
fondly
fonte
fragrant
freddie
gait
galatasaray
gastronomy
generating
generous
getafe
gianni
giovanni
gmt
golfer
gonzalez
goodbyes
graced
grandpa
grouped
guilt
guna
hackathon
hadar
halfway
hamstring
hamza
hanged
hangout
happiest
haram
harian
hazards
headlights
hereby
hertha
hitam
hoarding
horizons
hubs
hun
hurting
huts
hydrated
hydro
ibas
idec
idolizes
ignis
illustrated
imdb
incarnation
incumbents
indiegogo
ineffective
infidelity
inflamed
instill
integrates
intensely
interfering
invoice
isc
jakub
jara
jhon
jimi
jj
jogging
joker
jonny
jurnal
kabila
kaspersky
keigo
kills
kiosks
knightley
knocking
krishna
kurdistan
kyrgyzstan
laboratories
lagging
larsson
lean
learns
leeds
legalize
legitimacy
lenny
leslie
licking
likened
lime
limp
llc
locomotive
lorenzana
lukasz
madinah
madrasa
mak
malawi
mandates
mang
mania
manned
manoj
marisa
marlo
marriages
mart
massively
mated
matheos
mathew
mc
mcmoran
mdk
mediocre
meng
meunier
michiels
mick
midweek
minimized
misaki
misfit
moira
mondo
moor
motta
mouly
mounted
muguruza
munawar
mura
nabila
nanga
naomi
narendra
ned
newcomers
nikkei
norm
norman
notify
nrp
nsync
nursing
oceania
ogan
okami
ot
oto
ounce
outlined
oversight
pairing
parkers
particles
pat
pe
pencil
peng
penh
perri
pers
persistence
personalization
pesticides
petersen
pg
pharmaceutical
philosophical
photographs
picchu
pimples
pinocchio
pins
pip
plt
pns
polaris
ponds
popularize
portals
possessing
pottery
predictable
presumption
pretended
pretending
prevalence
prisca
privilege
props
pte
purifier
quad
quidditch
quo
quotas
raihan
ratifying
recede
recreational
reed
referral
relating
relevance
rendering
rescuing
respecting
riquelme
roadshow
robusta
rockers
rodrigues
romeo
rot
ru
rudolf
rumi
rushing
safeguard
saints
salvation
samba
sanches
sandberg
sap
scaler
scam
scanning
scarf
schmidt
scientifically
scolded
screenshots
seabed
seagal
sectoral
senegal
sentencing
seram
serbia
serdang
sergei
shampoo
sharks
shoots
shrouded
sik
simplified
simpson
sisi
skies
slap
sleeves
slowdown
smeltz
smoothies
snatched
soak
sops
stalin
stanza
statistical
stature
stephanie
stimulation
straits
straw
stumble
stuttgart
substituted
supernatural
sustenance
swap
sway
syed
tambour
tame
tania
tapping
tatum
tcl
td
teamwork
technicians
teh
terrifying
thrust
thug
tika
tin
tko
tm
toby
toko
tost
totaled
trevorrow
trolls
tucker
tupac
tutelage
tvxq
tzu
ujung
ultras
unquestionable
valves
vaughn
vecino
veto
viewer
vol
voter
vw
warmed
wasting
watchdog
weigh
weighed
weights
wen
wilhelmus
wraps
ya
yannick
yarmolenko
yasmin
yields
yuki
zambrotta
zico
zul
zuzu
##the
abandon
abedi
abs
absurd
accountant
acha
aci
adequacy
advertise
ahmet
alcantara
aliens
alignment
allo
ananta
ange
angelique
angels
angers
ani
ann
anomaly
antibacterial
appliances
apus
arent
arina
asan
astrup
atas
atleti
attire
auckland
audits
authorization
autopilot
avp
ayin
backward
backyard
baitul
barbara
barter
basquiat
beets
begging
behaved
benefiting
bengal
bertha
besieged
bibi
bidder
biology
birthplace
blossom
blurred
boisterous
bolivia
boni
bono
boris
borough
boutique
boyd
bph
bpr
brainchild
breaststroke
brett
brightly
brushed
bugs
bulletproof
bullshit
burdens
byung
calvert
camping
cao
capt
captures
carbohydrate
cartels
carters
cedric
centenario
chargers
cheat
chiang
chika
childish
choreographer
chrissy
chu
cici
circumcision
condon
confessions
contacting
converting
coolly
cortisol
covergirl
cracked
crate
creamy
creatively
creditors
cricket
crossover
cruiser
crypto
cumming
cutlery
dahlia
dato
daya
debuting
decisionmaking
dee
deeds
delegate
deliciousness
depot
descending
desktops
detects
diabetics
dice
differ
differentiate
digested
dim
dimitri
directory
disagreements
dislike
displacing
divorcing
divya
doel
dom
downloading
dpi
dprk
drown
drowning
dwarf
dysfunctional
eased
ee
ej
elbow
eleventh
elliot
emanuelle
embankments
emphatically
employ
enamel
enclave
enveloped
eras
ergo
erosion
escrow
escudero
estrogen
evaluations
everyones
evolve
exceptions
excerpt
excluded
exhibit
facultative
falcon
fanatical
fashionable
feces
fielding
fingerprints
fixes
fk
flames
flashback
folders
fouling
frenchman
fresher
frost
frying
fuels
fuenlabrada
garros
gatherings
gel
gem
genocide
geospatial
gere
gerri
ghouta
gisella
gol
gourmet
grains
grandma
grieve
guan
gudang
guerrilla
gums
gunshot
gyroscope
halo
handl
hanna
hatchback
haunting
hawthorns
headscarves
heartbreaking
heinous
helium
hemoglobin
heng
hennessey
hesitant
hessel
hijri
hilmi
honorable
horizontally
horrendous
hugging
hui
humiliating
humiliation
hunter
hurricanes
icbm
ico
idiot
ignorance
ignoring
igor
iia
illustrations
immigrant
imperfect
impetus
indicted
infiltration
inherent
initiation
innovators
inquiries
insect
inspires
instilled
instinct
intermediaries
internship
interpretations
irrelevant
isaac
jaffer
jaka
jamaluddin
jammy
janssen
jari
jawa
jerome
jorginho
justification
juvenile
kaaba
kamilla
kampar
kanu
kasai
kava
kawa
kei
keira
kentaro
keyboardist
keynote
kkr
koi
kotaku
kristen
kts
kung
kwik
labeouf
laborers
laden
lam
largely
leaking
leftover
lenders
leni
leveraging
liaison
liang
liar
liking
lionsgate
liquefied
lithuania
locals
lodged
log
longstanding
looting
lowery
lowes
lpi
lust
lvmh
machu
magnetic
magnussen
majors
mali
mandailing
manga
manipulation
manuscript
manutd
maribor
mastercard
matchmaking
matte
mbps
mbr
meatball
medication
meier
meizu
mercure
merely
merged
mesh
metals
michaels
mines
minorities
mistreatment
mit
mocking
mod
mods
modules
morsi
mrauk
multifunctional
musi
nagari
nanjing
natalis
nestle
newer
nh
nini
normative
nourish
nt
obligatory
octopus
ola
oppressed
origami
orphanages
ousted
outdone
oval
overshadowed
owl
packets
pageant
paints
palai
paracetamol
paradox
parapet
parisians
parody
pei
pell
peppers
perk
pharmacies
pigs
piloted
pmr
poles
populous
portions
ppk
presley
prophets
psychotropic
punishable
puppeteer
qs
queensland
radicalization
radon
rahim
rallies
ralph
ratner
reaffirmed
rebuilt
recidivist
reconnaissance
redknapp
reeves
regulating
reid
reliability
relocate
relocating
removable
renewal
replay
replying
rescheduling
reservoirs
respectful
retake
retaliate
retaliation
revelation
revolver
rhetoric
ridden
ridiculed
rife
rifles
rinaldi
rioting
rip
ritz
roja
rosa
ruined
rummenigge
runways
sacking
sadiq
sakho
salads
salak
sandals
sarkozy
satu
scars
schwarzenegger
scoop
scripts
scrutiny
sdf
sec
sectarian
sedative
sedona
selects
sergej
seth
sgd
shadows
shakira
shinji
shorten
sinclair
sitcom
skiing
skipping
skyrocket
slanderous
slanted
slum
snails
sneezing
snoring
snorkeling
sonya
southeastern
speaks
specification
spewing
spherical
splashed
spontaneous
sss
stalemate
stallone
steak
steals
stein
stitches
stove
striptease
substantive
succeeds
sulfur
surgical
sweeter
swell
symbolic
symbolically
tai
takzim
tarantino
tasik
teamed
teller
telstar
teman
testament
thematic
theresia
thirty
thrilled
tightening
tiller
tilted
tombs
tomy
toner
torch
tote
trackpad
tsukiji
turquoise
tyga
uav
uganda
unifying
unravel
unreleased
unseeded
unsure
upscale
upward
urgently
urie
uterine
vaccines
valerie
vanilla
vecchia
vent
vespa
vinegar
von
walnuts
wanderers
wares
warmer
watanabe
waterpark
wealthy
weavers
webber
wendy
whales
wiser
xii
yamin
yates
yeon
yep
yi
yingluck
yoshi
yours
youtuber
ypg
yunho
zedd
zoya
abbott
abdi
abstract
activation
admins
adolf
adreno
agl
agnes
aire
akane
aks
albus
alcatel
alluding
alto
ambient
amjad
announces
anthology
apocalypse
ark
armada
arrogance
arthritis
asgard
assuming
atr
atrium
att
atwood
authors
backpacks
balde
bales
balon
bandit
banker
barbados
basement
basics
bat
bedtime
beetle
belvedere
benchmarks
beneath
berdych
beware
bg
biased
bikes
biting
blazers
bodyguards
bordeaux
bots
bowls
brick
brittle
broadcasters
bsm
bt
buddy
budge
bulk
busway
callers
calvo
canfield
capitalizing
capitals
casa
cassidy
catches
cebu
centimeter
chairmen
charismatic
charli
charlton
chatted
cheeks
chiles
christ
cinderella
cindy
circus
civet
cobain
cockpit
coexist
colonialism
combatants
commencement
communicates
companions
comparative
compares
comparisons
compromising
concocting
configurations
cong
congregational
contestant
contracting
corentin
cornelius
corpse
corridors
cough
cowboy
cox
cracks
credited
crillon
crippled
cursed
cycles
dakar
dao
databases
debates
deborah
dehydrated
dengue
denomination
depict
deprived
detaining
detector
dhaka
dinosaurs
disappears
discretion
disseminating
distinct
diversify
diverting
divulged
dm
dodo
dohc
doom
dormitories
dracula
drying
duchy
duhamel
duran
dutchman
earrings
echoes
eco
economies
educators
electrocuted
emerson
emit
enabler
enacted
encounters
engrossed
entrust
eruptions
ethiopian
exaggeration
excitedly
executioners
exhaustion
experimenting
extracted
extremists
exxonmobil
facilitates
faded
faint
faithful
fascinated
feminist
feng
fertilizer
fiat
fidel
filip
fillon
filtered
fitted
flagships
flare
fluctuations
folds
forgets
fraction
frances
francs
franz
fui
fy
gabi
gamepad
gasification
genes
genisys
gentlemen
geun
ggg
ginza
giro
givenchy
globalization
gmf
grassroots
grooms
groundwater
gru
guatemala
gutawa
habibi
haired
hak
hallucinations
hamiltons
handheld
handwriting
handwritten
hangzhou
hardcore
harmonization
harms
hawking
hdd
heir
helpers
herzegovina
hesitation
heysel
hian
hid
hidayatullah
highland
highlighter
hinders
hinge
hobbit
hooters
hype
iago
ibiza
icao
iker
imb
incidence
infrared
infringement
ing
inhibit
inna
innovating
inserts
insha
insisting
inspirational
instincts
intending
interstellar
intuitive
invaded
iranians
iris
islamabad
isuzu
jaden
jamaica
jamal
jdt
jeon
jewelery
jing
jojo
joystick
jt
jules
kahar
kanes
kapital
karin
keenan
keywords
khamenei
khoo
kickers
knitted
korg
kors
kosuke
krakow
kravitz
kyun
lala
lalu
laundry
leandro
legislators
lemmy
lequipe
lewin
liem
lili
linger
lipa
literally
livable
lob
ls
lumia
lwin
lyonnais
macaskill
macaulay
malacca
malam
manifest
marcia
margins
markers
marred
martini
massacred
mastered
maximilian
mci
medico
medieval
medley
melatonin
melon
meme
mercado
metallic
michele
middlemen
middleweight
millimeter
miramax
miriam
misunderstood
mma
mmhg
mock
moderator
modification
monochrome
mortar
moviegoers
mozes
mra
multiplied
multisport
multitasking
multiyear
nadia
nakajima
nantes
nasopharyngeal
nasty
natali
natalia
navigating
navigator
nazareth
nct
nearing
nepal
nichol
nimibutr
nino
nitro
nits
nong
norwich
notary
notorious
nottingham
nr
nums
okan
olympus
omission
optimistically
osasuna
osen
osmo
ottoman
outrage
outspoken
overloaded
pali
pallotta
palmer
paragraphs
parry
pastore
pastry
patches
pearls
pedicab
permissible
persisted
persistent
persists
persita
ph
phobia
picket
pillow
pimp
piotr
pitted
pitts
pj
plateau
popping
populist
positives
postal
potters
ppd
practicality
pradesh
preach
preacher
prefecture
pri
primera
printers
privileged
probationary
probiotic
protestant
protracted
psychologically
puddle
punish
punisher
quartet
quench
quiz
rachel
rahma
rails
raincoat
rangers
raping
raptors
rara
ras
raven
ravine
rebuilding
receiver
recruits
reddish
refereeing
refrigerators
refunds
regionally
registrar
reluctance
remnants
ren
repackaged
repressive
reproduced
researching
resisting
retirees
reuploaded
revisions
revitalizing
revolves
ribbon
rifai
ripped
riyals
rom
romain
rossa
rote
roth
rover
rytter
safest
sahara
sailed
salmonella
salvatore
saman
sanaa
sansar
satirized
sato
saturdays
sauces
sayed
scathing
scheduling
seasonal
segunda
selayang
sembilan
sen
senses
sequoia
ser
shaman
shara
shelves
sheriff
shetty
sheva
shipbuilding
shout
signora
siman
simmons
simplifying
sip
sipping
skidded
smash
smoothing
sniper
solemnly
soler
someday
sometime
soothing
souls
sparking
speedy
spoils
sponge
spreader
static
stefani
steuer
stevens
stirred
straightened
straightforward
strasbourg
strawberry
stretches
stretching
stride
submarines
substitutes
sunrise
sunscreen
supermarkets
supplying
supremacy
sven
swan
swerved
sykes
syndicates
systemic
tani
tau
tempt
temptation
terrorizing
testimonies
tez
thunderbolt
tidore
timeless
tiring
tl
toe
toure
transactional
transforming
transplant
tread
troll
trong
tsai
tsc
tutorials
ucl
ulcers
uli
ulum
ummah
una
unites
unsuccessful
untitled
uphill
uprising
uranium
urinating
vanda
varieties
vatican
ventilation
ventured
vests
victorias
viktors
villar
vishnu
visibility
visualization
vitro
vx
waiter
wand
watt
whitening
wingback
witnessing
wrapping
wreck
yachts
yeast
yuliana
zak
zapata
abbe
abhimanyu
accelerometer
acehnese
acidic
acknowledge
acquittal
addicts
additions
adherents
adriana
adventist
aeronautics
afar
aftershock
aksi
alfie
allstar
almonds
alva
aminah
ammonia
announcements
apec
apparent
arbeloa
arda
ardi
ardiles
arenas
armor
armpit
arranging
arum
asha
ashwini
aspiration
aspirin
assailant
asthma
audited
augsburg
aus
australians
autistic
automaker
aw
awe
azam
bacsinszky
badge
bail
baines
barge
beck
becker
beet
beggars
belle
beni
bereaved
berkeley
bh
bhima
bioactive
bip
blended
bleu
bleus
blockade
bojan
boredom
brendan
bribed
bricks
brit
bro
budhi
bulletin
bully
burglary
burhanuddin
burkina
burnt
bushes
busier
bustle
buzzing
byte
caitlin
caitlyn
cancellations
cannons
capacities
captained
cardinal
carlson
carnaval
carvings
catherine
catz
ceos
cfd
ch
chai
chained
changmin
channing
chastain
cho
clapper
clarifying
clichy
clicking
closures
cloves
coli
collapsing
combed
commemorates
concession
cone
consciousness
constellation
contrasting
coptic
corby
cord
cordon
coronary
costas
cries
crocodiles
cronus
culmination
cultivated
cumulatively
cupcakes
curled
curvature
curves
cze
czechoslovakia
dado
daisy
dany
daren
dat
datuk
deactivated
dearly
deceiving
defuse
delivers
demons
demoted
derivatives
dermatologist
det
deteriorate
detonate
deutsche
devastating
deviations
dial
dialogues
digne
disagreement
disapproval
discarded
discovering
dishonorable
dislikes
displayport
distract
dividend
dividing
documented
dolby
domiciled
drawings
dreadlocks
drills
duchess
dude
dung
dunia
dynamo
earpiece
earths
edged
edible
electrolyte
elia
eliminates
elio
elisa
elise
elites
embezzling
employs
enabling
endo
epps
erotic
erra
ethic
euclid
excavation
exhibitors
exhibits
expectancy
explores
eyewitness
eyewitnesses
fabian
fabricated
facilitation
facundo
famine
farthest
faso
fatimah
faucet
fb
fender
ferrell
fetish
figc
filippo
fiona
flame
flaws
fletcher
flicker
floated
forgiveness
fork
fouls
freelancer
freestyle
freezer
freight
fujimori
funk
fury
gabriella
gamble
garfield
garrison
gastrointestinal
gautama
genetics
geoff
geographic
gibson
gloomy
goose
grandiose
greedy
greens
greenwood
gregoire
groot
gsm
gto
gusta
hail
haircut
halt
handstand
hantu
hardest
hardwell
hastings
hated
haters
haydon
hayley
healed
healthiest
hearn
heeded
henge
hepatitis
herbs
herve
hijack
hijacked
hikmat
hmm
hoc
hollande
hologram
hondas
honduras
honed
hopman
hrd
hsieh
hudson
humid
humphrey
hutchison
hwan
iceberg
iger
iggy
ignatius
ikke
ikon
ile
illustrates
ilyas
imaging
imagining
implicitly
imran
incorporated
incredibly
indefinitely
inhabit
inhabitants
inhaling
inns
ira
isaiah
islah
isles
jargon
jeffs
jenson
jeong
jha
johny
jolla
journals
julen
jupp
juxtaposed
kaftan
kale
kamaluddin
kangaroo
kazumasa
ke
kelantan
keller
keyword
kezia
kiev
kims
kingsley
kira
koalas
kristina
kushner
kyai
labo
lagarde
landmarks
lantern
lashes
latency
lau
leiden
lend
liao
lichtman
lid
lightest
lightsaber
lim
lns
logos
loophole
ludogorets
lupi
lychee
lycodon
lynn
machete
madame
madonnas
mai
malibu
mambo
mankind
mansion
mantovani
maple
marcella
massimo
massoud
math
mattresses
mauritania
maxwell
mayo
mccallister
mcclean
mcdonald
mcenroe
meantime
measurements
mechanic
medalists
medel
mediator
menara
meyers
microblogging
mie
migrate
militias
minibus
misery
missouri
modernize
modi
momo
monkey
morgue
motivations
mountainous
mouths
mouthwash
mraz
msn
muffled
multilateral
multiply
muntari
murakami
musik
muti
myers
myth
nair
nauru
nayaka
nazionale
nicko
nitrate
nlp
noises
nonsense
normalize
notable
ns
numerous
obedient
objectively
obscenity
obsession
ochoa
odense
oke
optics
oracle
oriental
ounces
outbreaks
outdated
outline
outpouring
overcapacity
palo
pancreatic
paralympics
parkes
parted
partial
patented
pathologist
patrik
pawar
pcie
peele
peggy
penalized
penguin
percussion
persist
perspectives
petra
piaggio
picky
pino
pittsburgh
plasma
platini
playback
pleasing
plugin
poirot
politicized
polls
polyphenols
polytechnic
pong
poppins
pots
powell
powerpoint
ppm
pram
prays
predominantly
preference
presses
pretend
probation
prosecute
protester
prototypes
provocateurs
prowess
psychic
pujo
pumps
purba
quarrel
quill
raam
raider
rainwater
rammed
randy
rash
rated
reappeared
rebuttal
rechargeable
recovers
reddit
redmayne
reexamine
refuted
registers
remedy
reminiscent
renovating
resale
reset
resides
restart
reused
rigorous
rn
robe
rogan
rooster
roscosmos
rugby
rumbled
rumours
saad
sadly
sailors
salty
salute
samudra
sana
sanur
sayer
schultz
scilly
scorpio
sctv
seamless
sect
selly
semar
seno
seri
serotonin
shakur
shaping
shiloh
shipyard
shortened
shure
sided
sights
silhouette
silvia
skate
skateboard
slash
slavery
smelling
snares
sneak
sniffer
softer
sol
somali
sonic
sorcerer
soylu
spam
spas
spearheaded
specialized
speedboat
sportswear
sprocket
sprung
squads
standup
statham
stemmed
stern
stills
stilts
stimulated
stoppage
stormtrooper
streamed
streams
string
subsector
successively
suite
suites
sunk
sunnah
supermodel
survives
swans
swapped
swaying
sweets
tablespoon
tailored
talaud
tanta
tantrum
tasa
tatjana
teaspoon
teater
telematics
televisions
telomere
terrorize
tesfaye
textured
thani
tiffany
tijani
tilapia
tor
toward
tpp
tragically
treasures
tripoli
truffle
trumpet
tu
tuan
tuition
tutors
twc
ub
ubk
ud
unfriendly
uninhabited
unloading
unnoticed
unresolved
unused
unveil
unwto
upholds
upt
uranus
urea
urich
urination
valero
vaping
vc
velodrome
vending
venom
vernon
vientiane
vikings
vinh
vinicius
volt
vulture
wallace
waller
walmart
warfare
warren
weaker
whittaker
windshield
wirelessly
witchcraft
withdrawals
woodburn
worms
wrappers
wreckage
wrecked
wrongly
xix
xpress
xps
yacht
youthful
yulia
zahara
zara
zee
zendaya
abby
abl
abnormalities
abortions
absorbing
abuses
acclaim
accomplished
accredited
achilles
acronym
adapts
adept
adhered
adjustable
admittedly
adolescents
advent
advisable
ae
affecting
agribusiness
agustin
aint
aires
alaba
alain
alarming
aleta
alexandra
alkatiri
allergy
alleviating
almere
alwyn
amas
ambush
amirul
amit
analogy
analyzes
anarchic
anc
andra
ape
aperta
apnea
apparel
archeology
archos
aria
arisen
armando
aspire
assassins
assembling
assign
atri
atrocities
attache
autosport
avenged
awaken
axl
ayo
badr
bagan
bain
bakery
balancing
bandmates
barbosa
barbuda
basil
batangas
batin
bebop
beetroot
beg
behave
behavioral
bencic
bens
bentegodi
berbatov
berlusconi
biennale
birthdays
blackout
bloating
blossoms
blows
boards
bohemian
bona
brenner
bridal
bris
britons
broadcaster
bugatti
bulacan
buru
cabral
cadena
calabria
candi
cantona
capitalization
carat
carats
carrara
carroll
cartoonists
cashier
catastrophic
caution
cb
chapo
charly
chartered
chin
christianson
cina
claire
clicked
clyne
coachella
coefficient
coils
collisions
combating
commercialization
commercials
compassion
complains
compositions
compute
comrades
conductor
congratulatory
consignment
converse
cornet
coroner
correlation
costarred
costumed
counterattacks
counterproductive
courageous
crackdown
crawl
crimean
critically
cryptocurrencies
crystals
cubs
cue
culminated
cundy
curing
curly
curtis
cx
dammed
dante
darren
dash
davison
deceive
deckard
defile
deflected
deliberations
delph
demonstrates
dentist
destro
desy
detainee
detectors
deterred
deviant
dg
dictator
differentiating
diligence
dinamo
dinny
diouf
disastrous
disgraceful
disrupting
disruptions
dividends
dongle
draining
drift
drilled
dualism
dunst
dwelling
dyes
earl
ebrahim
edc
edgar
eez
efficacious
eindhoven
embarrass
enabled
endemic
endorsed
engaging
englands
enhancer
enjoyment
enlisting
envelope
epilepsy
equatorial
equilibrium
eradicated
erected
erupt
escapes
ethan
ethnicities
ew
exclaimed
excluding
executions
exiting
expedite
exporter
eyebrows
fanpage
faruq
feds
fei
feige
fencing
fenix
fenny
fetus
finale
firmness
flammable
flanks
flavio
flops
flume
flushing
folder
fred
freddy
frontier
frown
fry
ftf
fueled
fullest
fundamentals
fur
gaddafi
gael
gains
galaxies
gallas
galleries
garam
geely
genital
geo
geostationary
giovani
giselle
glorious
gloucestershire
goddess
goosebumps
governorship
gown
grandes
grandparents
gravy
greene
grenfell
guaranteeing
guido
gustavo
haidar
hallyu
halted
hampering
hannover
harold
hashim
hb
headline
helena
heong
hereditary
hilal
hilly
hindering
hinduism
homosexual
hopeful
hyderabad
hysterical
ia
ibo
ict
iero
iin
illiteracy
immersed
impatient
impressively
incubus
incurred
indians
indigestion
indirect
ineligible
infect
infiltrate
injecting
insta
integral
interacted
intro
invaders
invention
irresistible
isolate
itchy
jacqueline
jada
jaeger
jaga
jana
jannah
jefferson
jeffree
jeje
jetstar
jie
jis
justify
kahlo
kal
kerry
kidman
killers
kimura
klinsmann
knit
knob
knowingly
kodak
koh
kolding
koo
krama
kwon
kyaw
lagoon
launchers
lena
leverage
lexus
likens
limestone
lineker
litigation
lloyd
loco
lodewijk
longtime
looted
loser
luring
macrons
maddox
madurese
maggie
majestic
malia
malta
managements
manolas
manu
mar
maret
marvels
maserati
masia
matahari
mathematically
maturation
meadows
meanings
measurement
mechanics
meddling
medicinal
melodrama
menstruating
merapi
mercury
mestalla
meteor
mila
milligrams
millwall
minimalistic
mint
miscarriage
mistress
mladenovic
mmi
mole
monroe
montana
montenegro
monty
mortality
mounting
mourned
murcia
murdered
mutilation
mvp
nafi
nang
nara
narrower
nasional
natasha
nationalists
ne
neal
neapolitan
neira
neurons
newport
nextgen
nicely
niece
nixon
nonaligned
novelist
nozomi
npl
nuestra
odors
offroad
olufsen
onsen
oops
op
oranje
oration
orban
outfits
outpatient
outsourcing
outwitted
ovation
padi
panama
panamera
panelists
parma
parmesan
parupalli
pasta
pattaya
paving
payable
peaches
pennant
perceptions
perin
periphery
perpetrated
peruvian
pete
phenomena
philosopher
phrases
physique
pierce
pitbull
pitlane
plugs
poetic
poke
poo
pops
popularly
pores
portfolios
postgraduate
prancing
precautions
predators
presiding
priests
projections
proportion
protocols
pss
puberty
puig
pussycat
puti
puzzles
pwi
qantas
quincy
quique
quizzes
racket
radin
rafah
rafting
raging
ranged
raoul
raspberry
reactivate
reaps
reasoning
reconstruction
recounts
rectors
redmond
refresher
refute
regards
registrations
rehabilitate
rejoined
relinquish
reminding
removes
renzo
reorganized
repeats
repel
repellent
replacements
reptiles
reservation
residues
respawn
restraint
retailer
retainer
revitalized
reviving
rhapsody
rhino
rhythms
riddle
rigid
rijksmuseum
ro
roc
rony
rooted
rosario
ruediger
runny
rust
sacrifices
safiq
sag
sagna
sai
sailfish
salespeople
salma
santi
sarawak
satar
satirical
scaffolding
scar
sdk
seating
seaweed
securitization
seduction
segmentation
senad
senna
senora
sensations
sensei
servings
sf
sg
shade
shallots
sharon
sharpest
sheffield
shinawatra
shinto
shipper
shonin
shopkeeper
shortcuts
shortfall
shuttlecock
siberian
silvas
sims
simulations
sixteen
sketching
skullcap
slapping
sleepiness
slender
slovenia
smear
smurf
smyrna
snippets
soares
socialite
socio
soften
solange
solitude
soluble
somehow
sonny
soros
sos
soybeans
speculative
spells
spiegel
spies
spikes
spoiler
sportscar
squash
stain
stained
steele
steinmeier
stephane
stifled
stopper
streamers
stripped
strips
stunted
subaru
subscriber
successes
sultans
sulu
sunni
superiors
supplement
svitolina
swami
swearing
sweeps
symmetrical
sympathetic
tamara
tapped
taqwa
tarnish
tatung
tawau
tennessee
terengganu
theta
thrilling
tick
tiesto
tiko
timah
tk
tofik
tomei
tongues
tonnes
toothpaste
toppled
towers
tp
tr
trackball
tramadol
transitional
translating
triangular
triathlon
trimester
triumphed
troponin
tt
tun
turtles
ultrasound
unanswered
uneven
unibody
unify
unsportsmanlike
unveiling
upbeat
uric
usain
uttar
vanity
vava
veterinary
vile
villiers
volleyed
volumes
vomited
vv
wacom
wanderley
warheads
waved
wbc
wbo
wee
welterweight
wheelchairs
wikileaks
wildcard
wilfried
winslet
wishing
witcher
wolfenstein
wolfgang
wondered
wti
wto
xcx
yazid
yellen
yemeni
yew
yoyo
yus
zelda
zenith
zulfikar
zwiebler
abbreviation
abit
accesses
acclamation
accord
adana
addict
adriatico
adulyadej
advertised
agil
ahmadinejad
aio
aishwarya
akad
alas
aleksandar
alexandria
algerian
alice
alief
aligned
aliya
alkaline
alleging
alleviation
alphonse
amend
amends
amicably
ammonium
ampere
ana
anadolu
anarchist
anglican
anjani
announcer
anoa
antarctica
ante
anthems
anxiously
appetizing
applaud
appreciating
apprehend
appropriately
apu
aquamarine
arabs
archaeologists
ard
arising
artemio
artery
asamoah
asserts
assisi
astronomical
atom
attaches
auditioned
averaged
awal
ayam
backers
bakri
balcony
baldwin
bandits
bangs
baran
barn
battered
bayona
baywatch
bazaars
bearer
bebi
bee
belah
belittle
bergkamp
berisha
bfi
bias
bind
biota
bioware
bites
bk
blaze
bleach
blindly
blindness
blueberry
boil
boiling
bombard
bootcamp
bradleys
branson
brawn
brendon
bridget
brio
britains
bruised
brutally
bubble
buenos
bug
builder
bulimia
bulldozed
burrell
bursts
butterflies
bya
ca
caca
campo
candlelight
captioned
captions
carcinogenic
carmen
carnivals
carotene
carousel
carpets
cataract
celia
cengiz
ceres
ceu
chad
chairmanship
challengers
championed
charities
charlottesville
charred
checkin
chosun
chr
christophe
chuckle
chul
cites
ciudad
civilized
clashing
classrooms
clayton
cleanser
cod
commodore
complexes
complies
compress
compulsory
conceptually
conditioned
conflicting
congressional
constituents
contagious
contamination
contests
contraceptives
contradicted
coolness
cop
copying
corpses
corre
cosplay
coughing
coughs
counterattacked
countering
countermeasures
courtesy
courtiers
crayon
credentials
crimea
crowding
cupertino
customizable
cyanogen
daft
dagang
damages
damar
dashing
dcf
deaf
decisively
declares
deed
deeney
deepavali
defamed
dei
dela
delegated
dema
descendant
desks
deterrence
deviate
diary
dietary
dieting
diff
differentiation
dili
diners
disbelief
discontinue
disgrace
dispose
dissemination
distortion
dnc
domino
downing
drains
dreamworks
duff
dumoulin
dvd
dy
eba
echoing
effortlessly
elaborating
elbowing
eleanor
elearning
elf
elisabeth
elvira
em
embodied
emphasizing
enchanting
endangers
engraved
entrusts
equaliser
equinox
erase
erection
escalating
essex
esther
evaluates
evergrande
evict
exams
excavations
exclusion
exhibiting
exorcist
expands
experimented
extraction
extraterrestrial
eyesight
fadel
fairmont
fam
fangs
fantom
farida
fateful
fatih
faults
feeds
fenders
fermented
fernandes
fibers
fidelis
figueiredo
financiers
fishers
flora
flute
flyers
foggy
foiled
follower
fone
fong
foodstuffs
fool
foremost
forgery
fourfourtwo
franchi
fraser
freelancers
frightened
frills
frustrate
frustrating
ftv
fuad
funders
fundraiser
gallon
gan
gases
gems
gennady
geographically
gilbert
gilles
gingerbread
glands
glaucoma
glue
gnb
graceful
gracefully
grape
grazed
grazing
greenback
grieving
grudge
guthrie
haas
habitats
hacks
haifeng
hailed
hainan
hajar
hal
hansa
harlem
harley
harming
harr
harrington
hasselblad
hastily
hazel
headlamp
herd
hermann
hermine
hidalgo
hino
hj
hk
hobbs
holden
holgate
homo
honig
hotly
hows
hoya
humiliate
ideapad
ideation
ifan
ignited
ignores
illinois
illusionist
inbound
indexes
indicative
indosiar
infants
infidel
infiniti
inflated
influencers
informing
inhouse
initiating
initiators
inquirer
ins
insane
insects
inserting
instability
instruct
instructors
intensifying
interacts
intercept
interoperability
interpret
interpreting
intricate
invented
irony
irreplaceable
isl
isla
islamophobia
jaa
jacksons
jade
jagger
jaw
jenny
jiro
jiwa
jody
josip
jp
julien
junta
jupiler
jw
kabuki
kagawa
kaneko
karachi
keaton
kenta
kilo
kiong
kir
kitchens
knelt
kok
kolarov
koma
kp
kristian
kygo
lace
lago
lamela
langit
lansing
lanterns
laurentiis
lawmakers
lc
lea
leaning
lemos
lengthy
leos
leveling
lfp
lifeless
lifestyles
lifters
linesman
lino
littering
livio
logically
lok
londoners
loopholes
lou
loudspeaker
lowers
lulled
lumens
lurk
maba
macroeconomic
madagascar
maguire
maisie
maj
majid
maki
mammals
manipulating
manuscripts
marcantonio
marilyn
marten
martina
marvin
masked
mastering
matador
matheus
mathieu
matsuyama
maw
maxima
maye
mazzola
mcdonagh
mcknight
mdi
meh
melodies
melts
membranes
memorabilia
menhirs
meningitis
mentorship
mercantile
metric
milos
mimo
mirrors
miscommunication
misinterpreted
mislead
mitigate
mlc
mmorpg
mockery
modernization
modify
moms
monks
mtb
muay
muh
multiplier
murad
mural
muramasa
muru
muscat
mythical
nagoya
narratives
nasrullah
nassar
nasser
neglecting
negotiable
neon
neumann
newborn
nfl
nicknames
ning
nippon
nita
nonprofit
notre
noureddine
novi
nuanced
nurtured
nutmeg
nutritionists
oakland
oatmeal
observant
offend
ony
opium
orangutans
orbiting
originator
orphan
otis
overgrown
overwhelming
packer
pact
paddington
pai
paley
pam
pandi
pandu
panja
papier
parachute
paraded
pardon
parisien
patents
patrice
patrolling
pdf
pearce
peatland
pediatrics
pegasus
penelope
pentatonix
perempuan
pereyra
perimeter
permitted
personalized
persuasion
petitioner
phnom
piazza
picnic
pinched
pinnacle
pirated
plaid
planner
plunge
pn
poems
politicization
porter
posse
postponing
pow
praises
praja
prejudice
prematurely
prints
priscilla
prisma
probability
proofs
proprioception
proxima
pulp
purification
puth
quotes
rage
rajamangala
ramallah
randle
rapists
rauf
razak
razor
rcs
reacts
reals
reaping
rebranding
reckoned
recorders
recount
reelected
regarded
regi
registrants
reims
reinforce
reinforcements
rejoice
relieving
restructure
rethink
rib
riverbanks
robbed
robber
robocop
rolando
rolf
ronan
roofs
ropes
royalty
rubbing
rutte
ryu
sabotage
sacrificing
sadie
safeguarding
saldana
saphir
sarong
sarris
sastra
saturated
saung
saxophone
sb
scarce
scholar
scifi
scoliosis
scoreline
scoville
sculptor
seaborn
seagate
seasonings
secrecy
seduce
seizing
sema
sender
sentosa
shakes
shameful
sharma
shortages
sig
sightings
silicone
silly
sinister
sixers
skagen
skating
skipper
skyline
slaughtering
sleeps
slides
slimani
slovenian
snes
socially
solaris
solidify
solidly
sparkly
sparring
spills
spinner
splendid
spokespersons
sporadic
sridevi
stalling
stanley
starling
stationed
steer
stellar
sterilized
stevie
stockpiles
stoffel
storms
strangers
strata
streamline
streamlined
stringent
stripe
stripping
structured
stuart
subscribed
subsection
sultanate
summers
sunbathing
supercar
supernova
surat
survivor
suspense
sweeten
sweetened
syah
symbolizes
symptom
synergistic
synopsis
taba
tabloid
taker
talaq
taller
tallest
tampered
tangible
tate
tattooing
taxable
taylors
televised
tempe
tendencies
tenderness
texting
thankfully
thc
thirsty
thrashed
thrashing
thronged
thu
tibia
ticker
tide
timber
tobias
tornado
touchline
tpi
traffickers
trainor
traits
tricking
tripod
tristan
triton
twisted
twists
ultrasonic
um
unaware
unchanged
undefeated
underworld
unhcr
uniformed
unpopular
urbino
utopia
vacated
validate
valor
vanessa
veins
vere
vibranium
vic
viewership
viking
vitoria
viu
vivian
vivienne
vixx
volatility
voluntary
wahab
wakes
wanita
warcraft
warehousing
warranty
warring
wastewater
waze
webster
wechat
welshman
whiten
whitney
wilda
wildebeest
wilders
wilfred
willson
wintour
wiping
wired
wk
wms
wonderland
wonton
wrists
wronged
wuhan
xabi
xiv
xv
yamashita
yaqut
yells
yonemoto
yorke
yves
zabid
zagreb
zed
zhejiang
0
1
2
3
4
5
6
7
8
9
##s
2017
2018
10
2016
##a
dailysocial
20
##i
30
##e
##ing
000
##n
11
jokowi
##o
##d
12
15
21
##ed
13
16
##r
ahok
##t
##y
00
14
22
2015
##l
18
17
100
19
##er
##k
##h
25
23
##ly
##an
anies
novanto
50
polda
##m
##u
24
setya
2014
febri
ektp
500
##g
cnnindonesia
rizieq
40
31
##p
28
2019
##c
27
djarot
26
##on
200
rimanews
##1
##es
##ng
60
29
35
##2
##0
32
indonesias
2013
pdip
##in
##4
##8
##3
vinales
45
##6
pilkada
##5
##b
purnama
300
sandiaga
##7
##al
tjahaja
##man
##ri
##us
baswedan
##en
##9
##f
2012
##di
bhayangkara
setnov
arief
##z
gatot
##na
##ra
##ta
70
dprd
2009
80
##ia
##ers
##ar
90
##x
55
gojek
gerindra
##is
##te
2010
2011
##da
miryam
33
dovizioso
##ka
34
41
##la
kombes
36
##v
150
##w
##no
##ic
##to
##ni
##ya
2008
mulyani
##le
##ti
400
diansyah
##ma
##ah
jupe
600
hanura
42
75
##as
##ity
51
retno
##ki
##based
irman
38
##ro
##ting
fredrich
250
##os
##ness
##el
46
##th
39
37
##ang
ibrahimovic
2007
##ch
800
tjahjo
##ry
48
djadjang
09
64
nasdem
perppu
f1
khofifah
##or
sugiharto
##ble
##um
donnarumma
2006
2020
karnavian
yuwono
##ja
##sa
2001
2004
47
##j
44
telkomsel
88
polri
transjakarta
01
tontowi
##un
liliyana
ojk
mbappe
##ck
##ko
##rs
02
1999
52
##ne
lebaran
##mi
##do
##ge
65
06
##ian
##less
##at
##de
##li
ozil
##ter
##ty
##ul
akbp
##ie
120
komnas
##ies
54
58
antasari
##wan
higuain
##ga
ahoks
212
sby
wahyu
##ung
##ong
idrus
bernabeu
iriawan
62
dybala
##ce
bpk
##ion
43
##able
u19
##ha
deddy
##ment
49
##et
##tion
##ling
07
##ted
##re
53
99
ganjar
##ism
##yearold
56
firza
umuh
yasonna
##jo
##ist
57
##hi
10th
##il
08
perseru
##ur
lilipaly
700
##ation
##wa
2005
201617
##co
##io
##ji
##ton
72nd
##ns
##q
thamrin
##ak
##id
##st
03
1945
95
bmkg
setyo
tokopedia
##han
61
jonan
wayan
59
nazaruddin
##ts
fadli
rashford
2002
##ir
##ize
##ze
ormas
##ik
aguero
traveloka
##ding
20172018
mulyadi
wita
##go
##ive
brimob
11th
cikarang
##lo
jokowis
##yo
##am
##se
72
djanur
15th
67
lautan
narogong
##ve
stateowned
##it
permata
05
kpks
##ate
##ent
##ous
2000
iriana
pupr
##ized
##ol
amien
##ok
##son
13th
##ba
71
74
900
rudiantara
##anto
1000
12th
##est
2022
68
69
kahiyang
rikwanto
##eng
63
bareskrim
basaria
fernaldi
nurmantyo
romelu
##km
##ner
##za
soes
sukamuljo
4k
bobotoh
##ine
##mo
76
85
nurdjaman
prasetyo
soekarnohatta
uniteds
##ey
##ono
20th
##ally
04
zumi
##bi
marsudi
muhadjir
##va
agustinus
alfitr
alhamdulillah
persegres
ridho
2003
apriyani
asep
ramdani
countrys
masinton
##ho
bukalapak
##sari
##si
sofyan
timika
##ana
##gan
##nt
##yah
nahrawi
##dy
96
nainggolan
s8
subdirectorate
##ary
ancol
andik
##der
##ut
360
89
apbd
raikkonen
78
sugito
warkop
##im
350
77
bawaslu
bpjs
darmin
sumadi
17th
1998
cikampek
u22
##ad
chatbot
##ky
3rd
bekraf
bpbd
jakmania
pochettino
yunadi
##nto
##ny
##uk
180
##age
##ca
##gi
##ial
##wi
130
79
cipinang
u16
##bo
##day
81
kioson
luhut
oesman
##ek
##om
450
66
angga
kumolo
novantos
patrialis
soekarnoputri
##ped
##ping
##yanto
201718
electability
kompol
sigit
##ih
##ization
##led
##mas
##ot
14th
saintgermain
satpol
tiket
##ani
##ina
##ps
##rd
##tor
91
gamawan
##ari
##izing
##ke
##ning
kebayoran
sumarsono
##ds
##land
##yono
bachdim
bimanesh
ginting
indrawati
sjamsul
##ging
110
3d
92
alfian
laode
rizieqs
sutopo
tillerson
##fa
##ier
##ley
##tan
16th
2nd
8th
97
brebes
casemiro
yusril
##din
87
bumn
madrids
pramono
##men
##ov
andritany
aniessandi
crutchlow
raiola
ricko
##nce
93
ipul
rizky
##ita
##rt
##tic
90s
ibnu
indosat
rahardjo
ransomware
##ara
##me
4th
maruf
sjafri
##so
##ue
##zi
5th
cantrang
ketut
samsul
##ku
83
##fi
##ure
140
73
cpns
cugurra
haryani
rafli
serui
##00
##2017
##ated
##ming
##per
101
18th
1997
densus
pancoran
##be
##red
jabodetabek
kemang
kylian
panjaitan
slank
syafruddin
wawan
19th
boldsky
hasibuan
syaiful
##ful
##lah
##line
##wati
128
750
pamungkas
partys
sugiana
##cy
##lin
##lu
##ring
##time
##tive
##ving
115
160
1996
86
djoko
rhoma
soesatyo
sylviana
u21
yudi
##inch
##pa
##sing
2021
82
agun
comvalius
hasto
kurnia
lestaluhu
mimika
saefullah
wahyudi
##box
##like
20162017
md3
persibs
semanggi
yabes
##pi
##po
112
1992
71st
98
axiata
menpora
##des
##em
##ford
##ls
##uddin
##up
1994
anggia
apbn
budiman
corruptors
harimurti
henrikh
nurdin
wannacry
##ard
##one
##pe
##rin
coworking
indar
mizwar
pbsi
##ati
##by
##king
lazada
purwakarta
rahayu
##ant
##ay
##ee
##lan
##tu
##udin
170
30th
7th
kendari
medika
noncash
parawansa
pudjiastuti
shopee
##bs
##ide
##ini
##ll
cawang
g20
hariyadi
hartarto
kaskus
maitimo
rizki
subianto
wisnu
##ks
##logy
##mp
##my
##ris
##ron
##ten
##way
222
23rd
herrie
kapolda
putro
yuni
##ai
##sh
##syah
125
6th
94
bpom
cahyono
ciliwung
jatinegara
nusron
pakansari
pelindo
rahmayadi
redmi
setnovs
sinaga
syarief
##adi
##med
##ria
##ud
##ys
1990
ahy
atep
fitbit
lbh
marlina
maute
widodos
##2016
##ating
##ite
##les
##ran
##res
##ru
4g
a1
avanza
candrabhaga
dadang
dembele
inasgoc
kebon
pamekasan
ppatk
utomo
##ham
##ities
##ned
##out
##ss
##vi
108
114
highranking
laoly
modric
msmes
ponorogo
zulham
##ins
##point
##ries
2030
25th
bianconeri
cawagub
hadimuljono
ignasius
muchtar
sudihardjo
tembagapura
##ance
##au
##cing
##dra
##jaya
1st
240
24yearold
alaves
blbi
ederson
meiga
moto2
oddeven
pranowo
spalletti
##ci
##las
##mer
##ua
156
9th
azwar
bakamla
dipta
engku
gnpf
kaesang
krukut
murni
ragunan
readalso
yockie
##10
##bar
##ess
##lla
##ray
1990s
anniesa
apriani
bulog
diah
gianyar
maidah
mampang
triawan
##ens
##ged
##ists
##zed
1080
1995
310
basarnas
buana
dprs
idham
martapura
oclock
rasyid
tki
vikri
##bu
##dan
##field
##ld
##ms
##nas
##tar
##tone
##win
2025
21st
blibli
butet
cagub
deulofeu
dzeko
emran
gopay
hamka
kkp
serpong
simanjuntak
stegen
tigor
##ified
##mar
##off
##ore
##tz
##ver
##ye
105
650
84
f2
irawan
jiexpo
mancity
pangandaran
pluim
prilly
pundi
rscm
septian
solok
##ft
##ger
##ju
##lle
127
ijen
nerazzurri
perisic
pjanic
##ala
##ap
##cs
##ena
##ff
##house
##lang
##net
##vic
1980s
1991
70th
chigga
citilink
jenderal
karawaci
pratikno
rezaldi
situmorang
syahrini
tjahjanto
tribratanews
u18
##50
##berg
##bly
##cc
##ct
##kan
##ler
##min
##ney
##ology
##ram
##wood
##yan
##zer
##zing
189
2117
444
banjarnegara
bernardeschi
effendy
espargaro
nyalla
odang
persijas
zulkarnain
##born
##ira
##ish
##lia
##mes
##ors
1993
cengkareng
chicco
eggi
jefri
julianto
kalibata
lpsk
royke
saddil
singo
spasojevic
yusri
##11
##ata
##book
##ese
##ip
##oh
##ons
##oy
##port
##ui
##vin
132
1921
50th
agnez
biglia
budiono
elevenia
emoney
fachri
handang
hendro
jonru
marliem
pbnu
ryzen
sutrisno
##ber
##era
##ical
##nd
##style
##uan
44th
anung
boyolali
cibubur
leganes
p2p
payfazz
perum
tipikor
tridatu
##awan
##con
##ded
##gar
##jono
##mic
##nes
113
5g
aming
arsyad
bakauheni
cianjur
irwan
jupes
kjp
msme
muhaimin
ntb
pradana
rachmat
steelseries
warung
##20
##ably
##ker
##lis
##nan
##ngan
##que
##ric
##van
##yu
102
107
32nd
bagas
bolasport
cibinong
comr
fauzan
ismed
jatibaru
keylor
misbakhun
setyawan
syamsuddin
tanoe
vanesha
vujovic
##aya
##cia
##du
##ence
##eon
##ery
##har
##ics
##light
##long
##tin
##year
bappenas
cilegon
gelael
hardianto
isyana
mahrez
payung
rinaldy
sadio
suryo
udin
weve
yanto
##che
##ino
##ions
##lam
##rk
##star
##ster
##tech
##tes
1965
1989
28th
313
aladha
azis
bnpb
destria
homecomers
indro
jogja
kapitra
kasablanka
ngawi
nursalim
pasaribu
persada
saragih
senggigi
szczesny
u20
zenfone
##17
##back
##den
##els
##free
##hu
##iyah
##ndo
##ou
##rah
##rey
##sy
##tas
##tro
##wo
60th
ahokdjarot
audero
bengawan
hansamu
jeruk
kessie
kominfo
mandzukic
proliga
ronaldos
sinisuka
##12
##1s
##ans
##ec
##ious
##kin
##logist
##pt
##san
##ug
22nd
27th
37th
40th
56th
5inch
aleix
awaluddin
boyamin
ciledug
coruna
fatmawati
firmansyah
fourwheeled
gadot
heryawan
i7
jagakarsa
permai
probolinggo
rahmad
rakitic
ryamizard
salatiga
smartwatches
syamsul
u15
##3s
##ea
##ito
##jan
##mate
##ments
##nda
##ndi
##nti
##sen
##ves
1438
1985
ardhiyasa
bakayoko
despacito
hangtuah
hargianto
kangen
kebumen
kemenpora
meneer
minggu
rendy
serdadu
setiabudi
titiek
wasisto
waskita
yohana
##ada
##awa
##ban
##bed
##gen
##ock
##pan
##ration
##rdi
##sin
##ular
##wing
1080p
119
133
1980
280
29th
82nd
90th
aher
aiptu
bacaalso
baduy
barcelonas
batshuayi
choirul
danur
darmawan
enggartiasto
genpi
gerwani
hilman
iflix
jombang
lindeloef
liverpools
mahfud
paspampres
pribadi
rossis
ruhut
samosir
sekuritas
sitompul
solossa
tcash
temanggung
xmax
##bank
##chi
##class
##he
##lli
##mah
##mon
##nation
##oe
##su
##tama
##tis
##uri
106
116
199
31st
57th
66th
69th
antipancasila
antiterror
bonek
fadilah
feby
hermansyah
indramayu
kpai
nganjuk
pacitan
radja
rahadian
ruangguru
sekadau
sukamiskin
tendean
thohir
yorrys
##7s
##af
##city
##ella
##jang
##od
##ren
##rich
##tyle
##ville
##we
1984
234
5000
55th
74th
aisyah
basna
boyzlife
dgt
haay
hasyim
hehanusa
lukita
m1
mustofa
neymars
pelni
penjaringan
rochmadi
sampang
sticar
sugbk
suhariyanto
sutarjo
under21
##ab
##ac
##ction
##hin
##lt
##olo
##rat
##tte
##una
1987
2000s
34th
35th
45th
54th
59th
62nd
alcacer
aurier
bosz
draxler
grabpay
hartanto
ipda
kingsman
lembang
maqdir
ocon
pesona
rembang
sampaoli
shabu
solanke
spaso
tanoesoedibjo
tech3
tshirt
worldclass
yandri
zokora
##ev
##gs
##let
##lon
##pat
##sia
##tha
##tra
##ved
##wara
171
24th
256
36th
3g
89th
bamsoet
bellerin
bengkalis
bodys
borini
cepi
fortuner
hermanto
khaththath
komjen
kramat
mulyono
nadiem
pamper
pantura
quipper
rinjani
risma
sucipto
syaikhu
twowheeled
ustaz
verratti
zaky
zudan
##15
##boy
##cks
##das
##gate
##hand
##hip
##nia
##oro
##pu
##ras
##ual
103
129
135
175
26th
6inch
86th
anggi
ardianto
contraflow
curug
driyono
gbla
jangkrik
jufriyanto
kovacic
madhang
milans
olx
pandjaitan
pnri
polres
pvmbg
sawit
supardi
teten
utami
youve
##8s
##ao
##dang
##ear
##ect
##eo
##fo
##hy
##ice
##ium
##rang
##rate
##related
##uh
##ullah
109
124
137
145
190
2023
220
33rd
angklung
cahyo
calhanoglu
choel
cipto
dukcapil
gramedia
hanis
hery
jakartas
karanganyar
kartanegara
lulung
mardani
miralem
munaslub
murakabi
onsu
p20
perindo
puel
semeru
soemarno
syihab
sylvano
teduh
tpu
ustadz
zamrun
##ama
##can
##ering
##fer
##late
##len
##lic
##rizal
##sono
##themed
##tti
##vr
104
122
169
1983
365
65th
b2b
balawan
dumai
ezpeleta
feedr
giallorossi
gilang
hasanuddin
imin
kadin
kulon
laudya
loket
maguwoharjo
milovanovic
novri
purwo
sahur
sejahtera
soompi
tulus
wakatobi
##2018
##aka
##dal
##dar
##dong
##eh
##ert
##ett
##fish
##gn
##hs
##ila
##ista
##minute
##mm
##ova
##ril
##rit
##rti
##rus
##rya
##sky
##ties
##vy
##yang
##zo
111
117
1986
340
360degree
63rd
arfan
brodjonegoro
budiyanto
chatbots
cikini
fitriani
gajayana
jakartacikampek
kapuk
keluarga
khloe
kresna
panca
perdanakusuma
puigdemont
singkawang
taruna
tebet
u23
varane
vermansah
voxy
wongso
##13
##2014
##ach
##ali
##anda
##ane
##ansyah
##bling
##board
##burg
##cus
##dge
##ero
##head
##ika
##ill
##ined
##llo
##nk
##omo
##pp
##rman
##run
##ses
##sus
##ura
##wah
##work
123
1621
1920
1970s
1973
20152016
2115
2116
51st
52nd
720
75th
bahrun
bintaro
buya
cakung
daop
fajrin
familys
gojeks
handanovic
k8
kanjeng
koes
maharasyi
masduki
miftahul
migas
mirwan
mpok
pramuka
sitorus
stapac
sunter
vvip
##2015
##cating
##ddin
##del
##edi
##ense
##ets
##fall
##graphy
##hur
##if
##mark
##month
##news
##rn
##sed
##stic
##ult
##wear
142
3ds
3x3
5mp
64th
81st
allindonesian
andrean
arrmanatha
arsul
daryatmo
europalia
f5
fitra
highend
kalinic
kkb
klimg
natshir
naufal
phonearena
rasuna
scbd
snsd
songket
sumber
suprapto
surajaya
taufiqulhadi
v7
widiade
zulkarnaen
##18
##angan
##ative
##bang
##bing
##bit
##gara
##gb
##hed
##her
##ick
##ification
##kas
##lly
##maker
##mal
##og
##ow
##par
##ral
##rry
##table
##ters
##vas
##vo
##wang
##worthy
##yana
118
134
1982
330
468
835
84th
850
88th
anyer
atmo
bahana
baim
banggar
bitung
bobotohs
cempaka
ciamis
depay
ditreskrimsus
dwimawan
enggar
ikm
irianto
j7
jajang
jakabaring
jonghyuns
klender
kumala
n219
nugraha
nusakambangan
nyoman
pertamax
pramac
propam
salihin
samesex
sape
saumlaki
siwei
siwon
sjahbandi
soetta
srchttpscdns
suju
tingkir
tuttomotoriweb
vr46
walian
wimboh
##30
##5s
##6s
##90
##ator
##away
##cent
##ched
##dt
##fe
##iest
##illa
##ining
##lie
##mus
##ndra
##oto
##ple
##ret
##rio
##sha
##uit
##vis
##ware
##well
##zaki
126
42nd
61st
68th
80th
8mp
adiputra
agya
ansor
arcore
ataribox
binsar
budjana
callejon
calya
cikeas
cr7
deliveree
detikcom
gandul
highestgrossing
i5
iskan
kebaya
komdis
mbak
messis
mignolet
mochamad
mourinhos
ongki
pierreemerick
pixabay
qingchen
saghara
saputro
sawahlunto
sciglio
siswanto
skpd
tanjungpinang
taufiqurrahman
twoyear
u11
wicaksono
##anti
##arto
##cha
##cted
##dri
##ela
##ex
##fc
##fin
##hes
##ids
##indo
##ished
##kor
##lay
##life
##lina
##logical
##ome
##pers
##rad
##rp
##ther
##ulate
##use
##wadi
##ward
##yati
141
1421
144
1721
1966
20092014
20172022
320
67th
73rd
810
83rd
85th
antam
armaiyn
avintia
azpilicueta
bangkalan
bukittinggi
cemara
cendana
chelseas
dhawiya
didik
dyah
elvy
facetoface
fiveday
giias
idul
istora
jict
juncto
kalijodo
karimun
katulampa
manahati
matraman
mekeng
moeldoko
pambudi
pertalite
pigai
pilgub
preloved
progo
rajamohanan
ririn
samsu
satlak
sausu
setho
sudewo
susanti
syafii
sylvi
synergize
temenggung
tolisso
u2
vainglory
wardhana
wirawan
yayan
yudha
zainudin
##2013
##9s
##air
##andi
##ano
##aran
##are
##ars
##cal
##cate
##cin
##cio
##com
##down
##ges
##hing
##hour
##ien
##iro
##jung
##kal
##kes
##lating
##made
##mu
##pati
##rejo
##rta
##rto
##tors
##tory
##tri
##wn
##wu
1015
139
1938
1962
1979
480
49th
53rd
58th
880
arafah
aryanto
babakan
bachtiar
begovic
dukuh
eja
emral
ezechiel
hambalang
harbolnas
hariman
haryadi
hendri
iptu
iwobi
jakut
jazuli
lerby
mahesa
mangunkusumo
martowardojo
mastuki
moto3
ndouassel
pahala
quadcore
raharjo
ringgo
rismaharini
sihar
sinabung
sleekr
somad
strootman
sugeng
syukur
tmii
tulungagung
##ability
##bes
##bles
##bury
##een
##ejo
##ez
##gal
##gh
##gy
##hana
##hd
##ify
##ii
##ition
##its
##je
##jin
##lar
##mann
##oma
##oni
##py
##rew
##rie
##ski
##sta
##tine
##udi
##ux
##zhou
##zio
1500
1521
155
1976
2118
270
76ers
80s
87th
atiek
bareksa
belimobilgue
bhinneka
bimbim
bookslife
brilio
buwas
candreva
combola
daryono
ecstar
endri
fery
foody
hanung
hapilon
hizbut
hubla
ikhsan
ismaya
kencana
klopps
knickknacks
koeswoyo
komarudin
kppu
kusnandar
nonoil
pbfc
petai
pinjam
prasetya
ps4
pulogadung
purnomo
raline
rawamangun
stnk
stormi
suherman
sukmawati
sumsel
sunarto
syahputra
taat
takbir
tamasia
tuchel
v2
videotron
##16
##19
##40
##4s
##ache
##ack
##asi
##bal
##ctor
##dis
##duction
##ell
##ene
##fy
##gged
##had
##hadi
##hop
##ida
##ile
##isa
##iya
##jah
##kti
##lik
##low
##meter
##nya
##oa
##ob
##over
##pes
##ruddin
##shi
##shire
##sian
##sih
##ture
##water
##ying
##zy
174
1967
1988
20112012
230
275
2g
660
ampera
angon
anshori
arkit
bangun
bepe
beyonces
bnnp
bripda
chairul
cilandak
cipali
cipta
cutrone
darmono
dawet
eatever
gaikindo
gionee
hendrawan
inneke
jedun
kalideres
kaltara
keraton
kristiyanto
latuconsina
losail
mercedesbenz
miryams
muannas
nagreg
naura
nengah
niaga
onlinepajak
paytren
pemalang
romahurmuziy
setiadi
shela
sherina
sulaeman
sulis
syahrul
tambun
taslim
tshirts
waluyo
wibawa
yenny
zalora
##24
##60
##ahi
##awati
##bah
##bia
##body
##bong
##core
##dia
##ef
##ei
##end
##far
##friendly
##hai
##harjo
##hon
##idi
##ied
##ifies
##ishing
##mart
##mba
##nate
##nu
##ona
##pn
##ppa
##rini
##rm
##rma
##sak
##shed
##sk
##sman
##sts
##tt
##tya
##uch
##uda
##und
##ute
##yi
##yun
##zin
154
178
1971
208
2114
235
41st
574
76th
acommerce
antv
bams
bdni
bonai
brawijaya
broto
bumd
charliyan
cipayung
doogether
etam
g1
g30s
gasly
helptask
hidayah
hooq
isbat
jacksen
kiagus
kimmich
kpud
kunto
kwarda
latjuba
lemina
lowincome
magetan
mcgregors
mekes
moeloek
nkri
nre
pagarra
pertaminas
pesut
prayogo
psgs
rinni
sarri
sayurbox
siahaan
silangit
styleheight
sunaryanto
suppo
sute
swiftkey
terens
tkp
uttahrir
vivofit
wacana
wardana
wiji
wisata
##80
##95
##all
##andra
##arno
##ball
##base
##bun
##cher
##dhi
##ean
##esa
##fl
##gas
##gu
##hari
##hood
##iah
##ians
##iq
##iri
##istic
##ivity
##ix
##jk
##js
##list
##lity
##mad
##master
##nated
##negara
##ngo
##oc
##ops
##orn
##pmk
##ress
##rine
##room
##row
##rr
##rum
##set
##ship
##sis
##tal
##tered
##top
##using
##uw
##verse
##won
##yani
##zz
100th
13mp
16mp
1958
1974
1975
201516
2049
238
378
550
77th
adeles
adhyaksa
alamsyah
amiruddin
andhika
arcandra
bartomeu
dedik
dgi
esport
fachruddin
faridz
gandaria
garasi
gatra
gembrong
giring
halodoc
hamsik
hariyanto
henhen
husaini
hutapea
ilotte
jagorawi
jamaah
jogjarockarta
kahfi
karanda
kasbani
kharis
kramatjati
kualanamu
laiskodat
lembata
localbrand
ngolo
niken
oriordan
otamendi
pasarpolis
pastika
popsivo
presidentelect
pubg
pulisic
railink
ramlan
ribery
rusdianto
sadikin
sadli
setiyono
shkodran
singkarak
soeparno
soleh
spdp
suzzanna
taemin
thailands
trogneux
wantedly
zaini
##500
##ahan
##aji
##ale
##and
##asan
##ato
##bach
##band
##bin
##cci
##cell
##cky
##die
##ered
##eri
##eria
##face
##hub
##iana
##ise
##izes
##jati
##jun
##kel
##lk
##los
##madi
##mc
##nik
##op
##ory
##pad
##play
##rko
##screen
##sel
##sey
##sm
##tani
##tus
##uation
##ured
##ury
##ution
##wono
##ws
121
12mp
156a
165
1821
195
1969
201
216
260
285
3000
79th
airpods
aniessandis
apbnp
atut
bandungs
barzagli
bayauw
berlian
bpkb
crossborder
destiara
dishub
djaring
enlivening
febrianto
finansialku
furtuoso
gadjian
gdragon
gmic
goretzka
gowes
gresini
gunandjar
harrys
harupat
headtohead
homepod
howedes
hwayugi
imbut
iora
irwansyah
islan
jatim
juki
kamaludin
kiatisuk
kiswanto
kvitova
m2
m7
m750
majalengka
marklei
microsofts
modalku
nagita
nasrudin
ngada
nzonzi
o2
onetwo
partenopei
persepam
picmix
plbn
pojk
policewomen
polrestabes
poskotanews
q2
rangkasbitung
shopback
simatupang
singgih
situbondo
suciwati
sudarso
sudiro
sudjana
sudrajat
sungkar
suyudi
tanjungbalai
tifatul
togean
wehrlein
wiro
wuryanto
yadian
zidanes
##0s
##0u
##2010
##22
##ax
##cket
##ders
##dim
##dini
##dji
##dog
##door
##eman
##ening
##fan
##front
##gra
##grade
##heart
##hyun
##ica
##ings
##jar
##kis
##link
##lio
##lish
##mail
##mat
##matic
##mir
##mond
##more
##oid
##oo
##our
##page
##park
##pel
##power
##ros
##rra
##sang
##sc
##sion
##ssa
##tv
##uro
##week
##xy
##zal
##zzy
1070
167
183
184
185
1d
2224
225
249
24hour
2ne1
333
4gb
7000
aghnia
alphard
amartha
andien
angke
angriawan
annisa
apjii
archipelagic
asnawi
baswedans
bimo
bkpm
blora
britama
carok
chg90
cholil
cilic
confero
crosssection
d850
deliserdang
dharmasraya
diniyah
duitku
electronicbased
emojis
esdm
fp1
fransiska
goeslaw
gozali
gsmarena
hestu
hinca
hoegeng
hololens
investree
iqbaal
junaidi
kabau
karetan
krisna
laksono
laku
lesmana
mahakam
mattalatta
mattauch
michy
micin
mofu
muliaman
muschietti
nilmaizar
okto
pandai
pantes
parahyangan
penajam
pkh
pssis
raditya
regenciescities
rins
rokan
sableng
samator
sandelwood
santosa
sbys
setara
smartfren
sohibul
starla
sumedang
sungkeman
supari
surachman
thaad
tkdn
trenggalek
vendry
waseso
ylbhi
zahro
zuck
##37
##65
##ae
##ardi
##aries
##asia
##aw
##bel
##books
##bri
##cation
##dai
##dor
##dung
##ection
##ency
##erate
##form
##gers
##ght
##gon
##gue
##guna
##iation
##jer
##karta
##ked
##ken
##kins
##kit
##lands
##lat
##lessly
##lets
##making
##mates
##megapixel
##mia
##mical
##mont
##mor
##nata
##ncy
##ola
##ori
##ort
##pper
##pres
##prone
##putra
##roll
##sson
##tary
##ulating
##ulation
##uma
##ungan
##ures
##ven
##wangi
##wasih
##zar
##zier
138
147
152
1968
2220
28yearold
314
32yearold
39th
3s
636
airnav
akseyna
amaq
ampg
angkot
ansufri
arist
aryo
bamus
bripka
bukaemas
buleleng
bustomi
cahya
carousell
catur
chandrabhaga
ciputra
d2
deden
districtcity
djaka
dondokambey
endtoend
ep9
facebooks
flazz
g25
gbkp
gm70
gravidarum
hanum
haryono
healthtech
hermawan
hyperemesis
ihza
kadek
kanyes
kardinah
karius
keroncong
kerrab
ketum
kolasinac
kpus
kretek
lestusen
lubuk
lumowa
lurah
luthfi
maarif
malaysias
maneger
marquezs
martabak
motorland
mulyana
nurbaya
obligors
oplet
otavio
paloh
parfi
pawiro
pdam
pdtt
permana
pkpi
pltu
prisia
pullbear
qlue
rapbn
remissions
rumpoko
rusdi
s7
saiman
sarwendah
serigala
setan
sindo
sirih
skriniar
sukasto
sunu
syahrin
takam
takbiran
tamansari
tambunan
tgupp
tidung
umtiti
utut
##2009
##23
##2s
##35
##88
##96
##ando
##ast
##bas
##bat
##bur
##buri
##cap
##chai
##ches
##cho
##dom
##don
##elo
##erang
##etta
##ew
##ews
##fication
##goal
##gor
##goro
##gus
##haped
##hiro
##ig
##igh
##ight
##iti
##itive
##iu
##kar
##kh
##kung
##lf
##lian
##lings
##llah
##nc
##nesia
##nge
##ole
##ose
##ovic
##owned
##pus
##rahman
##sal
##tation
##tec
##teen
##tiar
##tie
##tina
##tional
##tta
##tur
##ust
##uz
##val
##wed
##yman
##yon
##zor
162
173
179
1950
1978
2113
22yearold
299
2inch
372
38th
425
430
630
911
999
adipati
aspas
azka
b2c
bangtan
baubau
biebers
bukukita
bungkuk
celades
cijantung
dhakiri
dharmawan
ditlantas
djarod
doqar
duolingo
dwiki
dzumafo
emirsyah
erwanto
exwife
fiveyear
gaery
gigis
gillnet
grabnow
halfhearted
harahap
hariono
harmoni
imas
instax
intiland
irzan
issi
jalak
jimly
juliansyah
kelimutu
kiswinar
kitabisa
koulibaly
krypt
laborintensive
lhkpn
lovren
madya
mallsampah
mirzani
mokodompit
naby
noerdin
novita
nurhayati
otenta
pahlevi
palimanan
parastesh
peertopeer
pellu
pengabdi
phinisi
presale
puskesmas
raisas
rankireddy
rapbd
redenomination
sahabat
saipul
samsungs
sandipala
sandjojo
sembalun
sevel
slipi
soesilo
sp3
spains
stefanus
suhartono
sukardi
supermoon
supratman
tirta
todung
untung
wahidin
widiasih
yanti
yearend
##67
##aa
##ace
##ade
##ads
##ain
##ath
##baru
##bbing
##bility
##brand
##burn
##car
##chan
##ching
##croft
##cu
##dha
##eau
##ened
##fest
##fis
##fri
##fs
##fw
##gos
##hat
##ible
##ically
##indonesia
##isi
##keeping
##kov
##lih
##lls
##match
##mber
##most
##mps
##ncies
##ndang
##old
##oli
##oun
##oyo
##pang
##pd
##pin
##pm
##polis
##pped
##print
##rchy
##rella
##rian
##riot
##sad
##tch
##tly
##tong
##tono
##town
##tr
##tun
##uate
##ula
##uni
##watt
##weight
##wk
##yed
##zil
001
136
148
149
172
176
1930
1954
1960s
1970
207
211
25yearold
26yearold
287
370
560
610
7380
78th
aburizal
alfamart
amali
anggy
anterin
apik
applicationbased
ayus
berau
bidakara
bilqis
bontoala
bpj
brainly
busyness
cendol
centreback
cilincing
detik
dprreview
driverpartners
dwiyono
echon
esthy
exlover
fachrudin
fouryear
gegana
gh70
gizmochina
golkars
hammersonic
ichsan
itdc
jandia
jenius
jojonomic
kalimalang
klaten
kulonprogo
kurniadi
kuswanto
lesgo
mallarangeng
mamasa
mandalika
mardiaz
matip
megax
moratas
multifinance
mulya
musala
muzani
netlibraryupload202017
nke
nurhidayat
oconnor
octacore
oktavianti
palangkaraya
penyengat
petrokimia
polwan
prapatan
printerous
purut
purworejo
rajawali
raperda
rapimnas
reddoorz
rifad
rightback
rindu
rinov
rojiblancos
rudolof
rusli
ryacudu
saldi
sasongko
siaga
sialang
sugiharti
suprajarto
supriyadi
tanamduit
technologybased
tenggarong
thalib
thirdparty
tiemoue
topkarir
uwrf
widyasari
womsiwor
x550iu
yanuar
ylki
youbel
##2004
##600
##64
##aga
##als
##ami
##ania
##arang
##asa
##asih
##ats
##aux
##bara
##bby
##bert
##bies
##blooded
##brata
##bus
##cast
##cked
##cker
##coach
##cock
##ctic
##dah
##dging
##dja
##dos
##eira
##eu
##eurs
##fu
##fully
##games
##gis
##hak
##hang
##iate
##ift
##iling
##iness
##ique
##ire
##ites
##kam
##level
##logists
##lp
##lung
##mala
##mang
##mans
##mb
##nal
##nch
##neng
##nie
##nis
##nny
##nta
##oko
##olis
##ool
##oot
##ora
##pass
##pect
##playing
##pora
##position
##press
##quire
##rik
##rous
##rsono
##rust
##rw
##saka
##sana
##sie
##sius
##sport
##stein
##teng
##tle
##tomo
##truct
##uis
##ulan
##unan
##wards
##warman
##wijaya
##yat
##yn
##zali
##zation
##zza
1012
143
158
164
1963
1977
1981
20yearold
210
2119
245
263
283
292
29yearold
2s
315
338
349
47th
4x2
512
611
710
8000
820
8k
950
abimana
advan
agencys
ajip
allegris
alltime
ambhara
antapani
arabias
ardiansyah
aremas
aseng
aspac
atrans
aulas
baleg
bartra
barung
bkn
bpn
cipanas
communitys
coverciano
dardak
ddr4
dewanto
dipha
disneys
dmasiv
dorce
drajat
dutertes
erry
essiens
eurokars
faza
g2
grogol
hamidy
hengki
herdiana
hotma
i8
intudo
ivosights
jahja
jakartans
jatiwaringin
jatmiko
jevin
jongun
jubelio
kcj
kedondong
keruktama
kharisma
kodim
konawe
kontras
localstartupfest
marbun
marunda
mediumsized
melchias
mmscfd
mochammad
myanmars
natalius
nidji
oneprice
oxladechamberlain
padepokan
pakusadewo
pangarep
panrb
parentalk
paud
paypro
pintar
pkpu
porong
prasetio
properti
pudji
purwaka
rafathar
raptr
raweyai
redhanded
refa
reog
rkuhp
s2
s3
salemba
sandis
santri
sarana
sartika
sembiring
sheerans
shookus
singapores
sirait
siraman
solihin
stindl
suhardi
sulistyo
supeltas
supriadi
suryadi
sutanto
sutjipto
tantan
tokopedias
tongseng
topup
touchten
uangteman
umbara
unhas
viugraph
wanggai
winata
wulandari
yandi
yembise
yohanes
yoona
yudhi
zorc
##100
##2012
##ald
##alia
##aro
##aru
##ates
##atul
##aut
##bc
##bowo
##bung
##cam
##card
##care
##cca
##ces
##chen
##cking
##dam
##data
##daya
##djo
##duce
##dus
##ech
##elli
##endi
##ensis
##ented
##ents
##ep
##ern
##event
##express
##fast
##ffe
##fine
##for
##gawa
##grass
##gui
##harto
##hee
##hm
##hn
##hot
##iable
##ianto
##ias
##ib
##iman
##inlaw
##itis
##ivation
##jong
##kang
##kers
##kl
##kry
##kusumo
##lator
##lies
##looking
##lus
##mbong
##mis
##nb
##nese
##ngs
##nn
##nor
##nsyah
##nur
##ography
##oked
##ological
##oon
##ores
##oted
##owo
##pal
##pid
##plication
##post
##rds
##rianto
##right
##rily
##rita
##rton
##sau
##side
##sp
##suk
##tening
##therapy
##tian
##try
##tsu
##uang
##uds
##uji
##uman
##uring
##vb
##verted
##via
##voking
##worth
##yadi
##zu
131
146
157
159
166
186
1950s
1x24
201415
202001
2024
205
2112
23yearold
265
3310
335
3inch
411
421
48th
499
520
540
599
5d
60s
6s
815
abah
abdillah
abnur
aidil
alfan
ashanty
astuti
atiqah
audy
awanda
awantunai
ayyubi
barus
benatia
beneamata
bhineka
bungur
cahyadi
ceferin
ceper
chromebooks
ciawi
cimanggis
ciracas
coachs
condro
coutinhos
deisti
deriyan
dianti
djalil
dortmunds
e3
editorinchief
efek
eliandry
entrylevel
eyeshadow
fassone
fayakhun
ferdiansyah
fishermens
fullview
g701vik
gabigol
galih
garudas
gboard
georginio
gohajj
gonalons
gpn
grapari
guardiolas
haikal
hengky
highquality
hijriah
ibrahimovics
idmarco
indragiri
iruna
jelangkung
jembrana
jessicas
jph
kemenkumham
keraf
krisdayanti
ktpe
laras
latief
liams
lichtsteiner
lulic
m6
machmudin
mahyudin
maliq
masita
midplaza
midtrans
mjek
muchlis
munirs
nabire
nanang
niguez
novotna
oneonone
pakualaman
panpel
patrio
pegadaian
pegipegi
pejagan
pesbukers
pijar
pledoi
podjok
pupuk
rajamobil
ratulangi
retweeted
riky
riyandi
romli
salahs
santosos
saptogiri
sebesi
semuel
sevva
sheza
shitta
soerjadi
stockshot
subdepartment
sugianto
sugihardjo
suhadi
sukri
suntana
supriyanto
syarifuddin
telkomsels
tinkerlust
tubagus
typec
u17
undip
velove
vuhl
wengers
wibisono
wifes
wiljan
x20
xedeka
yansyah
yuyuk
zaenal
zizou
##016
##14
##ached
##ado
##after
##avia
##bl
##cated
##cies
##cle
##connected
##cur
##dadi
##dani
##degree
##dium
##dul
##eal
##eer
##ees
##ette
##eye
##fat
##feed
##fied
##fiq
##founded
##game
##gc
##ggung
##gram
##hab
##hard
##hic
##hie
##iang
##iel
##ige
##iku
##inating
##inda
##ines
##inski
##itas
##ius
##iza
##jari
##ject
##jen
##kon
##ksa
##kum
##lav
##lave
##lda
##length
##llen
##llow
##lul
##mati
##mk
##mmer
##mous
##mouth
##mpo
##mun
##nam
##nding
##ndro
##new
##night
##ningsih
##nna
##nts
##nus
##ogo
##oke
##ologist
##ond
##ont
##operative
##oud
##oue
##pas
##person
##phone
##powered
##pple
##pto
##ques
##raft
##range
##rated
##rc
##rch
##renaline
##rest
##riansyah
##rick
##rip
##rite
##riyanto
##rri
##rsa
##rul
##rung
##sar
##sawa
##sive
##smo
##sque
##sr
##sted
##tang
##tc
##tier
##tile
##tung
##uin
##ulang
##ulated
##uss
##varian
##vating
##vation
##virus
##vision
##wal
##wanto
##wat
##ways
##wer
##wich
##wis
##world
##yuki
##zan
##zes
##zzo
1321
1516
1953
1959
1972
20142015
20182023
202
209
2111
215
219
224
27yearold
318
32gb
3gb
511
5s
625
720p
abdee
acai
adnani
adriatma
afinta
alisson
anggraeni
angin
antaranews
arki
arnautovic
aryono
b2p
bangsring
banser
bartje
batakan
biang
bkkbn
brajamusti
buaran
calciomercato
chicharito
churros
cikupa
ciputat
d7
dedy
defrel
desmosedici
dhika
dhita
djalal
duithape
dusdusan
emtek
enembe
entikong
fabianski
fredly
freeports
galacticos
geevv
gendeng
gfny
gfriend
gisel
gocar
gofood
h1
hamishs
ilaga
indocomtech
infradigital
internasional
ipong
irwandi
jkt48
johanes
kaliwono
kanjuruhan
karnos
kerok
kertajati
kopkarpel
kukars
lastpass
lawang
lawble
lkbn
longrange
lumajang
mangku
marasabessy
mikta
mukri
mursalim
muslimahcenter
nawacita
nazarudin
niujie
nontax
nurcahyono
obike
ogled
okta
oneglove
optix
orami
ossetra
padjadjaran
pajajaran
palmerah
permendikbud
pical
plns
pnbp
ponaryo
pradika
priharsa
prsi
qled
r80
rachmad
raisi
rajekshah
rashfords
replicade
rosyita
rudiger
safitri
sahrul
salawaku
sampurno
sandiagas
sastrowardoyo
selecao
siagian
simplidots
soninlaw
spiciness
sragen
suahasil
sutisna
suwandi
tanggamus
tebas
telasih
telin3
thukul
tiote
truecaller
uii
unbanked
urbaningrum
usaha
wafid
wanewar
wearables
yamahas
yunita
yutuk
zaadit
zieler
##2011
##25
##45
##700
##71
##aca
##ag
##ail
##ajaya
##aly
##ame
##ards
##arna
##bled
##blog
##bon
##bone
##bridge
##bud
##color
##cting
##dh
##dic
##dimensional
##djono
##dly
##dou
##duk
##dya
##ease
##ected
##eno
##erated
##erg
##esh
##etic
##eur
##fic
##fing
##fly
##frame
##fron
##gg
##girl
##gling
##goers
##gul
##gun
##heim
##iator
##ichi
##ikin
##ination
##ios
##isms
##ison
##iss
##iterates
##ivate
##jakarta
##jid
##kah
##kai
##kat
##kita
##klik
##kr
##lation
##lera
##lese
##lier
##lini
##lized
##ln
##load
##lop
##lou
##lungan
##mbing
##mble
##money
##mony
##ndya
##ngga
##nial
##nka
##oda
##ols
##osa
##ots
##ough
##ox
##pak
##path
##pit
##plicated
##pol
##pong
##pop
##pot
##pro
##ption
##pura
##rain
##rani
##rata
##rek
##rets
##riminate
##rinkled
##roh
##rrey
##rso
##rudin
##sco
##some
##sor
##spel
##stro
##sync
##tano
##tcher
##tein
##tek
##tf
##tia
##tical
##tik
##tinho
##troke
##uary
##ub
##udy
##ues
##uff
##uge
##uild
##uio
##ulence
##uts
##venant
##vert
##vio
##wani
##wide
##wig
##winata
##yanti
##yatt
##yin
##young
##zawa
##zynski
##zzled
151
161
1618
163
168
1718
17yearold
1955
196
197
198
1inch
2026
213
2160
226
284
290
295
311
325
328p8
329
355
420
440
553
570
812
910
a5
a7r
abepura
abun
ajie
allkpop
alquran
anggrek
anindito
antiinflammatory
aryani
aurelie
ayatayat
bagir
balis
bandarlampung
baskoro
bedog
belaid
bnpt
bowo
bpkp
bpks
bppt
btpn
bulus
cagubcawagub
cecep
chatzbro
ciabatti
cilangkap
clova
dalligna
damore
danadidik
darma
datally
depps
dhanis
dika
dinata
districtscities
eky
emiral
emrans
engadgets
esim
ewallet
exhusband
exiner
filosofi
flipboard
flondr
fp2
fuadi
fullhd
gayus
gmpg
got7
gunungkidul
haedar
harjono
hasanudin
heungmin
hoeness
hollywoodlife
honeydukes
hyukoh
indomaret
ingub
inkyun
investama
izzah
jarot
jasamarga
jepin
jne
jtr
julo
kaca
katty
ketupat
klb
koinworks
kostrad
labbaik
langsa
larasati
legimin
lenovos
lidwina
lintas
lopicic
lorenzos
lubang
mahadewi
mahaka
makarim
mandagi
manortor
marclei
markles
maryono
maryoto
mashita
matchmove
mbakmu
mcraven
medicaboo
mekar
ministrys
muaro
muslimmajority
nadipos
napolis
narindo
nasrul
noken
nyia
origi
p21
pandawa
panggabean
pariaman
pejaten
pendi
perda
pernat
perpaduan
perrys
pluit
pomdam
ppsu
privatq
priyambada
ptba
purbalingga
qatars
raharja
randol
rawajati
razman
rifky
rollsroyce
samin
satwiksairaj
savik
schneiderlin
selfdriving
sinarmas
sirigu
smpn
soekarwo
solusi
sonos
sorongan
spkt
sprindik
sritex
sucofindo
suhermanto
sukadana
sukamta
sulistina
taider
takoyaki
tanuri
tasya
tilke
tirtayasa
tobing
totok
twitters
ubergizmo
ubers
ukirama
umanailo
unzue
vertonghen
watuputih
weleri
whulandary
wonosobo
yati
yusmada
yustinus
zainut
zumiapp
##200
##2006
##2019
##2020
##320
##abu
##adan
##adari
##ague
##aha
##aid
##aire
##aj
##aja
##alam
##antas
##ante
##arti
##ash
##ators
##bai
##baran
##bek
##bench
##berries
##beth
##bot
##boys
##cana
##cang
##ccino
##ced
##cn
##dara
##dian
##dik
##djarot
##dle
##drive
##duced
##ductive
##eased
##edly
##eed
##efficient
##ein
##esia
##eth
##fies
##fining
##fire
##fold
##formation
##fps
##fran
##gel
##genic
##group
##hara
##hering
##hima
##hir
##hol
##ht
##iawan
##icable
##icle
##idin
##ifying
##illah
##ima
##ime
##ingly
##ional
##ister
##itol
##ivating
##iz
##jaja
##jatmiko
##jon
##jul
##keeper
##ket
##kha
##khlash
##kill
##kso
##kt
##laki
##lee
##linda
##liness
##lize
##lizing
##lor
##lovak
##lson
##luk
##married
##miri
##mn
##mper
##nen
##ners
##nging
##ntoro
##olet
##ones
##only
##ony
##ord
##osis
##ouse
##ph
##phobia
##planes
##pping
##qah
##rak
##rar
##raving
##resistant
##rial
##rise
##rity
##rja
##ruh
##ruising
##second
##sided
##sit
##sized
##sler
##sn
##stage
##ston
##swati
##tam
##tari
##tized
##tling
##tm
##tore
##toro
##trip
##trong
##tto
##turing
##turn
##tyo
##uated
##uka
##ulis
##ulloh
##unched
##uran
##vid
##vita
##war
##was
##wes
##winning
##works
##wright
##www
##x100
##xide
##xion
##yam
##yl
1200
1221
1440
1800
181
188
192
193
1947
1949
1961
20142019
223
248
2500
279
2in1
3040
305
311999
345
371
4000
410
5a
5mm
711
740
760
909
a11
abus
adjie
aftersales
aljaleel
amazfit
aneka
anmar
apiapi
aruk
atalarik
atang
azulgrana
b3
badaruddin
badau
balaraja
baldheaded
bangli
baswedansandiaga
baturraden
becakayu
bezelless
bihalal
blaspheming
blipblox
bondowoso
boyega
brozovic
caply
cb650f
chargemander
chauri
chiuri
cicurug
cikopo
cipika
circledoo
cucu
danamas
darmansjah
dechapol
demiz
dhini
diandra
dirgahayu
dirgantara
ditreskrimum
djbc
djiugo
dominggus
doomfist
dufan
eguards
electronicktp
elih
elitepos
endang
engelberd
estianty
farright
fatuleu
ftj
gc30
gedong
giphy
gki
glodok
grabhitch
grabshare
gundogan
h5
hadiyanto
handika
handoko
handoyo
haryo
hasbullah
hgb
hotman
hyoyeon
igbonefo
inpex
insta360
inten
irsyad
iwic
jakartasurabaya
jhe
junda
kalanick
kejora
kerobokan
kesehatan
kimbely
kiosons
kirono
klikacc
ksau
kylies
laferrari
lefthanded
leverdez
liestiadi
lithiumion
longsleeved
m3
maninjau
mannschaft
mariyanto
marwata
masagung
maudy
medistra
meiske
mekamon
meregalli
metromini
monacos
muallimin
muslimat
nonaria
nopol
okky
orwl
otospector
oukabir
peparnas
phablet
pizjuan
poppie
portugals
potehi
pppa
prabowos
prajongjai
prakasa
prakoso
preseries
protonmail
puhiri
pundipundi
purishkin
pusarla
rabiot
redkix
ririek
riyanto
roav
ruko
rx10
sahari
sakhir
samsat
sanchezs
sansan
sbmptn
sdw
selian
shinola
sileri
simpar
slavina
socalled
soebroto
soemarmo
soerjopranoto
sofian
soursop
spacemob
starboy
stpp
sudiwardono
sukoharjo
supandi
superzoom
sutiyem
syam
syarifudin
syarkawi
syehan
syuro
tahlilan
tampubolon
tarawih
tarmizi
taufan
temanjalan
terbanggi
thowok
tirto
tl2
tmcpoldametro
tmobile
tokocash
triplogic
triyantoro
tunjung
twogoal
v20
verrell
wakuliner
welly
wideangle
wiganda
yilyu
yinhui
yono
yovie
yulianis
yzr
z2
##01
##017
##1999
##70
##8km
##900
##93
##abytes
##active
##adja
##ahu
##ais
##aling
##alta
##ank
##antika
##ardjo
##atan
##ater
##athi
##atory
##ave
##ayan
##bangan
##bareskrim
##batic
##bor
##buk
##cards
##cash
##cd
##ceive
##chenko
##cit
##cloud
##cong
##ctive
##cultural
##dev
##dges
##dit
##dition
##djar
##dling
##dson
##dynamic
##eb
##edge
##eep
##eis
##ej
##eli
##elis
##eni
##eous
##eries
##esto
##ete
##eum
##eus
##fb
##fected
##fined
##four
##friend
##fus
##gear
##gent
##gienic
##gkat
##got
##grading
##grid
##gros
##haida
##hal
##hale
##health
##hero
##hine
##hold
##hor
##hwa
##iaga
##icic
##iciency
##ided
##ief
##igan
##inate
##indonesian
##ingsih
##insyah
##itan
##ith
##ivo
##jani
##kata
##kkar
##lapse
##lc
##lights
##llia
##lock
##log
##lok
##loss
##lows
##lton
##lux
##mai
##mata
##md
##mine
##mity
##mmy
##mobile
##moto
##mptn
##name
##nara
##nder
##ngal
##ngin
##njar
##nold
##note
##ntara
##nx
##ojo
##oll
##ometer
##ominated
##ongan
##opy
##ouma
##pack
##part
##people
##pic
##pines
##pl
##plicate
##pom
##por
##producing
##qi
##rable
##raga
##rane
##rator
##rdus
##reich
##rg
##riawan
##rics
##rinkle
##rly
##roslav
##sah
##salam
##science
##sith
##skov
##sly
##sna
##social
##ssi
##sso
##sters
##story
##stra
##sun
##sya
##syir
##tana
##tant
##tap
##tb
##tel
##tesh
##times
##track
##tration
##tructed
##type
##uli
##unch
##unching
##usa
##usion
##utan
##vable
##vices
##wad
##wangsa
##wari
##white
##wire
##wloon
##wse
##wski
##xis
##yd
##yder
##zia
##zky
##zzle
080
1213
125cc
177
1940
19yearold
2050
206
20s
2400
255
261
2c2p
2d
357
38yearold
406
470
488
530
615
70s
a7
aboubakar
adaro
adii
adinda
adinia
adiwiyata
aeromobil
aksa
amsi
ance
andalas
ansharut
anshor
aremania
arkavidia
arviyan
asmir
atleticos
bantargebang
barcas
basarah
bayerns
bedagai
begiristain
bergun
bigo
bjb
bluprin
blusukan
boediono
bokori
budianto
buerki
buffons
campli
cherrybelle
chuwi
cijeruk
cileunyi
cmwc
corbuzier
cubiio
d1
damanhuri
dandhy
darmawansyah
dealjava
depari
dessentials
dharmais
dibyo
digibank
dimyati
dirlantas
divre
djumala
doucoure
doyok
droom
dumolid
dwijugiasteadi
earcups
ecigarettes
ellyas
erizman
exgirlfriend
fajri
fauziah
fkui
gedog
gembong
gilimanuk
gomezs
grabcar
gringsing
hamsah
helpster
hemas
husnul
ifab
imessage
imuseum
irvanto
isnilon
istarani
jailangkung
jaimerson
jamarr
jamkrindo
japirex
jatipadang
jks
jolies
kahitna
kahiyangs
kasuba
kertajaya
kesuma
kgcapitayear
khairudin
klikadv
klikteknik
knrp
kumalawati
lalamove
lembong
lhokseumawe
loudi
lowcost
lukakus
marcandre
mayapada
menpar
midnovember
miui
mmbtu
mogot
mulyo
mytra
nadiani
ndeso
nikitas
ojek
oneway
opor
opta
overclock
padangs
pahawang
pandowo
pangdam
pangrango
panti
papu
patrich
pemulutan
peradi
perbasi
perserus
persibo
petarumah
pinisi
pisangan
pixelbook
plantbased
pochettinos
pogbas
powerbank
prawiro
radhini
redouane
reko
riefan
rifan
riung
rivky
rizaldi
rosan
rylo
sabhara
saepuloh
safri
saponara
satreskrim
satrio
sbsn
seruyan
sh150i
shawwal
sidempuan
sidik
simorangkir
singaraja
sirra
skarsgard
snacking
sokoliman
soton
squline
sriti
straightener
strakosha
subdept
sudding
sudirta
sufmi
sukmara
sulistyowati
suryani
suwondo
swifties
syahrian
syamsudin
tabuhan
tahitoe
tamsil
tanuwijaya
tauhid
theverge
thuraya
tikus
tnis
tohpati
tompi
tourisms
toyotaastra
trippier
triprockets
ukhuwah
ulivieri
underarms
unkrich
us2
usbn
utikini
vestifarm
wajo
widjojanto
xiaomis
y1
yesung
##2021
##39
##47
##50u
##66
##97
##ables
##acy
##ady
##afe
##ages
##aldo
##ality
##alo
##amin
##aram
##aria
##arya
##asta
##ations
##aus
##az
##bak
##bangsa
##baya
##bella
##berry
##bet
##bili
##bir
##bis
##boat
##borne
##bra
##bt
##bution
##ceived
##chanted
##charging
##ckle
##community
##cross
##ctose
##dall
##date
##ddle
##dem
##dion
##dled
##dol
##donesia
##dp
##dr
##due
##eating
##eir
##eja
##eki
##ely
##enic
##esi
##essy
##etti
##ewald
##examination
##eys
##farma
##ference
##ffles
##filling
##flagged
##folk
##gana
##gated
##generation
##gia
##gie
##gkong
##gm
##gment
##gna
##grams
##gsa
##hani
##haring
##headed
##hel
##held
##hen
##heng
##hil
##hio
##hman
##hq
##hukam
##hun
##hye
##ijah
##ike
##inson
##int
##inz
##iologist
##ipped
##istan
##iv
##jad
##jadi
##jak
##jawa
##jiang
##jing
##kart
##keepers
##kho
##kir
##kom
##korn
##kota
##ksi
##kta
##kun
##kus
##lak
##laka
##lal
##lare
##laws
##ldo
##lers
##lga
##lines
##liq
##lit
##liter
##lman
##lmar
##lona
##lot
##lted
##mana
##mation
##mers
##met
##military
##mill
##ml
##moko
##moro
##mpy
##mrungphan
##mura
##murti
##nded
##nds
##ndy
##negoro
##nel
##nez
##nica
##nico
##nsive
##num
##odian
##onal
##opi
##orejo
##otic
##ovich
##ovski
##ows
##pdt
##plan
##pmjdit
##pos
##pose
##ppy
##pts
##rably
##rail
##rdianto
##redit
##rem
##reni
##ribed
##rido
##rino
##rist
##rix
##rizing
##rl
##rno
##roduce
##roe
##rove
##rro
##ryl
##sat
##say
##season
##sek
##shaped
##shion
##sidi
##size
##sno
##stuti
##tail
##tand
##tape
##tara
##tella
##tengah
##term
##than
##tika
##tland
##tman
##tos
##tric
##trike
##tured
##tyanto
##uare
##uay
##ubo
##udes
##uel
##uga
##uke
##uki
##ulu
##ump
##unt
##urable
##ural
##urich
##uth
##uti
##utra
##vage
##vated
##vator
##vest
##vez
##vish
##wai
##wder
##whr
##wick
##wid
##will
##writing
##xia
##yatno
##yer
##yoso
##ype
##yra
##yur
##zai
##zzi
015d
1217
1280
1a
20122017
201314
20132014
2028
203
204
2100
2110
214
218
221
2321
2324
242
253
262
266
272
289km
2i
303
306
30yearold
316
341
367
394
395
399
3dmark
427
460
46th
505
522
525
603
648
64gb
699
745
780
821
848
870
8gb
932
940
adakopi
adiong
adzana
agussylvi
agustiar
aibased
aleesya
alimin
allblack
amitrapai
andrianto
andriati
anggraini
antardayu
aranguiz
ariska
arrizabalaga
asfinawati
asiapacific
asias
avenue8
ayudia
babelan
badmintonindonesia
bahaso
bahtiar
bajindul
bakhchisaray
banyuasin
basofi
basro
basulfi
behati
behindthescenes
belawan
beswan
bhayangkaras
bighit
binus
blasphemed
bnp2tki
bojong
bopak
brazils
brugada
brylian
calisson
cancelo
canggal
castano
cek
celengan
cordaz
dewanti
dharmawijaya
doddy
dpff
dwikorita
ecofriendly
ekky
electronicid
elgort
epicentrum
europes
evga
evos
exclusor
factfinding
fadia
febryanto
fildan
firminos
footbeat
formichetti
frailis
g5
gc20
geas
gerwis
gilkor
gorry
governorelect
granziol
griya
gt75vr
h202
hasoloan
hendriko
herbilogy
himawan
hulkenberg
hutagalung
hutama
hyperx
imanuel
indrayana
intels
inters
jacobshagen
jakartabandung
jamboard
jerikho
jpo
jungkook
juwaini
kaimin
kamtibmas
kartuku
karyono
kasepuhan
khairiansyah
khalisah
khoir
kilangin
kinantan
kititharakul
kopitani
kridosono
kroya
ksop
kulari
kwitang
lapan
lembeh
lety
liveaction
lyndi
malahayati
mapan
margonda
mariando
marshmello
mawardi
megacorp
mh320
microusb
middecember
mimin
mnangagwa
moenchengladbach
movidius
myfirst
nasyid
ndra
ningsih
nirina
niru
novan
nunukan
nxl
nyepi
omongos
oneyear
onky
ozils
paglak
paji
pampering
partey
paulle
payakumbuh
pdaf
pecel
pelapak
pelatnas
pematangsiantar
perfectionists
persewangi
persipuras
perumnas
pgri
picu
pitana
polsek
poncharal
popmama
prewedding
prijono
primadi
priyo
proahok
prosehat
pulev
pulga
puspita
putranto
rachmawati
ragil
rahmatan
rahmawati
ramblas
ranocchia
rapi
raqa
refrizal
rendi
reney
reskrimsus
rinca
riodingin
roadshows
roborock
rohim
rsas
rugani
rully
rumadi
rushdy
rusydina
ruzhanul
rycko
saffie
salahudin
saliman
sardono
sarinah
savic
schurrle
seedstars
segiri
selfdefense
senamuang
sepuluh
seskoal
shampooing
shariabased
shihabs
shortterm
simfes
sitepu
sjafris
smartthings
snapchats
snoke
spallettis
squawka
suarezs
subo
sugihartos
sukmanto
summarecon
suneni
supriyono
suroto
suryawirawan
syahrial
synergo
syrias
taklim
tannos
taofik
taspen
tchalla
tempoyak
tgpf
thilafushi
tikad
timses
titanfall
tjahjadi
tolitoli
tomang
triadi
trisakti
tumiwa
tuttosport
ubereats
uberx
vinolas
vivobook
w1700
warmbier
webbased
weinsteins
widya
wildansyah
wiratmaja
wirjoatmodjo
wulan
x4
yesdok
yodi
yogya
yosep
yurie
yusup
zaskia
zilingo
##0rr
##150
##2005
##27
##2c
##31
##360
##43
##53
##62
##800
##aar
##afa
##aking
##aming
##ananda
##anca
##anu
##apa
##ardly
##artha
##aruf
##ature
##aye
##beli
##belli
##bers
##bine
##bk
##block
##bodies
##boss
##buku
##bul
##charged
##chid
##chins
##chy
##cial
##cie
##cite
##cl
##combe
##competitive
##controlled
##ctate
##dale
##darmo
##darsa
##dd
##dera
##dered
##detabek
##deth
##dianto
##dict
##dine
##dl
##dur
##dv
##east
##ecal
##eda
##eded
##eid
##eiro
##eke
##elda
##eling
##ema
##eny
##erman
##este
##etan
##eter
##ever
##fah
##fak
##fax
##fed
##ffeinated
##fid
##fill
##flow
##fr
##ganza
##gd
##get
##gic
##git
##going
##gora
##graded
##graph
##grapher
##ground
##gua
##half
##handed
##hc
##hia
##hiang
##hill
##his
##hl
##hmid
##holes
##home
##how
##hyl
##iary
##iche
##icile
##ido
##iew
##ifa
##ifah
##iko
##iles
##imeter
##irming
##irs
##ising
##islamic
##iths
##iting
##itude
##jab
##jic
##kasih
##kg
##khan
##kim
##kol
##kostrad
##kra
##lague
##lani
##lary
##lash
##lasting
##lated
##layer
##lch
##lds
##lean
##leash
##leed
##lem
##lfa
##liang
##llar
##lles
##lling
##lm
##loh
##love
##lter
##lulu
##marin
##markt
##max
##may
##mbar
##mbi
##mbo
##mel
##mining
##mium
##mma
##mobil
##mped
##mpt
##mulyo
##nagh
##narto
##nay
##ncar
##ndar
##nell
##nest
##nic
##nir
##nism
##nstein
##ntial
##numbered
##nzo
##oba
##ocratic
##of
##oku
##olar
##oning
##ook
##oor
##otes
##ouw
##owed
##owski
##pace
##passenger
##peas
##pelled
##pidum
##piece
##piring
##plant
##porate
##poro
##pra
##qien
##quat
##quin
##rained
##rave
##raze
##rb
##rdy
##read
##realistic
##religious
##rez
##riano
##rica
##rim
##ript
##rito
##riyono
##rli
##rode
##rology
##roto
##rvices
##seller
##seno
##services
##shima
##sik
##sim
##sity
##smin
##solo
##stained
##swara
##tairs
##take
##tamal
##taman
##tent
##tention
##tet
##tial
##tions
##tives
##tje
##tk
##tolic
##tour
##trans
##trap
##ttering
##tures
##uating
##ulo
##ulos
##ulung
##umi
##unds
##urs
##uting
##vera
##viana
##vie
##vp
##wak
##walk
##wandi
##watch
##wd
##woro
##xi
##xx
##yla
##zano
##zen
##zon
##zyme
##zzini
007
1617
18yearold
1923
1931
1934
1960
20192024
21yearold
2300
231
267
2700u
273
2830
286
2mp
307
31yearold
323
337
351
359
380
435
448
491
4s
514
567
568
571
575
620
714
741
746
7inch
7x
896
920
adart
adhiguna
afie
afni
agustino
aichat
akseleran
akz
alfamidi
alinka
alipay
allinone
alsaud
ambaree
andayani
androidbased
androidpolice
anggara
antasaris
anwari
appi
aprindo
arbain
ardy
ariyo
arsy
arsyadjuliandi
arthaputra
articleic
asdp
asianafrican
asih
asrorun
asrul
asyari
b12
babeh
bakwan
baladacintarizieq
bappeda
barabai
basir
basukibtp
batamnews
baturaja
bawen
bekup
bhabinkamtibmas
biboy
bidara
bijb
bivak
blackgarlic
bleketepe
bloxels
bonjol
bookmyshow
boxingscene
bramantyo
brata
breus
budis
butarbutar
buwono
c2live
cakra
cashcow
catalonias
cekmata
chefchaouen
chrisyes
chuseok
chuxing
cilodong
ciparay
coldplays
colomadu
crowdsale
d3
dambrosio
dargavs
dault
derawan
desiigner
diabulimia
dnce
dolken
dudung
dwiarso
earbuds
eboue
edtech
elneny
elyas
emerys
enny
enriques
eodb
erdoan
euis
fakdawer
farly
fatikh
fealac
fivestar
fleetsight
freekick
galungan
gatots
gddr5
germanys
gkr
gnabry
goauto
gotor
gp17
grabbike
hadis
halalbihalal
halimah
hambali
handayani
hangeng
hardinsyah
hartati
herlambang
hero6
highestpaid
highlevel
husin
ideosource
industrys
infinix
inkracht
inmobi
interinstitutional
ipdn
iprospect
irans
ixpand
jaelani
jakmicro
jamaludin
japans
jese
jimin
jitf
jooyeon
joshuas
kalidou
kaligawe
kamils
kasentra
kasino
kawalu
kemristekdikti
kevins
keyone
kibar
knkt
koarmabar
kolahdouzhagh
koopsau
koutaro
kuappas
kupi
kusnadi
labuhanbatu
lapadula
lapangan
lapian
lenteng
lilipalys
lilywhites
lman
lues
lukito
lurik
maam
maftuh
malih
mangera
mangga
mapolsek
marsda
martua
maruli
matakus
mayestik
medah
megawatis
meleds
menkumham
mid2017
midaugust
midseptember
migme
misbahul
mitec
monstertalk
montmelo
mukartono
mukhamad
mustika
nagelsmann
nainggolans
nasas
navdy
newsfeeding
nextev
nonmuslim
nopember
nufiandani
nuraidah
nusadua
nusaibah
nyctophobia
nyono
o2o
obaldus
olele
omnichannel
onew
oorth
orah
p9
pamelingan
pandeglang
pangerapan
pangkaryanira
parangtritis
patenggang
pauh
pedurungan
pelti
pendopo
pentawere
pergub
persibat
perwira
pibo
picktorial
pinera
pliskova
pltmg
porg
ppih
prayitno
preclosing
prettys
proclaimer
propertindo
psdkp
purwanto
purwantoro
quavo
rakhmat
razers
readytoeat
resmob
resya
rettke
revi
rickos
rivan
rivelino
rusunami
s1
safenet
saifudin
santika
sarbini
selerek
selfconfidence
semipermanent
seribu
setio
sevillas
sgmw
shopees
sianturi
sienta
silek
simalungun
smkn
sodik
sondakh
sprus
st100
stormzy
subarna
suding
sukaesih
sukmoro
sulistyawati
suliyono
sumenep
sunoto
surau
suryana
suryata
syamsu
syaugi
synaptics
t2
tabalong
tafisa
tapos
tatcha
tavecchio
tawaf
taxpay
teladan
terrys
thanabalan
threematch
tiley
tix
tmrw
tonggak
trawangan
trunojoyo
unbk
unpad
urbanhire
usled
uwais
uya
v9
valuklik
vanding
vandoorne
wajdi
wardoyo
wareable
weddingku
whitefox
wijatmoko
wiliardi
wirasti
wiwiet
x360
xdana
y720
y920
yayat
yeezy
yunardi
zaenuri
##08
##0bhp
##1998
##20hk
##21
##32
##41
##99
##academic
##aged
##aida
##aled
##alization
##amah
##aman
##ambua
##amo
##amp
##ams
##anan
##ances
##ander
##aning
##anist
##antar
##aobo
##arium
##arized
##ark
##arse
##arta
##atic
##awn
##bag
##bags
##banking
##bating
##bauer
##bay
##beat
##bec
##bell
##beria
##berly
##bey
##bike
##bjo
##boh
##bp
##bran
##brighton
##bto
##bula
##cade
##cake
##calorie
##catching
##ceng
##chery
##chett
##china
##chman
##church
##cik
##cima
##cional
##coding
##commissioned
##connect
##cques
##daily
##dama
##dao
##darta
##daughter
##dela
##deputy
##dhy
##diansyah
##died
##dien
##diment
##diversity
##drop
##duli
##dyo
##dzic
##easy
##eat
##ective
##ecuting
##eee
##eg
##egoro
##ehan
##eiras
##ekdikti
##elen
##emia
##enched
##endar
##ental
##ere
##erness
##erra
##esna
##esses
##eta
##ety
##eve
##fab
##faced
##ffar
##fficial
##ffs
##fiandi
##fil
##fired
##flux
##foreseen
##formance
##fried
##fts
##fuddin
##gala
##galo
##gau
##gether
##ggles
##ghi
##girls
##glass
##glow
##grance
##gregation
##gung
##halla
##hama
##hanto
##hardt
##has
##hasa
##haus
##hazi
##heed
##heimer
##hijjah
##hins
##hirah
##hk
##hos
##hou
##hp
##hr
##iansyah
##ibi
##ibly
##ico
##ideksus
##ider
##ign
##ikutdemo
##ilang
##iled
##ilio
##ily
##imactic
##imate
##iment
##iments
##ington
##inspired
##ipa
##ipong
##isco
##isha
##issa
##itar
##itor
##iving
##iyanto
##izi
##jana
##janto
##jil
##jiun
##jjar
##kk
##kmin
##kri
##kro
##lad
##lamet
##lana
##latoon
##lators
##lawat
##laya
##leda
##leen
##leng
##lette
##lham
##lient
##lillahi
##lins
##lip
##llas
##ller
##loid
##lone
##lose
##lur
##lving
##lytic
##maat
##maids
##maki
##mall
##mator
##mban
##media
##merak
##merson
##mie
##mil
##millimeters
##mme
##motion
##mping
##mum
##muna
##nando
##nci
##ngton
##nian
##nno
##nox
##np
##nr
##nse
##ntly
##o2
##october
##ode
##oed
##oes
##ogiri
##ographical
##ogue
##olin
##ollah
##olution
##omatic
##ombo
##ongkorn
##opo
##order
##osphere
##ota
##ouri
##outs
##own
##pane
##pangga
##panrb
##pation
##pay
##performing
##phan
##philia
##pie
##pil
##pile
##pir
##pita
##placed
##plane
##plate
##plus
##ply
##ported
##ppe
##ppi
##preneur
##ptic
##pting
##ptions
##pulse
##putih
##quez
##quins
##rapan
##raton
##rda
##rde
##reksa
##rel
##reng
##rent
##reted
##ride
##rika
##rimes
##rington
##rious
##risk
##rius
##rjanto
##roduced
##rolled
##rons
##rth
##ruan
##runch
##rwo
##santi
##scale
##shal
##sic
##sions
##sir
##siyah
##slan
##smita
##sol
##sold
##song
##speed
##spot
##sse
##stas
##stha
##stia
##stien
##sting
##storm
##sty
##sukabumi
##suri
##tage
##talent
##tamine
##tat
##tate
##tched
##tery
##thon
##til
##tined
##tip
##titutes
##tl
##tno
##tobe
##tree
##trict
##trom
##ttes
##tting
##tton
##tty
##tuary
##tum
##tut
##uant
##uer
##uf
##uffle
##ugh
##ulli
##ulus
##umba
##ume
##une
##unis
##unts
##uong
##upa
##urity
##usia
##uted
##utt
##uu
##uza
##vac
##vel
##vered
##vernment
##veted
##vhumas
##vice
##vised
##von
##vs
##vski
##vu
##web
##wheel
##wks
##word
##x2
##xen
##yadin
##yal
##yama
##yarto
##yen
##yong
##yre
##zahra
##zam
##zira
##zola
##zs
0621
1115
1438h
14yearold
1530
17inch
182
187
1922
194
1956
22017
2325
239
244
250cc
252
258
264
293
296
2b
302002
304
309
321
326
332
336
348
358
363
385
390
40yearold
417
428
432
433
43rd
442
445
446
465
466
472
475
47yearold
4x4
50s
510
519
533
546
554
590
595
613
640
728
802
825
831
899
917
935
948
970
990
995
abhan
abirama
abrijani
aciah
adityaswara
advrty
aeoi
aidy
akhyar
aldwin
allout
almaidah
amelza
amvesindo
anambas
anggoro
arini
arisan
ariyadi
artalyta
arynto
askolani
assegaf
asshiddiqie
atheris
atnic
attaka
autoliv
b2
bacary
balekambang
balladacintarizieq
balongan
bathara
batubara
batusangkar
bayangkara
becak
belencoso
bko
bobbys
bprd
brandao
brankas
budiarso
butarque
calvijn
camfi
cavallara
chandrabaga
cherchesov
chinsekikan
cikondang
ciloto
cipulir
cisarua
citata
cloudmax
cocacola
d4
danamon
danjen
danrem
daryanto
dasco
daulay
desvitasari
diasma
dimpleplasty
djajang
djamad
dkpp
dlloyd
dlta
dmss
dompet
dorodjatun
dragnea
drudi
dygma
edutech
espnfc
eunjin
exabytes
fachrori
fahmis
fanani
fany
ferdinandus
fhd
fitria
fouz
fransiscus
fulus
gadung
gagas
galactico
gamping
gandus
gebang
gehem
gempol
gendalo
gestifute
gischa
glutenfree
gogobli
graphia
gumay
h3
haixia
halfbrother
haramain
hartoyo
hatf
haydens
headmounted
herba
herkis
hikmah
hivaids
hostagetaking
hs50
htis
huami
huaweis
hutabarat
hypercar
ibran
iheanacho
ilkay
inalum
incs
indralaya
ip68
ipdc
isim
isnaini
isnawati
israelipalestinian
istiqamah
itranslate
iyek
jabodebek
jagoan
jailani
jarkasih
jatinangor
jayz
jenahara
jjf
jobstreet
jonguns
jovetic
jpos
kabasele
kalisat
kapal
kardon
karlov
karolin
kartas
kartin1
kasman
kayong
kedoya
kedungkandang
kembang
kemenkominfo
kemuning
khofifahs
kintamani
kipuw
kitrans
kkhi
klhs
klikfix
klipsch
kombespol
konasara
kreasi
kresno
kusir
kutoarjo
larantuka
lcgc
ldnu
leeco
linggau
lisya
longawaited
longdistance
loudry
lovina
lowlight
lq45
lunggana
lyodra
mahmudin
mainaky
majdi
mandiris
manewar
mangkualam
marcuskevin
margono
marlinda
marora
marwanto
maryanto
marzuqi
maslakil
mastel
mattalitti
meisya
melodya
merauje
mercu
metoo
mexindo
mid2016
mijatovic
milinkovic
minimarket
ministriesinstitutions
mirasih
moccas
monchi
mongondow
montellas
montoon
mubarok
mufidah
mukomuko
munhar
munzir
musadeq
mutmainah
mvoice
nakasuga
nes30
nikahsirri
nirwan
notohadinegoro
npwp
numpad
nuradi
nyqvist
octavianto
odgj
oknotok
ondoa
otrip
ourmine
padaherang
padakova
pademangan
pandaan
panduwinata
pansel
paracho
parkorman
paseban
pendem
perbanas
percasi
perezs
persih
persika
pertiwi
perusahaan
pesisir
petamburan
petapixel
pharell
pillowtalk
playgame
pletok
podcase
pohan
popcon
prematch
preval
pulogebang
purbaleunyi
r10
racings
rahardian
ramadhani
ramapanicker
rapim
ratnasari
recode
regopantes
repdem
revolcam
riawan
richarlison
ridesharing
roastery
roeslani
rofiq
rohadi
roki
romlah
rovo
rupiahs
rusady
saintetienne
salid
saphira
sasono
satlantas
sawangan
sayur
sebelas
segara
[...]
