[PAD]
[UNK]
[START]
[END]
!
,
.
?
a
b
c
d
e
f
g
h
i
j
k
l
m
n
o
p
q
r
s
t
u
v
w
x
y
z
yang
di
dan
dengan
ini
untuk
itu
dari
pada
dalam
akan
ke
juga
tidak
indonesia
tersebut
bisa
menjadi
tahun
ada
mereka
jakarta
saat
sudah
saya
sebagai
lebih
oleh
karena
adalah
satu
tak
kata
kami
dia
ia
atau
namun
telah
setelah
baru
masih
seperti
dua
lalu
bahwa
hanya
kepada
orang
mengatakan
secara
pemain
hingga
banyak
hari
tim
para
harus
hal
melakukan
beberapa
membuat
salah
pun
dapat
merupakan
belum
bagi
memiliki
atas
pertama
kedua
kembali
waktu
film
negara
jadi
lain
saja
besar
dunia
tapi
kita
dilakukan
gol
selama
musim
sama
sementara
kali
sebuah
jika
rumah
tiga
cnn
rp
presiden
sangat
sebelumnya
selain
bersama
juta
kota
laga
lagi
the
sejak
melalui
menurut
pemerintah
baik
sendiri
menit
memberikan
startup
mulai
serta
ingin
ketika
liga
masyarakat
teknologi
depan
tengah
sejumlah
semua
terjadi
ujar
kemudian
kasus
terhadap
memang
sekitar
kalau
agar
langsung
kpk
kini
sampai
bukan
hasil
terkait
persen
anda
antara
tetap
pernah
anak
lainnya
ketua
pertandingan
seorang
sehingga
berhasil
pihak
warga
asal
jalan
meski
perusahaan
bulan
terus
berada
mampu
menggunakan
bahkan
berita
sebelum
mengaku
sempat
empat
bakal
partai
com
mendapatkan
luar
minggu
tentang
kepala
kemenangan
united
posisi
cukup
diri
bermain
poin
sedang
amerika
lagu
masuk
selatan
as
sang
juara
daerah
media
menteri
pengguna
terakhir
punya
babak
nama
bola
acara
malam
awal
seluruh
akhir
lewat
hukum
jawa
resmi
yakni
bagian
proses
inovasi
kamu
laporan
klub
apa
termasuk
negeri
pekan
anggota
id
soal
akhirnya
kerja
uang
inggris
berbagai
polisi
air
tempat
mantan
paling
pelatih
umum
tampil
madrid
katanya
lima
dki
nasional
mendapat
pt
setiap
jumat
korban
rabu
kamis
tanpa
mengikuti
menyatakan
sebesar
senin
utama
melihat
layanan
masa
terbaru
gubernur
jumlah
dirinya
korupsi
sabtu
lama
barat
mengalami
meminta
ribu
nomor
tinggi
wib
harga
kementerian
mencapai
mobil
menyebut
tersangka
wakil
demikian
selasa
begitu
serikat
of
timur
video
piala
informasi
tetapi
menerima
dpr
kawasan
perlu
pusat
aplikasi
datang
nanti
mungkin
suara
mendatang
proyek
program
skor
kondisi
aksi
pelaku
pasar
sedangkan
produk
miliar
usai
semakin
sebanyak
masalah
maka
sistem
keluarga
mau
membawa
sosial
sumber
pukul
bekerja
yaitu
terbaik
membantu
tahu
sekarang
berlangsung
stadion
timnas
jokowi
khusus
meraih
selalu
berusia
maupun
jam
manchester
bandung
melawan
wilayah
musik
ketiga
cara
fitur
ya
berharap
digelar
serangan
diketahui
berbeda
berdasarkan
album
mengenai
surat
data
disebut
pasangan
kabupaten
utara
dana
sukses
muda
pembangunan
final
sesuai
dikutip
badan
segera
akun
keputusan
menjalani
gawang
ujarnya
penting
sekaligus
siap
lokasi
per
pria
merasa
bawah
foto
biasa
memastikan
lanjut
menghadapi
mengungkapkan
makanan
internasional
mana
komunitas
calon
terlihat
direktur
mencetak
memilih
sisi
real
digunakan
korea
menjelaskan
cepat
jauh
city
rasa
sakit
ahok
perangkat
milik
enam
asia
angka
pasal
kemarin
kantor
spanyol
kesehatan
sepanjang
tentu
perempuan
ikut
jelas
bernama
tanah
diduga
dugaan
kepolisian
kesempatan
industri
hadir
kegiatan
menarik
meningkatkan
pihaknya
riset
bisnis
akibat
bali
grup
dulu
us
malaysia
trump
tni
bagus
total
rencana
jenderal
mendukung
sana
adanya
pernyataan
mudah
ibu
gelar
keduanya
barcelona
persib
menang
dekat
menunjukkan
keterangan
bidang
china
juventus
peluang
jaya
merdeka
metro
berjalan
gedung
sekali
keras
memberi
mata
kabar
permainan
tangan
dilansir
hidup
polda
seputar
ajang
keuangan
kendaraan
upaya
chelsea
fc
pertemuan
komisi
enggak
sebenarnya
menilai
statistik
desa
dianggap
membuka
jepang
bertahan
gagal
polri
google
politik
setempat
kecil
pemeriksaan
konser
game
mengumumkan
merah
italia
hubungan
keamanan
kompetisi
kontrak
memutuskan
tubuh
bagaimana
kan
alasan
terbuka
belakang
kurang
eropa
motor
pasti
rossi
ucap
tuan
gadget
menurutnya
provinsi
barang
langkah
petugas
keluar
lapangan
justru
nya
hakim
bandara
kalah
portal
kelompok
ternyata
pengadilan
wanita
bank
menemukan
terlalu
diberikan
mengunduh
triliun
hampir
member
menambahkan
dukungan
digital
tinggal
lawan
mencari
joko
bintang
klasemen
nilai
muncul
buat
ktp
mencoba
turut
ronaldo
menegaskan
pidana
publik
mengambil
putih
menggelar
peringkat
naik
oktober
apakah
september
fokus
januari
pagi
sekolah
festival
hak
penyidik
ekonomi
bentuk
jenis
sedikit
situs
wisata
widodo
target
jerman
karya
terutama
lembaga
menyampaikan
tujuh
dikabarkan
unggul
kemungkinan
turun
sidang
latihan
golkar
milan
tanggal
saksi
champions
persija
arsenal
agustus
tutur
pendidikan
transfer
unit
umpan
dikenal
panas
agama
bertemu
demi
bicara
operasi
november
tepat
makan
aku
putra
sering
panjang
pajak
kuat
menjaga
ruang
sepak
thailand
perdana
net
produksi
satunya
bergabung
jalur
menambah
tingkat
jangan
kelas
penampilan
ri
menuju
online
perubahan
daya
kejadian
mengalahkan
al
platform
penuh
kebijakan
meninggal
new
kaki
anies
tiket
games
pesawat
kamera
sebagian
terdapat
novanto
twitter
uji
instagram
lantaran
liverpool
versi
berakhir
pulau
selanjutnya
olahraga
alias
bebas
desember
coba
disampaikan
juli
juni
memanfaatkan
singapura
melanjutkan
laut
nantinya
menyebutkan
seri
kapal
pertahanan
layar
kartu
aktor
islam
puncak
berusaha
hotel
lokal
perjalanan
sulit
penalti
rapat
biasanya
usaha
asing
membangun
uu
dini
model
penyanyi
antaranya
berat
delapan
sebab
kerap
bukti
tindak
keunggulan
tambahan
australia
balapan
mengakui
konsumen
biaya
manusia
pimpinan
karakter
tol
manajer
penonton
api
dilaporkan
penggemar
pilihan
usia
cedera
buku
dewan
ditemukan
listrik
de
dimulai
pesan
sini
pengembangan
dibandingkan
siapa
mei
alat
dibuat
kebutuhan
balik
rusia
bahan
facebook
and
berasal
sosok
sejauh
terbesar
bantuan
memasuki
kiper
padahal
la
gelandang
turnamen
positif
pula
apalagi
pengalaman
juru
tugas
anggaran
bila
budaya
kekalahan
aturan
pilkada
selesai
ulang
merilis
ditangkap
kemampuan
catatan
putri
meskipun
daftar
peserta
warna
april
diharapkan
sektor
emas
smartphone
kecamatan
konten
london
boleh
pekerjaan
kereta
setya
terlibat
ancaman
agus
penjualan
rakyat
rencananya
tadi
senang
diterima
menolak
yakin
buruk
menunggu
buah
status
memenuhi
filipina
ganda
investasi
mitra
permintaan
pemberantasan
penghargaan
benar
tewas
tindakan
ii
manajemen
rizieq
tampak
agung
go
perkara
band
narkoba
adapun
meninggalkan
pasalnya
lini
febri
meningkat
berencana
terlebih
hati
misalnya
dirilis
jasa
penjara
kualitas
guna
maret
penumpang
percaya
cuma
pembayaran
udara
dolar
menikmati
pejabat
pers
keempat
rekor
dipastikan
ponsel
seseorang
pemilu
personel
mengeluarkan
imbang
marquez
mengembangkan
militer
surabaya
lakukan
lingkungan
musisi
bek
dinas
pariwisata
timnya
dinilai
gp
isu
skuat
menyebabkan
potensi
sesi
arab
mengetahui
global
lolos
lintas
menawarkan
kasih
menciptakan
peraturan
transaksi
namanya
sejarah
dokter
pemilik
kecelakaan
mengingat
perhatian
kulit
apple
peran
arah
area
penyakit
melaporkan
super
berarti
motogp
peningkatan
novel
berupa
kehilangan
raya
berikut
tendangan
situasi
tujuan
menampilkan
putaran
tercatat
membeli
wasit
berbasis
cnnindonesia
performa
bahasa
india
komunikasi
mourinho
tekanan
tersedia
mesin
jaringan
meluncurkan
titik
detik
februari
penyerang
tulis
pemilihan
tenggara
mengklaim
hitam
seharusnya
menuturkan
kesepakatan
hukuman
kim
teman
kanker
aktivitas
jaksa
kiri
istri
prancis
ayat
mengenakan
meter
pemimpin
tua
ham
pak
periode
euro
kanan
menghadirkan
bogor
gambar
menutup
minyak
wisatawan
berkat
israel
penggunaan
suatu
tahap
setidaknya
android
menyediakan
basuki
kevin
kotak
mengubah
baca
pernikahan
bangsa
terima
ungkap
pulang
dasar
kategori
menyusul
budi
bekasi
insiden
cerita
panggung
khususnya
pssi
maksimal
djarot
menyelesaikan
papua
semuanya
sandi
memulai
penelitian
pengunjung
saudi
pertumbuhan
serupa
tamu
memimpin
muhammad
tiba
kala
messi
pantai
perwakilan
pribadi
pasukan
kopi
lanjutan
universitas
jarak
kekuatan
kendati
akses
gunung
mendorong
sehat
los
majelis
one
semifinal
kunjungan
membutuhkan
jelang
selaku
aman
tembakan
atlet
saham
terbukti
reuters
generasi
belanda
masjid
solo
striker
dibawa
sumatera
tuturnya
terdakwa
stasiun
lengkap
tunggal
tenaga
cinta
diberi
isis
serial
elektronik
bangunan
menyiapkan
si
david
dijadwalkan
york
kehadiran
mengurangi
hujan
pengganti
tidur
samsung
pelanggan
senilai
kursi
memungkinkan
internet
menjalankan
paris
aktif
bambang
memperkuat
sepeda
terdiri
kampanye
league
fasilitas
pendapatan
beragam
jawab
kalangan
konsep
momen
ceo
humas
level
kesulitan
roma
belakangan
transportasi
pergi
saling
tertinggal
ditetapkan
persiapan
sesuatu
desain
medali
terang
ahmad
awalnya
sutradara
bergerak
lihat
mobile
berubah
energi
istana
rimanews
banjir
izin
undang
alam
mengajukan
dijual
muslim
seni
menjelang
silam
james
pendukung
unik
melibatkan
organisasi
sirkuit
investor
solusi
belajar
harry
marcus
medan
perkembangan
honda
km
tes
massa
penerbangan
diperkirakan
kampung
menangkap
mengamankan
diberitakan
sembilan
kehidupan
kuasa
segala
jatuh
mempunyai
tegas
pemerintahan
berikutnya
bus
butuh
arema
tokoh
ditemui
apabila
fisik
paket
tanda
tertentu
diambil
rekan
dahulu
kualifikasi
terpilih
asian
bertajuk
bursa
diperiksa
menyambut
wajah
ikan
luas
republik
tangga
maaf
berbicara
senior
polres
sekretaris
ahli
pansus
argo
gaya
menganggap
menjual
diminta
putusan
jadwal
siang
suka
arena
malah
memenangkan
menjabat
menurunkan
serius
televisi
dibanding
kilometer
palestina
sikap
berisi
makin
menggantikan
duduk
perdagangan
gb
peringatan
in
koleksi
premier
taman
berjudul
minuman
perhubungan
wajib
west
gempa
menjadikan
itulah
markas
memenangi
kekerasan
tertarik
berhenti
membayar
menyerang
ratusan
berkembang
dimiliki
kenaikan
mencatat
menetapkan
rilis
mati
terkenal
yamaha
andi
bilang
bom
darah
disebutkan
harapan
melewati
neymar
padang
pelanggaran
pengadaan
artinya
guru
rendah
mencegah
diikuti
kedudukan
kematian
sebagaimana
khas
enggan
gerakan
mempertahankan
mengusung
myanmar
sore
laman
melanggar
tertinggi
mendatangkan
psg
penyelidikan
persidangan
populer
purnama
semangat
tangerang
yogyakarta
risiko
infrastruktur
membahas
sandiaga
minum
penduduk
efek
pintu
lahan
era
sea
senjata
suap
gim
inter
donald
brasil
pemenang
bunga
man
portugal
ribuan
menghentikan
tayang
ketimbang
penyidikan
selamat
dibutuhkan
karyawan
mengunggah
pbb
plus
simak
toko
tren
kisah
suporter
nyaman
singkat
kejuaraan
pertanyaan
tito
center
ialah
lebaran
pencarian
penyebab
telepon
dampak
apapun
baswedan
indah
pemuda
dibuka
faktor
fraksi
menanggapi
pekerja
suriah
anti
mengutip
peristiwa
beroperasi
jose
serie
standar
konsumsi
minta
tantangan
bersaing
komentar
lantas
menghabiskan
stadium
argentina
berlaku
melepaskan
dibangun
jantung
ayah
dicetak
belanja
mahasiswa
umat
memperkenalkan
tur
arus
bayern
bencana
bumi
bupati
penangkapan
psm
ditahan
karier
mengajak
mengandung
berperan
kepentingan
kebakaran
angket
direktorat
garuda
luka
tarif
international
menentukan
modal
star
beredar
kapten
dokumen
finis
lepas
sri
terasa
sambil
drama
kumparan
pemprov
perawatan
hiburan
hijau
terkena
baterai
besok
kedatangan
layak
tjahaja
to
kelima
maju
menghadiri
menghasilkan
pos
lanjutnya
profesional
keadaan
pesta
ucapnya
kesalahan
perancis
membuatnya
sanksi
dijadikan
madura
beruntun
obat
produsen
puluhan
sebut
berupaya
demokrat
komisaris
merasakan
aktris
anaknya
mendengar
pintar
pelayanan
sayangnya
museum
zidane
gangguan
aceh
papan
dilengkapi
iii
khawatir
lorenzo
main
pancasila
vietnam
bahagia
kalinya
kapasitas
murah
terletak
urutan
agenda
aspek
didapat
perjuangan
non
strategi
supaya
bayi
diklaim
tentunya
upacara
an
memainkan
mengungkap
swift
mengakhiri
opsi
sengaja
trofi
asisten
pelantun
wenger
cristiano
dpp
fungsi
teror
wali
pdip
pendanaan
sensor
pro
mu
promosi
fakta
kandang
panggilan
sayang
tawaran
keinginan
kelahiran
pengusaha
prestasi
van
asli
kamar
on
perang
rupiah
tahanan
depannya
menangani
restoran
ketat
pelaksanaan
primer
berwarna
dilaksanakan
michael
menimbulkan
pasca
bhayangkara
gas
raja
sungai
berpotensi
konferensi
seiring
batu
hasilnya
membentuk
pikir
keberadaan
kunci
arief
jabatan
tambah
wartawan
luis
tipis
berdiri
kecepatan
tema
abdul
hadiah
mengemas
mengumpulkan
sepakan
john
penulis
siswa
suami
artis
memeriksa
daging
mundur
terbang
atletico
diluncurkan
gatot
lee
mengunjungi
qatar
rekaman
resolusi
natal
sepakat
menahan
studi
survei
bioskop
bukanlah
panitia
didukung
makassar
balai
mirip
persoalan
seharga
menjawab
ringan
ac
aparat
batas
hollywood
pameran
world
you
dikonfirmasi
mempersiapkan
otomatis
agen
dortmund
jiwa
kpu
pemberian
amat
mengancam
diumumkan
galaxy
microsoft
no
keseluruhan
pakaian
gaji
marc
menekan
mengapa
perlindungan
setahun
iphone
lahir
menghindari
merayakan
seksual
semarang
tradisional
turki
bunuh
sriwijaya
live
mengisi
menulis
biru
kredit
divisi
malang
menginginkan
normal
puas
zona
mengangkat
staf
berpikir
kapan
peneliti
sempurna
teroris
tumbuh
melainkan
internal
mencatatkan
tampaknya
berkata
mengatur
raksasa
tepatnya
absen
bersamaan
commerce
dipakai
jambi
membela
time
tuntutan
materi
membantah
memperoleh
via
dinyatakan
wawancara
haji
melepas
menerapkan
menu
pertengahan
pertunjukan
berapa
memakai
pindah
mahal
hidayat
kalian
permohonan
komitmen
park
grand
menempati
perbankan
ataupun
group
kebudayaan
kinerja
mahkamah
mengejutkan
mengirimkan
peluncuran
terbanyak
top
alih
obama
sanchez
tiap
awards
debut
indra
misi
rangkaian
sepuluh
travel
andalan
pengawasan
kuliner
iklan
keuntungan
negatif
netizen
co
ditanya
hong
pegawai
ruangan
balap
pengamanan
perayaan
diajukan
dprd
eks
kontra
memudahkan
mengingatkan
palsu
sepenuhnya
sipil
tv
it
semoga
terpaksa
manis
pensiun
rekomendasi
terorisme
dpd
napoli
aset
dilihat
diselenggarakan
dr
pertamanya
gratis
keluarganya
menikah
rangka
setara
suku
europa
kepercayaan
kubu
pembuatan
tutup
aja
angeles
depok
hilang
macam
miryam
pertamina
tombol
afp
dipilih
gigi
mode
sehari
dialami
fa
penyelenggara
remaja
berkaitan
medis
nusantara
pembunuhan
suasana
kolaborasi
mengatasi
tiongkok
kebanyakan
ormas
diamankan
duel
jangka
menemui
penurunan
penyelenggaraan
sederhana
syarat
banyaknya
beli
pembelian
sisa
imam
koordinator
libur
sayap
bersih
dikatakan
ditawarkan
es
jabar
jajaran
miliknya
pengurus
walau
gabungan
seusai
sulawesi
kong
korut
leg
ulama
cabang
parlemen
sih
everton
kenapa
menyimpan
signifikan
dikeluarkan
hamilton
inci
kemerdekaan
perbatasan
swasta
tentara
pakai
pola
varian
angkatan
berkunjung
ditambah
nyaris
permasalahan
produser
sport
youtube
dihubungi
gerindra
longsor
ditutup
event
hendak
menjamu
nah
pengumuman
disney
mayoritas
banten
bendera
destinasi
ditujukan
menguasai
alternatif
antonio
berbahaya
gula
milla
teknis
efektif
menyaksikan
single
soekarno
terbatas
cantik
dalamnya
dipimpin
red
rumor
samping
antar
habis
operasional
pertarungan
berjanji
brand
iran
mengundang
menyerahkan
conte
kariernya
konflik
meksiko
memperbaiki
menengah
perbedaan
seleksi
unggulan
ide
mengonfirmasi
semen
valentino
berani
daripada
detail
jual
menargetkan
sekadar
terminal
melaksanakan
panglima
sepakbola
batik
bertambah
kaya
mengganggu
menyenangkan
pangeran
pelabuhan
pengelolaan
rambut
ukuran
fase
kian
diraih
formula
san
sepertinya
situ
tottenham
bareskrim
day
dingin
for
larangan
penerimaan
alami
dovizioso
otak
penetapan
petani
sasaran
tata
bakar
berawal
jarang
kemacetan
pertimbangan
setengah
bangga
campuran
dikembangkan
gaming
paruh
persaingan
tahunan
urusan
barca
mengirim
sebaliknya
asuhan
hengkang
setan
studio
all
menembus
mengandalkan
pop
strategis
akrab
berangkat
berbagi
hebat
kabarnya
kerusakan
konstitusi
memasukkan
mengejar
rupanya
segmen
teh
aliran
jelasnya
lupa
melaju
menjalin
pahlawan
parah
pasien
pengacara
uno
assist
berkas
dimainkan
el
kepulauan
kombes
manfaat
pelaksana
umumnya
berjuang
bertujuan
demokrasi
diterapkan
kerugian
membuktikan
mencuri
pan
pendapat
sampah
ton
beliau
modern
mudik
sudirman
kuning
mengonsumsi
mi
penanganan
protes
rumahnya
terpisah
tersendiri
unggahan
diunggah
entertainment
kalimantan
laptop
menurun
mk
music
objek
penambahan
ruas
takut
diskusi
ganja
kebiasaan
lah
pas
pembahasan
petenis
pinjaman
busana
merebut
perolehan
angin
jupe
kandidat
mandiri
regulasi
saint
ali
barunya
ducati
forum
kejahatan
pelecehan
perbaikan
rancangan
sel
diperlukan
hadapan
halaman
lakilaki
sabu
terbilang
walaupun
banget
memanggil
tercipta
vs
diyakini
fans
jek
ka
pemeran
truk
tuduhan
lebar
menyamakan
monaco
roda
silang
syuting
toyota
diprediksi
judul
arahan
disebabkan
kapolri
koordinasi
kreatif
pergerakan
plastik
sanggup
andrea
buka
dirancang
hewan
hutan
pc
perumahan
adat
diatur
membaca
perempat
ps
cadangan
cokelat
cuaca
komponen
menjanjikan
rute
tambahnya
abu
bersangkutan
cenderung
gram
morata
persatuan
rs
terbarunya
cocok
guardiola
kesuksesan
kriminal
lampung
otoritas
bekas
gugatan
impor
jemaah
kandungan
melakukannya
mengarah
latar
memegang
mengadakan
nggak
palembang
duta
hatta
istimewa
kerajaan
kompleks
pelatihan
menjuarai
menuntut
pks
asean
denda
fahri
first
garis
menyadari
sepatu
spurs
bertugas
dilanjutkan
dipercaya
ios
memicu
mengucapkan
merek
beras
gelaran
kukar
lomba
perlawanan
selebriti
silva
telak
tertulis
turis
berlanjut
mempertimbangkan
spesial
tersebar
alex
buatan
full
lumpur
melengkapi
rudal
bertanggung
derajat
menonton
pengemudi
up
virtual
anyar
bertanding
dimanfaatkan
memperpanjang
mendominasi
perikanan
tenang
mendesak
mengantisipasi
mengimbau
bikin
pergantian
ratu
susunan
taiwan
tampilan
tas
tertutup
university
berselang
pendek
pengelola
rusak
rutin
anthony
diadakan
dimana
kanye
nusa
rokok
aji
disambut
melakoni
menempatkan
minimal
ramai
sahabat
show
berstatus
merekrut
nuklir
nyata
pabrik
sejatinya
diperoleh
istrinya
lantai
mcgregor
pengembang
skema
berhadapan
darurat
dipanggil
identitas
mabes
melayani
membatalkan
pengiriman
sergio
berniat
mulyani
operator
bercerita
chris
kekurangan
kemayoran
kostum
tradisi
aff
alasannya
gue
inilah
kuhp
lampu
lelang
liburan
raihan
best
ekspor
kelapa
membawakan
persela
tahan
berinisial
diisi
duka
komputer
kuala
lukaku
perintah
rooney
sampaikan
taylor
ban
dihadiri
ilegal
ketentuan
legenda
melindungi
menewaskan
narkotika
pembukaan
perekonomian
tipe
undangan
apik
puasa
visi
wars
favorit
kapolda
kuartal
mental
dewasa
jawaban
memahami
play
beserta
borneo
paul
setuju
temuan
uni
biro
gelora
ketujuh
mesir
rohingya
mengakibatkan
old
ridwan
ucapan
vr
fifa
kader
keenam
kira
prabowo
rasanya
set
beruntung
kajian
menandatangani
pol
sembari
baju
developer
irman
iya
janji
mewujudkan
olimpiade
pengungsi
rock
sebelah
bersalah
kanada
kewenangan
pedagang
swedia
hanura
kekasih
mekanisme
penyedia
sapi
selepas
bumn
dimaksud
eksekutif
founder
mengantongi
mini
peduli
retno
unsur
berkomunikasi
kontribusi
menaklukkan
metode
satuan
senayan
tersisa
vonis
allah
berlatih
golden
kebencian
love
nelayan
streaming
thomas
beban
berdampak
kecewa
kehormatan
line
lintasan
store
udah
melarang
tercepat
whatsapp
bieber
dani
eko
jatim
menceritakan
persipura
irak
jenazah
kepastian
memecahkan
menelan
segar
sheeran
smart
ungkapnya
kaum
memperlihatkan
prosedur
selisih
adegan
banyuwangi
berfungsi
jr
memikirkan
muka
prioritas
saudara
black
bts
contoh
dikenakan
diungkapkan
ibadah
junior
kerjasama
menggandeng
perpanjangan
stres
rio
siti
teknik
wajar
wni
banding
my
reklamasi
siaran
tergantung
ambil
liar
mulut
penuntut
sah
brimob
kalla
mempromosikan
menyukai
negaranya
pabrikan
penawaran
pp
tangkis
bersyukur
giliran
ilmu
matang
menduduki
paripurna
pembicaraan
premium
riau
sadar
wiranto
kelurahan
lemak
revisi
tanjung
badai
pendaftaran
afrika
dibintangi
gereja
keberhasilan
me
mengganti
perez
pilgub
sevilla
utamanya
berkualitas
daniel
harinya
ibrahimovic
komite
manager
merusak
note
pencapaian
pendiri
sarana
tunai
uber
belgia
gomez
harganya
legendaris
mendatangi
mewah
pembiayaan
penjaga
ram
sudut
darat
dekade
habib
jari
koalisi
memaksa
perry
start
susi
dakwaan
diantaranya
kbri
menggarap
saiful
sisanya
terjadinya
tulang
williams
yerusalem
berhak
didampingi
freeport
lapas
marvel
memantau
penampilannya
pengakuan
rutan
angkat
merugikan
perdamaian
rival
song
tbk
valencia
zat
disapa
ditargetkan
halal
kamboja
lionel
menderita
negosiasi
politikus
prosesor
tour
berlebihan
diego
domestik
home
kain
kejutan
keselamatan
kliennya
ledakan
maya
mengembalikan
menghormati
militan
rahasia
tangkap
box
direncanakan
doa
juve
menyarankan
menyita
pembaruan
pojok
seluas
ternama
alves
bangkit
dihadirkan
disiapkan
ditentukan
fashion
imigrasi
mark
membalas
news
open
perairan
segi
jazz
lancar
menjatuhkan
mercedes
office
pendekatan
sekjen
seniman
adam
berkoordinasi
diserahkan
hangat
vokalis
angkasa
asosiasi
dihadapi
isi
melahirkan
nasabah
berpeluang
buruh
dilarang
horor
kejaksaan
klopp
melansir
pelajar
penutupan
pogba
terdengar
cup
episode
fpi
mendekati
peter
damai
edy
jorge
sorotan
teratas
utang
bapak
buffon
diakui
ganti
sesama
tergabung
headset
intel
membunuh
pemainnya
radio
ramah
reserse
sports
tunggu
ekosistem
grab
mengenal
menimpa
nasib
sumut
ayu
berpendapat
bertarung
bulu
coutinho
gerbang
kewajiban
penjelasan
power
punggung
robert
windows
beyonce
bin
dibeli
duterte
germain
meliputi
rekening
terduga
tipikor
berhubungan
costa
kepemimpinan
membicarakan
menyanyikan
pembuka
penggawa
sekuel
akbar
blancos
dibilang
dikirim
label
perilaku
respons
ruu
sundulan
terancam
bengkulu
berlokasi
diselesaikan
diturunkan
hazard
megawati
meyakini
pembeli
tiang
trafford
update
alexis
ayam
bos
djadjang
idul
individu
kylie
layaknya
mario
menggambarkan
sekitarnya
times
cukai
gede
irjen
kepresidenan
menunjuk
pandangan
pemudik
pertanian
sam
tahunnya
ujung
adik
dinikmati
jejak
jusuf
lari
ma
mayweather
menyajikan
menyelamatkan
tjahjo
bertindak
billboard
leicester
maung
penjual
bersifat
director
ferrari
jabatannya
makanya
maulana
menyuguhkan
pangan
tembakau
dibekali
memproduksi
menduga
menjamin
meyakinkan
resminya
sugiharto
tajam
waktunya
back
bi
blok
del
jembatan
ketiganya
penyelesaian
perjanjian
poundsterling
serangkaian
william
adi
angkutan
dewi
disediakan
hadi
khofifah
krisis
membaik
mengelola
otomotif
perut
tanya
terjun
agresif
bersenjata
diakses
hotspur
kencang
kontraknya
mendampingi
perppu
semacam
telkomsel
vitamin
akibatnya
hamil
jay
jutaan
kosong
memakan
nasdem
nba
pantas
pembentukan
pengendara
terdekat
bale
dasarnya
denmark
gamer
king
mas
meja
mengapresiasi
mesti
mewakili
pemesanan
smith
stefano
bangun
benda
bersedia
bobotoh
kesebelasan
semula
skala
berpengaruh
drone
kayu
kilogram
martin
national
nominasi
penerima
polsek
properti
raisa
reality
rombongan
terluka
andre
asam
berkomentar
integrasi
jaminan
kuarter
menuai
parkir
pencegahan
pitt
serang
yayasan
administrasi
dikarenakan
edisi
kane
kg
mengoleksi
mm
parpol
tulisan
dimas
ditangani
ekspansi
kendala
kurniawan
maskapai
mui
pentingnya
tokyo
berkolaborasi
berkumpul
betul
hidupnya
hti
krim
sony
sosialisasi
terlepas
usianya
antusias
boyband
elemen
email
jumpa
ketinggian
memori
mengawali
menyentuh
penggemarnya
penggunanya
ppp
serentak
siber
young
asasi
bakteri
berlaga
konsisten
pedrosa
pemasaran
penyerangan
pondok
posisinya
saluran
surya
susu
taktik
beda
california
evaluasi
jolie
masukan
salat
sebaiknya
sebetulnya
awak
dirawat
duo
evan
kadar
karenanya
komnas
maverick
penyimpanan
terjual
virus
yuwono
anjing
berlibur
dibentuk
diusung
inti
karnavian
liliyana
masing
memaksimalkan
membenarkan
motif
ojk
sibuk
tari
temannya
tri
tudingan
washington
berbentuk
desainer
ditulis
gunakan
jack
membeberkan
memperluas
pakar
patah
pengawas
rampung
rapper
said
anas
bersiap
dibantu
diciptakan
ingat
kabinet
konfederasi
vettel
abang
diproduksi
mengakses
optimistis
pemegang
penerbitan
pikiran
praktik
sby
tempo
weinstein
ace
dibahas
federer
kue
liam
permukaan
sepasang
tandasnya
tontowi
zaman
app
apresiasi
berukuran
danau
diubah
iwan
logistik
melintas
membuahkan
murni
padat
penahanan
petinju
reza
sean
suarez
ditampilkan
esdm
keadilan
kongres
lap
majalah
memerankan
memerintahkan
memerlukan
mempengaruhi
mencakup
meresmikan
oscar
pilih
transjakarta
ar
audio
demo
kaca
kertas
las
made
mimpi
blues
disusul
divonis
gresik
marga
matahari
menampung
pengetahuan
potongan
tinju
zinedine
airlangga
berdurasi
diinginkan
gaun
kode
korporasi
sabar
seks
tanggung
tubuhnya
tuhan
yudhoyono
antasari
deputi
dwi
kapolres
ranah
selfie
terkesan
agak
berpartisipasi
boy
kepemilikan
keterlibatan
kritik
patriot
peralatan
perbuatan
perihal
pohon
ramadan
seakan
setelahnya
speaker
suaminya
suhu
swiss
dedi
didirikan
dipecat
gunners
jk
konstruksi
meneruskan
pengambilan
pengaruh
perencanaan
sertifikat
jayapura
kuda
minat
mineral
oknum
paham
terungkap
umur
bangladesh
bermula
dirjen
ed
indikasi
konfirmasi
lazio
melancarkan
menghilangkan
menunda
persahabatan
reguler
siapapun
akbp
allegri
besutan
bpk
cahaya
kendali
kering
lirik
mematikan
merekam
pantauan
perak
sambung
southampton
umrah
diangkat
dirasakan
finansial
joe
kemudahan
mencabut
menekankan
menghubungkan
petinggi
pramusim
praperadilan
relatif
satria
terjangkau
dipasarkan
higuain
lenovo
memamerkan
menabrak
menyasar
menyebarkan
penistaan
sebagainya
volume
ade
ala
barel
dian
diet
ditunjuk
emil
inflasi
jeda
kadang
melangkah
penanggulangan
pizza
basket
cari
didapatkan
hendra
kimia
laskar
mendirikan
menghubungi
menjerat
penerapan
penolakan
santoso
sengit
sma
sultan
susah
wahyu
asuh
bangkok
berujung
bonus
borussia
gelombang
intensif
is
juan
kemajuan
memprediksi
panel
pemanggilan
telur
terobosan
tujuannya
achmad
agensi
bela
besarnya
caranya
distribusi
essien
jessica
kekayaan
kesejahteraan
lensa
lukman
melatih
pengaturan
seoul
spekulasi
team
usulan
ajax
american
berjumlah
bmw
disiplin
harian
jalannya
jateng
justin
laju
menuntaskan
teater
berharga
bridge
dibanderol
fan
huruf
independen
kakak
keindahan
memperkirakan
payung
penipuan
percobaan
pidato
spesifikasi
terinspirasi
trotoar
cina
gitu
induk
lautan
marketplace
memasang
memuji
menguntungkan
paspor
pembinaan
penilaian
shihab
suci
ukm
afghanistan
animasi
cuplikan
digantikan
durasi
gaga
grammy
krusial
mendalami
pecinta
pln
se
sedikitnya
tingginya
bernabeu
daily
fitri
gadis
gajah
idrus
instan
jong
perasaan
peta
rasio
terhubung
verifikasi
bung
debutnya
diputuskan
disertai
fenomena
iriawan
kecuali
kedutaan
lipat
menembak
menuliskan
momentum
penyelamatan
terbaiknya
terbakar
terkejut
tetangga
usb
xiaomi
ai
baku
berkontribusi
bertanya
edukasi
formasi
heran
irfan
jumlahnya
kesan
kok
mengharapkan
palace
pamungkas
pemungutan
adu
aktivis
bangku
basis
cita
eksekusi
jalanan
kabur
kebobolan
keyboard
material
mengundurkan
patut
politisi
ramadhan
rekannya
rela
unjuk
arsene
bermanfaat
citra
demonstrasi
dilepas
diterbitkan
halnya
ikon
kebuntuan
mendadak
menyerah
peraih
reaksi
terbuat
viral
winger
barisan
departemen
ganjar
gembira
golnya
ideal
kebebasan
kegagalan
kuningan
mistar
pemandangan
podium
terakhirnya
tergolong
torehan
anton
apartemen
aubameyang
beijing
business
dihentikan
disajikan
ditolak
dkk
headphone
kans
komisioner
membagikan
membukukan
mempercepat
memuaskan
porsi
ryan
seru
thrones
alhamdulillah
beralih
berkomitmen
deddy
kelautan
maluku
meraup
miliki
pemohon
sejalan
st
web
baginya
berjarak
dipenuhi
federasi
kemanusiaan
kemiskinan
mendengarkan
menyisakan
merujuk
pembangkit
pep
perguruan
perlahan
persiba
persis
switch
terkini
tom
adil
chen
fajar
head
hp
mengerjakan
merespons
out
penderita
percakapan
pesantren
sentuhan
seolah
sinyal
sukabumi
terintegrasi
amazon
berikan
diperkenalkan
format
george
intelijen
kepadatan
klasik
membiarkan
monas
mpr
nadal
nasi
pemulihan
personal
point
sun
tarik
titel
bahaya
bertentangan
efisien
eksklusif
kemendagri
ketinggalan
memecah
menerbitkan
nme
partner
perseru
space
subsidi
teluk
terdaftar
tugasnya
voli
yusuf
bakat
bawa
bea
juri
kacamata
kayak
kombinasi
led
mega
penegak
robot
setiawan
teguh
tokopedia
warriors
alkohol
analisis
bergengsi
bertema
espanyol
gelap
ivan
kelebihan
le
segalanya
seragam
tahapan
greysia
halim
hut
infeksi
kabid
klip
korsel
lilipaly
penodaan
pribadinya
project
showbiz
apel
firza
gianluigi
goreng
huawei
kebetulan
kebun
kekhawatiran
kontak
lambat
lombok
mandi
marketing
memperhatikan
mengerti
naskah
nur
pornografi
struktur
terganggu
ayahnya
bergulir
cabai
dikaitkan
diperankan
dj
harusnya
investigasi
ki
pembuat
pemenangan
penyalahgunaan
sederet
setia
tan
action
bbc
berulang
christian
dapatkan
daun
dijerat
ditempatkan
enak
kardashian
menaikkan
mentah
peredaran
rt
tablet
telegram
terry
ujaran
umuh
bnn
dihasilkan
ditjen
kondisinya
mars
menyebar
penembakan
pujian
rashford
santiago
selandia
stabil
tony
yasonna
bmkg
dengannya
hd
identik
jurnalis
marco
menantang
menyelidiki
paulo
penguatan
teco
adele
ambisi
awan
berkurang
bima
bukit
gading
gizi
golongan
kampus
kemitraan
kisaran
maksud
reds
sky
slamet
waspada
alonso
bluetooth
cavaliers
diberlakukan
harap
house
jo
jonatan
kepergian
mengantarkan
movistar
nintendo
pemakaman
seksi
terdepan
bekerjasama
berdua
cole
dikunjungi
diskon
front
harta
inspektur
kecantikan
komposisi
louis
menanyakan
menguji
minim
munculnya
olah
pastikan
seribu
terhitung
terjebak
tikungan
tutupnya
aksinya
bernyanyi
didesain
dikerjakan
ditarik
garam
hukumnya
istirahat
kesatuan
mengawasi
nasution
ntt
pemberitaan
perizinan
pesisir
pilpres
praveen
sambutan
sekalipun
talenta
thamrin
apbd
bbm
berkarier
betapa
binatang
bri
diabetes
dikonsumsi
dipaksa
kebangsaan
lelaki
menyambangi
migas
musuh
narapidana
pencetak
permata
school
simbol
tandang
terjatuh
warung
wijaya
austria
bawang
diundang
hit
lewis
life
mendalam
menyinggung
papar
pembebasan
perahu
spotify
sungguh
tommy
wacana
woman
cerai
diplomatik
evakuasi
gerai
grande
hulu
instansi
kamil
kenyamanan
menyumbang
mohamed
nasir
nazaruddin
nyawa
pastinya
pencari
prinsip
reporter
santai
sayuran
sd
seminggu
smartwatch
susilo
tegasnya
zulkifli
aneh
balikpapan
bella
berterima
camp
carlos
cuti
dilantik
disepakati
ditunjukkan
dubes
gejala
gudang
helikopter
katakan
komedi
mancanegara
melayu
menjebol
perdananya
road
roberto
taufik
assistant
bertandang
bundesliga
dangdut
deras
high
hoax
inisiatif
jendela
lamongan
last
lelah
lutut
melayangkan
perunggu
pierre
setyo
terkadang
alhasil
alumni
alvaro
baiknya
core
depresi
gemilang
griezmann
ibunya
impresif
iv
kuliah
membersihkan
mendarat
munich
penasihat
pengamat
pixel
protein
responden
andy
asupan
big
botol
chile
diajak
dituntut
diungkap
garapan
jonan
mah
pengobatan
pengunduran
perceraian
regional
tembok
aguero
akuisisi
america
batal
batam
cikarang
didatangkan
dihelat
dominan
etik
informatika
jonghyun
kerjanya
may
membahayakan
mencintai
menempuh
menghapus
mulyadi
niat
penguasaan
pulih
telinga
terpenting
traveloka
wayan
asuransi
batang
besi
bobby
contohnya
dengar
dicapai
diperkuat
ditunda
fantastis
iskandar
jones
karno
komoditas
kontrol
lulusan
mengkritik
perannya
pilot
rawan
relawan
seberapa
sebulan
sedih
sepekan
spesialis
syarif
wita
akademi
arif
bunyi
desktop
etnis
fadli
gagasan
membintangi
menghargai
motivasi
putus
senada
snapchat
stories
tertangkap
transparan
wonder
yg
bertolak
bocah
cile
dilangsungkan
dimasukkan
ditandatangani
hamzah
kekuasaan
konektivitas
melarikan
meluncur
mengurus
nkri
pasokan
pelantikan
rata
uefa
un
walikota
berdarah
berolahraga
blue
julukan
kantong
kemampuannya
lg
lukisan
membacakan
mempelajari
miskin
monster
nampak
otot
sopir
berpengalaman
deretan
dikelola
ditayangkan
ditinggalkan
emosi
intinya
isco
kai
kediaman
klaim
maria
masakan
mengisahkan
merokok
miss
penasaran
penegakan
peresmian
port
state
terangnya
yoga
art
award
berjualan
dijelaskan
disimpan
djanur
green
hasan
jamaah
jordan
kabel
keberatan
kediamannya
kepindahan
keterangannya
mempermudah
menerangkan
mengawal
min
napas
night
orangtua
percepatan
pkb
rodriguez
sekelompok
semi
warner
wayang
abad
celana
championship
eka
genre
grafis
kasta
lemah
memesan
mengendalikan
meninjau
menyetujui
nan
nota
penyebaran
prosesi
rezim
rinci
sanjaya
steven
warisan
akurat
artikel
bandar
belah
bersemangat
bersikap
dimintai
hamish
ibukota
indeks
istilah
jabodetabek
kesatu
menariknya
pasaran
pdi
potter
pra
psms
skenario
spesifik
amal
asmara
bruno
card
clinton
dialog
joshua
kahiyang
kompetitif
lunak
mari
meledak
menandai
menpora
menyelenggarakan
money
narogong
ozil
penggelapan
penggeledahan
penutup
pn
berbincang
berinvestasi
berlari
ditempati
duet
enrique
hardware
hubungannya
jeruk
jus
kate
keju
klubnya
logo
massal
membatasi
memutar
mengarahkan
merencanakan
netflix
pelajaran
pembela
perbincangan
pisang
pokok
praktis
roti
series
software
tarian
terlarang
terpaut
viktor
ariana
bertepatan
candi
cash
cerdas
debby
jenner
jujur
kepadanya
kunjung
marah
memangkas
mendaftar
mendeteksi
menggandakan
menghancurkan
mengungguli
menuding
mulus
pencalonan
persetujuan
postingan
potensial
academy
aneka
asus
berisiko
dipindahkan
filmnya
food
membobol
menangis
mencuat
mengusulkan
moskow
pemasyarakatan
pembacaan
perseroan
pesaing
profesi
sebatas
suzuki
syariah
akting
anang
capaian
ditonton
driver
gea
karawang
kurun
lady
mendaftarkan
off
penayangan
pentolan
pernyataannya
promotor
tanggapan
ui
yahya
year
balasan
basah
berbuah
cikampek
dipasang
ekor
hall
inspirasi
keluhan
ketertarikan
macan
melintasi
memperebutkan
mengadopsi
moto
pembatasan
sabang
service
sleman
system
telekomunikasi
tenun
tragedi
balas
bau
cek
diam
ekstra
firmino
hanyalah
institusi
kekasihnya
kritis
lisensi
patung
promo
rian
sara
tayangan
terjaga
topik
venezuela
xi
berbahasa
bisnisnya
borobudur
egy
gareth
jaga
katy
kedelapan
kriteria
lapisan
liter
lubang
mall
memasak
memetik
pembakaran
penyerahan
perebutan
permanen
persekusi
rentang
satelit
sensasi
smp
tempur
with
bergantung
berkompetisi
fair
fox
gunawan
kebahagiaan
kelanjutan
ketegangan
light
membakar
merancang
nokia
pentas
putrinya
reformasi
sapaan
sejahtera
sengketa
sentral
skotlandia
stok
tepi
andika
berbalik
berkekuatan
country
disesuaikan
diwarnai
garut
hanif
instruksi
komandan
kontroversi
mengincar
mengkonsumsi
pekanbaru
petang
post
romantis
sertifikasi
tersenyum
visa
wayne
afc
berguna
dibagi
dihuni
dikalahkan
dikuasai
dominasi
dong
gambaran
gideon
hary
iriana
kalimat
keputusannya
kreasi
muhammadiyah
putin
rey
semata
tanaman
bayar
bros
dapur
daring
dijk
diperbolehkan
double
ezra
gold
jennifer
juncto
kedalaman
kenyataan
lamanya
like
menjangkau
murid
nyeri
pandang
penghormatan
perpajakan
pinggir
ragu
snapdragon
tulisnya
watford
amien
bayu
dada
dimaksudkan
ditepis
gencar
interval
kaget
kena
konsernya
maritim
market
multi
nugroho
nyonya
pangkalan
pencabutan
people
prima
ramos
rehabilitasi
sesungguhnya
stamford
takluk
tertahan
visual
akp
alexander
bentrokan
biji
densus
dibatalkan
digarap
entah
hijrah
pendukungnya
perhitungan
perwira
ritel
terbiasa
vegas
akal
apbn
berinteraksi
berjuluk
berwenang
beta
bottas
dibicarakan
dijalankan
eric
fesyen
htc
kehamilan
kesiapan
konvensional
lagunya
makam
menyingkirkan
order
palu
pemanfaatan
perkiraan
rahmat
renang
rudiantara
sebentar
sinetron
spider
tegal
terhenti
terwujud
white
asuhnya
ciri
cloud
deklarasi
drastis
dubai
emirates
hayden
hybrid
ideologi
independent
injury
jagung
kenal
ketersediaan
ligue
memperkecil
mengantar
menggeser
peluru
pemberitahuan
pendamping
pengendalian
penghinaan
rizal
seraya
seringkali
tesla
tsunami
wireless
zlatan
bang
berbuat
bersejarah
boneka
intensitas
jurusan
kebangkitan
ketakutan
keyakinan
kokoh
konsultasi
kontroversial
masters
masuknya
melontarkan
melukai
memaparkan
membongkar
mempersembahkan
menghibur
nuansa
nurdjaman
pemuncak
perfilman
pertempuran
pki
pounds
prediksi
saran
serba
silakan
tambang
tenis
termahal
amanat
bar
belasan
cairan
diawali
dipublikasikan
ekstrem
express
fiorentina
general
harapkan
kebanggaan
kedekatan
kemasan
ketemu
klien
manila
mengacu
menyesuaikan
mohammad
pemusatan
penghuni
perbuatannya
pilar
planet
pre
rakhine
repsol
rudy
uruguay
veteran
banderol
basaria
berbahan
berganti
bertahap
brigadir
bull
campur
dicari
dilarikan
gay
gila
ilmuwan
instagramnya
jahat
kelak
kolombia
lambung
melambung
melebihi
membentur
memboyong
menjajal
menorehkan
meriah
messenger
modus
musyawarah
newcastle
nurmantyo
paksa
pasifik
pemberontak
penataan
pencernaan
pictures
pukulan
ricky
rudi
seberat
tanding
yani
alokasi
amsterdam
da
dc
disutradarai
fernaldi
lulus
marawi
max
membuang
memfasilitasi
men
mencalonkan
mengenalkan
menginjak
mengizinkan
mohon
pelaporan
pil
pratama
resor
sarapan
sekedar
sesaat
story
astra
atm
beraksi
dibayar
didominasi
diproses
emosional
flores
gambir
gaza
jatah
keinginannya
kependudukan
kucing
menemani
merchant
nutrisi
populasi
pura
ridho
santos
sebastian
semalam
sukamuljo
superseries
upah
wujud
at
barack
bareng
berbelanja
berkapasitas
bermasalah
bingung
bonucci
club
cm
ditingkatkan
fauzi
gus
hbo
indikator
kru
melampaui
mengontrol
menutupi
menyumbangkan
mulia
notifikasi
ojek
pengecekan
persyaratan
zayn
abdullah
agregat
berkisar
dijaga
dilontarkan
fit
ginjal
hidung
lyon
mail
management
mane
memburu
menampik
menanti
mendongkrak
muenchen
optimal
pengerjaan
pengesahan
pesona
prasetyo
quran
realisasi
salman
sastra
seumur
steve
swansea
terkalahkan
zumi
almarhum
antariksa
arti
bertuliskan
bitcoin
channel
console
cs
denpasar
dikirimkan
diminati
dinobatkan
dipamerkan
disabilitas
happy
jaket
johnson
kambing
kapolsek
kebenaran
kembalinya
kerabat
klarifikasi
klausul
lawannya
lebak
nada
nainggolan
nampaknya
persebaya
relevan
rincian
rupa
taksi
tuntas
umkm
victor
wadah
bayaran
buktinya
burung
cyber
dibawakan
dijatuhkan
dituduh
erick
gugur
institute
kalori
kelelahan
lin
mako
mal
menginap
menyangkut
muhadjir
pay
penghasilan
produknya
prosesnya
referendum
saracen
timor
tki
usahanya
agustinus
alquran
ben
bukalapak
dihukum
disetujui
free
husein
kantornya
kesembilan
komersial
langit
langka
leher
marsudi
menyerupai
mkhitaryan
ott
pedas
penganiayaan
penjagaan
penundaan
ramdani
rentan
sofyan
styles
terpadu
watch
ambang
armada
barito
bobot
capital
carlo
dagang
dievakuasi
dilakukannya
dragon
force
karang
keperluan
kurungan
melanda
mengecam
mudahan
petualangan
racun
respon
reuni
siaga
sub
terdampak
ujian
andik
asep
berdiskusi
berkarya
bermotor
bertekad
celtics
copa
dinding
disahkan
ditemani
ditempuh
hadirnya
harvey
iklim
impian
kasar
manado
manapun
memunculkan
mendapati
mengkaji
menyusun
pembagian
pengujian
ras
salim
tembak
terpidana
untung
wembley
asap
berseragam
cipta
donasi
efisiensi
fahmi
istiqlal
jersey
kedapatan
kembang
kontraktor
medium
memengaruhi
pebulu
peluit
pemkot
penerangan
penyandang
perlakuan
persegres
pochettino
pokoknya
riedl
sela
sinar
tenggelam
terlaris
toilet
xl
amin
angel
aziz
bap
begini
biar
ceritanya
chief
coldplay
dipersiapkan
disiarkan
expo
federal
ferdinand
hancur
ikatan
inc
kanal
kelamin
koran
kuku
kupang
lucas
malu
memutus
mencicipi
menempel
mengguncang
menyapa
meramaikan
optimis
pencemaran
polandia
ruben
silat
simon
timika
bara
canggih
cetak
charles
cilacap
danilo
dewa
dijalani
direksi
doctor
esp
fast
gantung
hantu
jati
liu
logam
makar
mempertanyakan
menjauh
mouse
nikah
penyelundupan
president
profil
raikkonen
ring
sayur
selang
sidik
xbox
yoo
zola
alibaba
bernuansa
brigjen
chan
development
direction
ditembak
elizabeth
fitnah
harapannya
ibl
inginkan
karyanya
kebersihan
laboratorium
lembut
memindahkan
memuat
monitor
officer
pink
popularitas
prajurit
produktif
rw
semenjak
seminar
setinggi
trek
urut
utuh
wajahnya
berkendara
besaran
celah
chef
diperhatikan
disita
edi
end
fakultas
guardian
institut
iqbal
joong
keliling
kemenpora
kenangan
kolesterol
komik
memasarkan
membebaskan
memperingati
menentang
menginspirasi
nahrawi
napi
nick
paman
payudara
pecah
pembawa
pemilih
penemuan
pengaduan
perindustrian
racing
rapi
sar
security
seluruhnya
slot
sydney
tanggul
tertawa
tips
ancol
beresolusi
berfokus
berkesempatan
device
diganti
dimensi
diteruskan
filter
gamelan
hektare
iot
jember
kado
kesenian
lucu
mempertemukan
mengikat
mengungsi
menyeluruh
muara
pasang
patroli
pejalan
pendatang
penentuan
pengajuan
pengeluaran
perhelatan
pesepakbola
pyongyang
rahman
sambungan
shanghai
telkom
texas
trans
wahana
advokat
antisipasi
bawaslu
benzema
beradaptasi
bomber
bpbd
cat
catalonia
cavani
cincin
darmin
dijuluki
dipegang
diselamatkan
diwakili
espn
exo
gratifikasi
johannes
julia
komodo
landasan
makna
melebar
memberlakukan
mengabarkan
menghambat
meninggalnya
menunjang
menunjukan
msi
noel
oh
pelepasan
pramuka
rektor
renovasi
sajian
so
starter
sunderland
tato
terbentuk
totti
tower
tps
warkop
your
bersatu
chicago
christie
dinihari
diuji
eksternal
fernando
gallagher
gusti
heboh
ibnu
insentif
irlandia
jin
kampiun
ketertinggalan
lgbt
long
macron
master
memandang
membocorkan
mengakuisisi
menggagalkan
meningkatnya
menundukkan
menyepakati
nyatanya
opini
pagar
pangsa
pemberi
pemecatan
persegi
player
pns
presenter
rico
sari
scott
simpang
skandal
street
sugito
terburuk
tisha
user
wafat
andai
aris
beragama
beri
bibir
blaugrana
bpjs
courtois
dance
defisit
dibacakan
diragukan
hobi
justice
keberangkatan
lembar
li
mama
membalikkan
membidik
mengunci
menindak
menyangka
montella
pasir
peretasan
playoff
posko
rekam
solid
teks
tikus
wales
abadi
berwisata
cirebon
dilalui
dioperasikan
diputar
herrera
ilmiah
insya
jackson
johan
kemenhub
leonardo
melangsungkan
menaruh
mengecek
mengenang
menyebutnya
salju
seandainya
sekian
sewa
social
sumadi
tercapai
usd
war
anwar
atraksi
auto
bantu
bergantian
beristirahat
berry
berteriak
dahlan
depp
edition
hernandez
instrumen
jean
kompol
madu
membagi
mengalir
mengedepankan
menteng
merangkul
navas
oesman
oke
pemadam
pemda
pemikiran
pemindahan
penyiraman
penyisihan
permukiman
prix
rodrigo
selangor
sendirian
sk
tangannya
tersingkir
test
tolong
uud
vidal
website
acuan
berpisah
bocoran
can
dibebaskan
dikhawatirkan
hidangan
hye
jakmania
ji
jpu
kandung
komando
lopes
mengomentari
miami
pesat
putu
rsud
rugi
rumput
selagi
semester
sponsor
susun
tangguh
taruna
terbagi
ad
aksesori
andrew
berlalu
bournemouth
cardiff
cleveland
dibagikan
disarankan
distrik
drake
gonzales
hot
indonesian
karet
kesadaran
mengkhawatirkan
menindaklanjuti
menyandang
notebook
ok
organ
penertiban
penyebabnya
perburuan
sapta
sebabnya
sebutan
sentuh
terlambat
workshop
andri
benua
chat
controller
dihadapkan
diresmikan
disukai
ditandai
ditunggu
hormon
islandia
kacang
karbohidrat
karir
koneksi
konservasi
legal
lucky
malik
memperingatkan
mempersilakan
menguatkan
mumpuni
os
partainya
pemahaman
rita
setimnya
tama
trio
venue
what
bernilai
bruyne
chipset
diarahkan
diberhentikan
dikemas
dikembalikan
dirasa
direkrut
dosen
elite
furious
harris
jae
kafe
kau
keren
kesal
lidah
macet
memuncaki
menghalangi
menghemat
mitsubishi
monumen
nou
pengisi
pontianak
rekayasa
satgas
sifat
tagar
tebal
toro
transisi
unicorn
victoria
alamat
angga
bachdim
bak
berfoto
butir
cipinang
didakwa
dilatih
display
do
emoji
gitar
graha
heru
info
jedi
kancah
kocek
laos
lingard
marsekal
memukul
menggugat
menghitung
mengusut
merealisasikan
mike
muntah
nenek
pelapor
pelita
pesanan
rating
saatnya
sharapova
sim
sm
tonny
trauma
water
alfian
aragon
be
beauty
bendahara
bermitra
brian
chip
danny
emirat
gak
ho
kemunculan
kolam
luhut
managing
mclaren
mengeluhkan
munir
nasa
panik
pelatnas
pesepak
pisau
prof
ricko
soekarnoputri
son
spesies
square
stephen
tercantum
tersambung
torino
verstappen
warganya
beralasan
bill
brad
brown
brunei
by
captain
car
den
diantisipasi
dilancarkan
esok
gamawan
goal
idola
irama
jonas
konsentrasi
konsultan
kumolo
mahar
melewatkan
menara
mendiang
mengangkut
menggunakannya
mobilnya
nominal
otto
pakistan
patrialis
pemukiman
pengujung
perluasan
perpres
profesor
public
rajin
satpol
sensitif
usus
anggotanya
becak
berisikan
bulat
call
degradasi
dibiarkan
dicabut
diesel
dinamai
diserang
dual
florida
genap
halus
henry
jamur
jerawat
kecerdasan
kesamaan
keseimbangan
konsorsium
konteks
koridor
leste
mengerahkan
merampungkan
pemandu
pembelajaran
pencurian
perserikatan
phone
raffi
ragam
samuel
sdm
sekretariat
seluler
setim
sigit
sjafri
sjamsul
tertuang
transit
turin
ventura
yaman
ancelotti
artist
asa
belakangnya
bernomor
bologna
bu
crystal
diblok
disuguhkan
emma
gemar
gimana
ginting
girls
gonzalo
guntur
hatinya
hormat
jejaring
jet
jurnal
kakinya
kapabilitas
khilafah
kirakira
koruptor
kristen
martial
memotong
mengerikan
menlu
menyalurkan
menyewa
menyoroti
miller
musikal
nikita
pacific
perdebatan
performanya
protokol
radikal
salam
selena
siapkan
sketsa
skuatnya
sumarsono
teranyar
terikat
unesco
week
airlines
analis
antusiasme
bayangkan
beraktivitas
berkelanjutan
berumur
bohong
cruise
daud
distributor
eden
eva
football
fotografer
hattrick
ipul
kalender
kebersamaan
kebugaran
komedian
komplek
lawas
lengan
mapolda
medical
melbourne
melihatnya
menepis
mengindikasikan
menguat
minimnya
nice
partisipasi
pelarangan
perilisan
philippe
pusing
saputra
secepatnya
sejenak
sejenis
siri
tempatnya
timtim
tukar
uniknya
ventures
wisman
asensio
aslinya
bca
bendungan
beradu
berjulukan
betis
bilateral
casemiro
centre
community
delegasi
diana
diolah
diperuntukkan
dramatis
emisi
firman
gampang
keagamaan
kebayoran
keturunan
korps
land
layang
masalahnya
memukau
rosso
senyawa
sp
susanto
terbit
willian
andritany
ari
balon
brebes
bumbu
cerah
citizens
convention
diunduh
drive
francesco
frekuensi
gabriel
gabung
gear
indrawati
ite
kenyataannya
kesimpulan
kondusif
laode
leipzig
mediasi
megapixel
menelusuri
mengobati
menuduh
menyabet
menyerukan
padanya
pembelaan
penari
pengembalian
penindakan
perekrutan
petahana
rb
tab
tertib
usah
vladimir
wewenang
yusril
aaron
alli
ap
berbekal
berkeliling
berlangganan
berminat
bni
burnley
dendam
dhani
dihimpun
erupsi
gary
gawangnya
hamid
imigran
ismail
kamal
kekecewaan
ketum
kuno
lending
mac
markus
matthew
melapor
membawanya
membedakan
membubarkan
mengaktifkan
mengoperasikan
meredam
merinci
ngurah
nissan
nonton
oculus
pegunungan
penerus
perpaduan
pound
puerto
rai
rasakan
richard
ritual
sambutannya
selera
sembuh
sms
sutopo
undian
ungkapan
ahsan
bambu
berenang
bir
bond
carter
diadaptasi
diiringi
disaksikan
disinggung
earphone
fbi
fee
ghz
ibra
karim
kasusnya
kembar
kpr
kreativitas
low
madonna
mahkota
memperbesar
menyayangkan
merata
mikro
mongolia
norwegia
nu
offline
opec
pendahulunya
pengedar
perkebunan
perlengkapan
perpisahan
polemik
review
rob
saraf
separuh
serat
slank
stabilitas
stone
terapi
toleransi
universal
wahid
abraham
adiknya
association
au
batasan
berbau
berpakaian
control
dibawah
dibuktikan
east
hyun
ibunda
jung
karangan
kolom
kompensasi
legislatif
les
lumayan
maruf
masif
memadai
memerangi
menggali
mengutarakan
menyantap
moral
network
nico
offside
pembaca
penghujung
pengolahan
perampokan
petunjuk
pramono
proposal
rossoneri
serviks
servis
station
sumsel
this
will
zheng
aluminium
bps
crutchlow
derby
dipesan
down
finals
habibie
health
ilham
imbauan
indosat
jesus
kasat
kecaman
kirim
lite
manuver
melonjak
melupakan
mencantumkan
mengakomodasi
mengecewakan
menggelontorkan
mengidentifikasi
mengkonfirmasi
menyalahkan
menyerap
naturalisasi
ocean
olahan
pacquiao
pemantauan
pemberdayaan
pembubaran
penyediaan
pole
poster
putera
rebound
rizky
sekutu
siregar
solidaritas
sterling
subsider
tamunya
terjerat
thor
aroma
berdoa
brom
cpns
der
diperpanjang
ekstasi
fi
fps
gif
girl
good
hitungan
jamie
jerez
kepengurusan
kericuhan
kesenjangan
koeman
marcelo
menantikan
menggaet
menonjol
menyalip
merak
moda
mungil
pencucian
penyadapan
perancang
peru
petrucci
pique
prince
radikalisme
rel
saut
sheila
wong
yahudi
audit
avengers
bentrok
berlin
buang
demian
etape
fotonya
giroud
han
haram
ihsg
interaksi
jaksel
jawabannya
johann
kerusuhan
madrasah
manual
marca
memajukan
memanjakan
membayangkan
menggabungkan
menghilang
menghina
mengolah
merogoh
panti
payment
pembatalan
pencak
pengoperasian
penyesuaian
perlombaan
permen
plaza
rafael
rahardjo
sales
slam
stroke
tabungan
tenda
tertulisnya
atap
bensin
dihitung
ditinggal
dusun
elektrik
gor
ha
halloween
im
ipb
island
kemenkumham
kompak
meghan
mendulang
menghantam
menyikapi
menyudahi
nekat
peretas
reputasi
resep
resepsi
samsul
syafruddin
terdahulu
ajaran
atasnya
berdasar
blackberry
ceko
dikendalikan
dipicu
elektabilitas
flu
ice
ita
ketut
kirinya
kyo
lacazette
lowongan
luke
maksimum
marquee
membandingkan
memeriahkan
mencontohkan
mengajarkan
mengevaluasi
menjaring
menjenguk
menyematkan
mueller
musiknya
nvidia
organik
penandatanganan
pengalamannya
pengungkapan
penyaluran
perundingan
peternakan
plt
produktivitas
rusun
saleh
sawit
serui
sinergi
tumbang
anfield
aplikasinya
bedanya
berbakat
berpindah
cctv
corporate
didapuk
dilepaskan
dipatok
dipengaruhi
disinyalir
disusun
dna
dorongan
garden
gerard
hibah
karnaval
kawah
kedokteran
kemeja
kemenag
kesaksian
khan
kompatibel
laku
lemon
marham
menaungi
menenangkan
meng
mengira
menyembunyikan
merekomendasikan
mewaspadai
mogok
mosul
mutiara
panduan
pengantin
penjuru
pokemon
polresta
robin
semasa
solution
sumba
terbalik
terpasang
terulang
trailer
weeknd
aspirasi
atalanta
axelsen
bastian
browser
case
dijatuhi
diperbaiki
ditambahkan
diutarakan
dylan
elegan
ford
gerak
gong
hasibuan
jajarannya
kelihatan
ketahui
keterbatasan
kontingen
kuota
layanannya
leo
limbah
massimiliano
melacak
memecat
mendatar
menebar
mengklarifikasi
menyertakan
menyuarakan
moon
pb
pemakaian
pilihannya
porto
rafli
ricciardo
sinkronisasi
steel
subuh
sumbangan
tersaji
andalannya
benz
berjenis
blog
bravo
bungkus
dibenarkan
didasarkan
dijumpai
dituding
dor
dukung
eddy
eksplorasi
erat
foundation
four
glenn
globe
hadid
haris
honor
huda
imlek
implementasi
keberuntungan
kemang
kesepahaman
kreator
link
maraknya
marcos
mayat
melenceng
membesarkan
mengesankan
menghiasi
pancoran
panen
parade
pemutaran
penetrasi
pengabdi
penghentian
penyelamat
playstation
remisi
roket
rotasi
sate
sempit
sepi
syukur
tadinya
teratur
that
ufc
universe
urban
wawan
abe
alfred
antioksidan
arifin
arsitek
buahnya
code
conor
death
dilanda
dk
emang
etihad
franco
holding
iman
intervensi
kedai
keluaran
keluarnya
krl
kurangnya
lambang
lapor
mary
menyesal
meringankan
oled
panjaitan
pelangi
penempatan
penggalangan
penikmat
reborn
resort
rolling
selamanya
semestinya
stop
syaiful
tabung
tagihan
terkecuali
tuna
untuknya
abbas
absennya
adrian
aliansi
anggur
aparatur
axiata
challenge
company
debat
dilindungi
dimakamkan
executive
ferry
get
golf
got
hello
hillary
ihsan
ipad
kaos
kaus
kenegaraan
kesehatannya
ketahanan
kiprah
kompetensi
koperasi
lega
lewandowski
lokasinya
manggarai
maroko
mendeklarasikan
mengenali
mesut
mirna
misteri
mr
murray
pedesaan
pemberhentian
pencinta
penguasa
rais
restu
rhoma
rihanna
rivalnya
rumit
search
sentimen
sidoarjo
soesatyo
soft
studios
tribun
arie
bahrain
beasiswa
bermusik
bersinar
billy
cabello
cls
corden
cornell
dampaknya
diderita
dimakan
ekspektasi
flash
hart
klik
konsolidasi
kriminalisasi
lestaluhu
mauricio
memberantas
memohon
menyempurnakan
merangsek
naga
nobel
nougat
pagelaran
payne
pertukaran
sandro
sekira
tb
tidaklah
timbul
tomat
tuanya
tukang
ular
wei
ajun
albion
arthur
ballon
banda
banjarmasin
berdatangan
bermunculan
bersepeda
british
bubar
bulanan
catalunya
ceballos
cemas
cucu
datar
die
disalurkan
djoko
eksekutor
face
fatwa
hindari
integritas
jalani
kawan
kurnia
laporannya
latin
lilin
luput
maps
menatap
menetap
menstruasi
menyamai
merapat
merawat
narkotik
naungan
pengangkatan
penghapusan
peradilan
position
presidium
product
rate
rose
runner
sahabatnya
sambal
sharing
simpan
sir
soda
sumur
tandas
tkp
transformasi
tulus
vice
wi
wibowo
yudi
agun
amir
ampat
anggap
augmented
bawahnya
bermarkas
berprofesi
bowl
craig
crotone
deh
della
desainnya
diusulkan
diwaspadai
god
hasto
henti
hi
jurgen
kang
karaoke
kosmetik
laba
laris
memblokir
menandakan
mengeksplorasi
mengendarai
mengoptimalkan
menjadwalkan
menyempatkan
mimika
munaslub
mustahil
ombak
pembina
pemkab
pernikahannya
persentase
perusahaannya
pr
putranya
rap
revitalisasi
saefullah
semanggi
sembarangan
silaturahmi
stand
stiker
sumatra
tech
terendah
vaksin
wahyudi
we
andreas
angelina
aspal
bagaimanapun
balistik
belitung
benjamin
berduka
body
boston
brilian
cafe
chamberlain
choi
coklat
comeback
debu
dihalau
dihargai
diskriminasi
ditindaklanjuti
england
file
gt
hadapi
halte
hilir
jon
kedatangannya
kehadirannya
konon
maidah
membangkitkan
menyimpulkan
merumput
mizwar
nam
natsir
paha
pbsi
pemasukan
pembunuh
pemenuhan
perkotaan
perpustakaan
pundi
pungutan
raga
revolusi
rini
ronald
santer
shinee
stage
tau
tweet
vicky
vokal
xavi
yabes
algoritma
asalkan
azhar
baterainya
berprestasi
budiman
bukannya
bwf
celta
claudio
dicampur
digadang
digulirkan
dikawal
dikontrak
dp
erwin
family
frank
fungsinya
genggam
isinya
journal
keberagaman
kilang
lho
luna
makeup
manufaktur
mematahkan
mematuhi
memproses
menari
mengalihkan
menghadap
mengukur
menyala
menyesalkan
mestinya
mewarnai
nurdin
oppo
oreo
paru
pemasangan
pepe
pertunjukkan
radar
religi
rowling
sawah
siasia
side
sifatnya
tali
terhindar
terpantau
tertua
tiara
track
wortel
adha
allianz
ambon
anggia
bad
bercerai
berjumpa
berkuasa
binaan
chrome
dhabi
dibakar
diizinkan
dijangkau
dikumpulkan
dipertahankan
erdogan
formulir
fungsional
harimurti
henrikh
hero
hits
insyaallah
ipo
jawara
kakaknya
kehabisan
kenamaan
kendari
kritikan
lbh
lukas
madiun
memacu
memperkaya
mendekat
mengajar
menghampiri
menunaikan
metal
pemicu
pengalihan
peninggalan
perkasa
pertolongan
razia
rizki
roger
saldo
sale
samarinda
secret
share
spalletti
subianto
tae
tendangannya
timberlake
topi
voting
wapres
wifi
wonderful
alergi
alexa
berlian
book
cagub
cak
cawang
central
daihatsu
dibayarkan
didorong
dihapus
dion
dipinjamkan
dollar
dongeng
finlandia
floyd
glass
gps
hariyadi
ibrahim
indar
jala
jimmy
johnny
kangen
kardus
kebaikan
klinik
konfigurasi
lp
maitimo
mantap
marlina
matanya
memonitor
mencurigakan
mengabadikan
mengemukakan
mengulangi
menyatukan
mh
ngomong
nol
parker
pembicara
peminat
pen
pengikut
petisi
pinjam
pm
rahayu
raih
sandy
sassuolo
singapore
sumpah
support
termuda
tuh
type
vital
who
wisnu
adaptasi
antikorupsi
axel
berkisah
bervariasi
bezel
brazil
cristian
dark
dihindari
dikejar
dilayangkan
divestasi
doha
dukungannya
hartarto
hmd
jl
kamerun
kepuasan
keterbukaan
kewarganegaraan
kompetitor
komunis
kooperatif
lazada
loket
magic
marseille
meloloskan
menerobos
mengutuk
montreal
mou
ms
nih
oksigen
osvaldo
parawansa
peliharaan
pemeriksa
pencipta
pendakian
pengajian
pidatonya
pipa
polusi
pudjiastuti
purwakarta
rich
riyadh
sarat
satwa
simpel
skill
soccer
stoke
terendam
terpuruk
terseret
toba
toni
vivo
aditya
airport
albumnya
alur
bei
berakhirnya
bina
blade
buruknya
cawagub
cemerlang
dibunuh
digagalkan
dinamika
diperlakukan
dokumenter
dompet
eksis
emerick
emran
ev
fantasi
formal
fotografi
frame
gantinya
gini
gtx
hard
hyuk
incaran
intens
jebol
kairo
kecolongan
kehutanan
kelemahan
keraton
kurir
lebat
levine
loew
medika
membalap
menakjubkan
mengabaikan
meredakan
mtv
mundurnya
nonaktif
nurul
oso
padi
penghitungan
penjahat
raden
ray
realistis
riwayat
roy
semisal
serahkan
sociedad
spanduk
stockholm
taat
temukan
terpengaruh
tionghoa
tolak
twitternya
valverde
verge
wang
way
wing
yuni
act
amar
anggapan
babi
baby
bass
bertenaga
bertengger
betawi
bit
bubuk
dharma
dikerahkan
engine
faktanya
fu
gelas
geologi
gomes
gpu
gua
haag
hamas
hambatan
hee
herry
isyarat
jeddah
jeremy
kandas
kaskus
kasubdit
kental
ketenagakerjaan
ketertiban
ktt
lemari
makhluk
manggung
masak
melati
memberitahu
menayangkan
mengendurkan
minoritas
modul
mpv
north
olympique
part
pekerjaannya
pelat
pengusutan
perekaman
pleno
putro
race
rahmayadi
saking
sepang
simulasi
sinaga
situasinya
skl
south
starbucks
sunda
syarief
tembang
terbarukan
vive
wanna
yahoo
asma
asrama
atmosfer
benturan
berduet
beribadah
bertempat
bigbang
bpom
buaya
cahyono
cuci
customer
digagas
dipandang
factory
fiksi
firdaus
flagship
garcia
header
hector
hemat
herman
herrie
hindu
houston
hr
hub
jan
keita
kejiwaan
kemarahan
kendaraannya
kirana
kotor
kuba
lopez
luiz
martinus
memaksakan
memulihkan
menyeret
merespon
mertens
meteorologi
nigeria
nova
nusron
ofisial
pablo
pendaki
pengisian
philip
piksel
prasarana
prihatin
publikasi
sahur
sangatlah
terekam
terpencil
terukur
tio
transmigrasi
transmisi
ultra
woo
yockie
yu
amnesti
anugerah
atep
auditor
awi
bahu
beckham
benteng
bepergian
berkaca
berlayar
berpesta
biarkan
boaz
buana
buni
burger
ces
christopher
ciliwung
digambarkan
dipotong
drum
ekspresi
emery
gitaris
gorontalo
hartono
heart
ika
jatinegara
jempol
karirnya
keimigrasian
kekebalan
kekinian
keliru
keping
kh
kjri
knights
kroos
kurban
lakers
libya
magelang
matic
memadati
memancing
memberitakan
membungkam
mengamati
mengeksekusi
mengulang
motion
muchtar
pakansari
paolo
pelayan
pelindo
penampil
pencatatan
petarung
raphael
redmi
rekonsiliasi
reproduksi
ronde
run
saing
sedemikian
sembako
simeone
suaranya
sung
supply
tebing
tempuh
ternak
tourism
utomo
vigo
walk
walker
yulianto
am
antrean
arya
baja
balita
beast
beranjak
bercanda
berinovasi
bosan
bradley
calvin
camilan
crash
desakan
diakhiri
dilewati
eksistensi
figur
gen
gender
hektar
identifikasi
indoor
iniesta
inovatif
jd
juergen
kaesang
kanannya
kecenderungan
kondang
kontras
lingkaran
lobi
machine
mengevakuasi
menghidupkan
mengutamakan
menjadikannya
menjumpai
menumbangkan
merambah
middleton
mohamad
monitoring
mula
niatnya
nilainya
oasis
oranye
peminjaman
penanaman
pengurangan
penyimpangan
pertambangan
peti
ppatk
regulator
sedan
sejati
sekuritas
sesekali
society
statusnya
takkan
temu
videonya
wisma
aduan
affleck
antoine
avanza
beregu
berlatar
blind
blitar
bowie
buddha
candrabhaga
catalan
celcius
dadang
daerahnya
didasari
dikasih
diplomat
disebutnya
disibukkan
diwajibkan
francisco
galeri
gorila
guard
ikuti
ivanka
jebolan
karangasem
kejayaan
konservatif
kotoran
laki
lapar
learning
lebanon
letusan
lonjakan
lte
madinah
mel
memisahkan
mendekam
mengabulkan
menggerakkan
mengharuskan
mengusir
menikmatinya
menyalahgunakan
menyambar
merangkum
movie
nafas
nazi
nia
ondemand
pahit
pamekasan
penyebar
proyektor
qr
rekanan
ricardo
rohit
sariawan
silver
sopan
steam
sulsel
technology
tembus
terpenuhi
tracking
tropis
uk
ukurannya
villa
wine
zon
acer
akad
aura
badut
bahari
bakamla
ball
banyumas
batman
berakting
bergenre
bernada
bulannya
butet
diandalkan
dicatat
didik
dilelang
dinyanyikan
dipadukan
dipenjara
dirugikan
diwawancara
dont
ederson
fisher
friends
frustrasi
gadang
ginseng
heri
hive
interior
jangkauan
jeans
kagum
kebon
keesokan
kicauan
ko
komprehensif
laoly
lestari
mainan
marak
memanas
meminum
mencuci
mendoakan
menerus
menginformasikan
menhub
menyembuhkan
menyindir
mohammed
muhamad
nelson
notabene
nyamuk
panther
payah
pemangku
persediaan
pk
ponorogo
poso
ranieri
reputation
richter
rindu
ringkas
schumacher
senantiasa
siro
sound
susy
terkemuka
tombak
untungnya
versus
vi
yatim
yuk
zulham
alis
andil
antarklub
benfica
berkecimpung
berpesan
berujar
bulog
cabor
cake
cal
carey
county
demam
deulofeu
dibatasi
diblokir
dijamin
dijanjikan
dimenangkan
disematkan
ditaksir
edaran
enterprise
fantastic
fellaini
filosofi
financial
forensik
futsal
hilangnya
ignasius
jason
jemaat
kabul
kartika
kedaulatan
kelola
ketimpangan
kiriman
kolega
kolonel
loyalitas
lrt
maduro
meiga
melekat
melesat
membenamkan
memberinya
menggoda
menikahi
morgan
mrt
nikmat
now
pencahayaan
perselisihan
pita
portofolio
pranowo
problem
puncaknya
qualcomm
safety
sampel
sasis
seekor
sembarang
smk
sosialnya
tautan
tembagapura
verona
villarreal
voice
well
aksesoris
alan
arts
azwar
beber
beranggapan
bersaksi
bertukar
blbi
bodi
bromwich
diah
dibalas
diharuskan
diusir
drop
duri
dwp
edison
effendi
eriksen
fitness
geofisika
handphone
human
idol
ijazah
input
intelligence
jadinya
jas
kaitannya
kejelasan
kelembagaan
kemasyarakatan
ketergantungan
kkp
koki
legend
mampang
marcel
matchday
melempar
memalukan
membubuhkan
memburuk
menekuk
meneliti
mengekspresikan
mengguyur
menko
menumbuhkan
minimalis
mirror
motorsport
nation
nila
oposisi
patrick
pebisnis
pembersihan
pembuktian
pengumpulan
penyusunan
perjalanannya
progres
puisi
ragunan
rest
royal
sail
santa
science
seimbang
senyum
shah
sigap
sindikat
sr
stock
susulan
talkshow
terkuat
toronto
true
tunjangan
venture
veronica
won
yunus
adhi
albert
apriani
asumsi
atribut
audisi
bekal
beranggotakan
berjaga
berjalannya
bermaksud
bey
booth
bundaran
castro
ceska
chrisye
coppa
demonstran
diawasi
dicegah
digemari
dikaruniai
dipta
disangka
engku
greg
gregoria
hawaii
hitung
idham
ikat
item
jagoan
jaring
jasad
javier
jonru
keahlian
keempatnya
keith
kemlu
kepindahannya
keunikan
krukut
ktm
kualitasnya
labuan
lamar
latif
little
mada
mayor
melemah
memadukan
menawan
mencerminkan
menggambar
menggulirkan
menghalau
mengisyaratkan
mengukir
mengupayakan
menyapu
merk
nomine
noor
over
palang
pecahan
pejuang
pemanasan
penentu
permulaan
perseteruan
pesinetron
pon
preview
provokasi
puan
rahim
rd
referensi
rehat
roni
sarung
semenanjung
serdadu
soeharto
spot
stones
taeyang
tertekan
tora
town
tuban
ungu
view
ajakan
amd
ampuh
anggun
aoki
berbuka
blibli
buta
cinema
corsair
cyrus
dead
dermaga
diaspora
dicky
dicoba
difokuskan
dilakoni
diletakkan
dimilikinya
dimulainya
dinamakan
diperbincangkan
disambar
ditengarai
editor
electronic
faktual
ferguson
gianyar
halamannya
halep
kecanduan
ken
kesedihan
keterampilan
kuwait
lezat
mainkan
mainnya
mangkir
martapura
match
melania
meluas
membelinya
memperbarui
mengesahkan
menggeledah
menggenjot
metropolitan
minimum
moses
mulanya
neraka
pacu
paparan
pebulutangkis
pelindung
pemukulan
pemutusan
penanda
pendirian
pengurusan
peninjauan
peragaan
perbandingan
perlintasan
porno
puteri
rambutnya
registrasi
rem
research
reskrim
retail
rpm
salinan
saudaranya
segan
sekilas
sontak
sporting
subang
surga
syahrini
terhambat
terowongan
tertanggal
three
tongkat
triawan
valentine
variety
vip
xinhua
akselerasi
alberto
analog
badui
basarnas
bay
berpasangan
berpusat
bunda
cakupan
conference
des
dibaca
din
dipertimbangkan
dirut
disebar
edward
efektivitas
elza
evans
fenomenal
florentino
gordon
hiasan
julian
just
kalaupun
kartini
keanggotaan
kecemasan
kejar
kematiannya
kepedulian
keracunan
kesepuluh
kickstarter
kitab
lebron
lupus
manuel
menusuk
output
pebasket
pegiat
pemotongan
pendampingan
pengawal
penuaan
peradaban
permainannya
perum
petersburg
predikat
printer
psikologi
queen
rasyid
sandra
santri
septian
serpong
sineas
solok
telegraph
terpercaya
tertunda
tinta
upgrade
vakum
vendor
vikri
wah
wan
wild
wimbledon
yunani
aladdin
athletic
base
belas
bersyarat
boys
bsd
bulgaria
bungkam
buron
cair
check
citilink
cut
dakwah
dell
dibantah
dibuang
didatangi
dikelilingi
dimeriahkan
diselidiki
djarum
doli
douglas
edge
hamka
iannone
identitasnya
ikonis
keajaiban
kediri
kegiatannya
kelengkapan
keributan
kerumunan
koper
mabuk
matt
mempermasalahkan
mojokerto
narasumber
nerazzurri
nm
olivier
otonom
pa
paulinho
paus
pemiliknya
penunjang
peranti
pergelangan
pertanda
peternak
pinggiran
potong
privat
proyeksi
sakti
sampdoria
senat
sendirinya
serigala
sesudah
setting
solusinya
spa
stade
suv
ter
terhormat
terputus
thiago
training
travis
trending
umar
unduhan
wall
alas
bangka
baris
berambisi
berkala
berlebih
cengkareng
curah
darussalam
denny
dibendung
diboyong
didengar
dieksekusi
dipasangkan
fed
fifty
fleksibel
folger
goblin
grace
handang
hasrat
hull
indie
insigne
irawan
jamu
jiexpo
kebingungan
kekacauan
kelayakan
kepalanya
kerasnya
keseriusan
kit
konsol
korbannya
kroasia
lapis
look
melompat
membiayai
mendes
menghuni
menjualnya
menyiarkan
metabolisme
mocca
nafsu
navigasi
next
notice
obligasi
olga
or
pangandaran
pedro
pelakunya
pendalaman
penganugerahan
penjaringan
perkelahian
persnya
pesaingnya
portable
press
prilly
prime
quadra
realtime
robben
rscm
rutinitas
sangka
senen
sentra
sewaktu
shades
simanjuntak
situmorang
sukhoi
summer
tenggat
terjalin
tigor
today
tugu
valley
vehicle
wina
women
zen
zhang
zika
akademik
akademisi
batak
bentuknya
bergeser
berhijab
bermuatan
bersabar
bersaudara
biang
biglia
budget
busan
cacat
catur
class
communication
con
contact
debit
dialaminya
diberangkatkan
dibubarkan
difabel
difteri
dikritik
disempurnakan
disuruh
donny
eggi
elevenia
fatal
flyover
gaal
guterres
hilton
ijen
jangkrik
jefri
joseph
jurnalistik
karakteristik
keberanian
kehidupannya
keikutsertaan
kentang
laksamana
linkedin
maut
md
mencium
menjemput
merepotkan
mitigasi
move
nicolas
obesitas
pacar
pal
papa
pedang
pencuri
pendapatnya
penelusuran
pengejaran
pengenalan
penyempurnaan
perhiasan
perkembangannya
phil
pistol
psikologis
px
radiohead
ramsey
rekrutan
reksa
sabun
salahnya
selam
selat
sesak
soundtrack
stan
streep
tjahjanto
tool
traffic
ukraina
urung
waduk
zero
akar
amunisi
balotelli
battle
bennington
berbanding
berdialog
berimbas
betah
bnpb
bob
chong
darinya
dewata
diganjar
disini
ditekan
ditopang
domba
dpw
effendy
fabio
ffi
ga
gardu
genangan
hardy
irma
irving
jane
jenjang
kafein
karawaci
kemelut
kepelatihan
kontes
kopassus
malas
manahan
manfaatnya
marino
melayang
meminjam
menakutkan
mendanai
menebus
mengantre
menggiring
mil
miley
miliaran
mission
motornya
nani
normalisasi
nursalim
nyalla
oce
ooredoo
orlando
pelapis
penampungan
pengamatan
pengangguran
pengatur
pengawalan
pengendali
penunjukan
penyembuhan
peranan
periksa
persepsi
perundangundangan
polii
pratikno
priok
rgb
ross
sadarkan
sarjana
saus
sedianya
sekelas
semesta
shape
spasojevic
spektakuler
sturridge
terlaksana
tertera
thai
tidal
toh
tpf
vazquez
vertikal
wna
woods
zulkarnain
agnez
ambulans
aming
anne
baggio
bajo
banjarnegara
bereaksi
birokrasi
bixby
boss
cameron
cech
chi
chicco
dalang
daratan
detil
devils
didistribusikan
diidentifikasi
diincar
dikenai
diproyeksikan
diramaikan
ditanggung
diunggulkan
dodi
draf
echo
espargaro
fernandez
foster
fujifilm
hijab
ida
ikea
instalasi
julianto
kalibata
karpet
kemaritiman
kerangka
konsekuensi
ku
kumpulan
landas
lembaganya
lingkup
ltd
matcha
melantunkan
melestarikan
memotret
memulangkan
menanam
mendunia
menggebrak
mengimbangi
mentimun
merangkap
merintangi
micro
milimeter
musa
natural
niaga
ntb
nyawanya
odang
oprah
orgasme
pengajar
penggerebekan
penglihatan
perorangan
pesohor
rawat
saifuddin
saragih
secepat
sedap
sepihak
singo
siswi
stoner
sutrisno
talent
taliban
tender
terbangun
transparansi
turbo
udang
underpass
var
wtp
yordania
account
akumulasi
angkanya
armand
baidu
bedah
berbunyi
berdaya
berkebangsaan
cahill
cibubur
clean
coast
cuadrado
dekatnya
dekorasi
diancam
diare
dilipat
dimasak
dipantau
dipelajari
diplomasi
direkam
disebarkan
eksepsi
five
future
ghana
gun
gurih
habitat
hanks
hassan
hizbut
hoffenheim
ibarat
idealnya
ilustrasi
jatuhnya
joachim
kabin
kaitan
karbon
kecilnya
kehebatan
kerajinan
kominfo
kunjungannya
kyi
laila
lpsk
maman
memfokuskan
memperketat
menanamkan
menelurkan
mengadu
menganalisis
menggenggam
mengukuhkan
menyakitkan
menyulitkan
meragukan
merindukan
moore
oxlade
pacaran
pbnu
pedersen
pelari
pemantau
penginapan
peradangan
perkeretaapian
perspektif
police
records
rift
rinaldy
royke
sarah
semusim
sharp
shooting
slovakia
soni
sop
southgate
ssd
sukarelawan
suntikan
suu
tahrir
targetnya
tekad
tekel
tel
terbunuh
terumbu
things
thriller
usul
variasi
watson
www
yasin
yusri
ahmed
amankan
assad
aviv
bawaan
berkencan
beton
bilbao
blizzard
budiono
camera
cianjur
crane
danu
dijajakan
dilayani
djan
domain
fachri
faisal
fakhri
feyenoord
finish
gadot
gebrakan
hendro
homecoming
hugo
hunian
infinity
inspektorat
intim
kadin
kargo
kembangkan
kontainer
koscielny
kris
launching
let
lion
lurus
makkah
masker
mataram
mbah
melejit
melengkung
mematok
memperlakukan
mencolok
mengintegrasikan
meniru
meniup
menyanyi
menyatu
miguel
mukti
ni
olly
pelamar
pemblokiran
penggantian
penyerapan
perantara
perbelanjaan
pkl
privasi
rentetan
roll
saji
seketika
shopping
simone
snow
spice
surut
sutan
tabrakan
tanoe
tasikmalaya
tawa
tebusan
teori
thunder
ti
ukur
wilayahnya
zakat
amnesty
anung
asalnya
bakauheni
ber
berakibat
berangsur
bergaya
berkah
berkiprah
berkonsep
berpihak
berpuasa
boyolali
bujet
bulutangkis
cam
carlton
carolina
ceramah
charging
cook
dele
detasemen
diingat
dinamis
direct
disumbangkan
ditunjang
djp
dream
edan
ernesto
familiar
forward
ganjil
gita
huang
idn
iron
ix
jernih
jilid
kayaknya
kejati
kelancaran
ketahuan
klimatologi
kmh
konkret
kursus
ladang
lib
linkin
mapolres
meladeni
melesakkan
membantunya
membenahi
mempekerjakan
mengarungi
mengidap
menginstruksikan
menyedihkan
muhaimin
musibah
outdoor
pack
pass
peledak
pemasok
penggunaannya
pengin
penjualannya
pernapasan
pieter
psi
pulsa
puluh
puskesmas
redaksi
saifullah
sekalian
sentimeter
sepele
simpatisan
soalnya
spirit
syaratnya
tanggap
tensi
termotivasi
tidaknya
uangnya
ustaz
village
vision
wedding
yen
yogi
ah
ajak
akui
akurasi
alexandre
amg
antiteror
arsyad
bagas
bappenas
bengawan
benny
berburu
berdekatan
berlabel
berselisih
bertransaksi
bijak
bojonegoro
butuhkan
cc
celtic
competition
diakuisisi
dibebankan
diburu
dievaluasi
dikurangi
dipromosikan
dirahasiakan
duren
durian
edwin
elit
fund
gbr
giuseppe
helmi
horan
insan
irisan
irwan
istanbul
isyana
jendral
jobs
joo
kamp
kawalan
kelly
kemdikbud
kewajibannya
khedira
kios
kjp
klas
komitmennya
konsepnya
kunyit
lamaran
lawrence
leluasa
lengah
makedonia
maksudnya
malaga
mariah
mbak
melebarkan
melly
memantapkan
membina
memelihara
mendagri
mendaki
mendistribusikan
mengecoh
menggemaskan
menipiskan
menyegarkan
menyehatkan
menyesali
menyisir
minus
mirrorless
muatan
mutlak
naver
netanyahu
ongkos
patungan
pelajari
pelanggar
pelosok
penarikan
pengunjuk
pengusung
penuntutan
perda
personil
pit
polaroid
pradana
pungli
rachmat
relasi
rika
riri
roman
seung
siklus
sissoko
situsnya
snap
sophia
spacey
spin
style
subroto
sulaiman
sumbar
syamsuddin
tangani
terdekatnya
tersembunyi
trik
turunnya
valuasi
vincenzo
voucher
vujovic
waralaba
wawasan
yon
adopsi
asn
awet
berbenah
berjaya
berlabuh
berlambang
bernaung
berpenghasilan
berskala
bersuara
bersumpah
bike
bocor
camat
cannes
cibinong
cilegon
cintanya
coffee
cross
cuit
diatasi
diceritakan
dikabulkan
dikendarai
diperlihatkan
dipulangkan
dirumorkan
diwujudkan
dji
dunkirk
ebt
emiten
emmanuel
eselon
etika
fahd
fauzan
hamdi
hardianto
hospital
idris
ihwal
ismed
iwa
jatibaru
jenkins
jeroan
jesse
johor
kasasi
katalonia
kelimanya
kemih
keseruan
key
khalid
konversi
kritikus
kuching
lahirnya
law
mcmenemy
meeting
melemahkan
melunasi
meminang
mendiskusikan
meneer
menendang
menepi
mengelabui
menyamping
michel
michelle
microsd
misbakhun
mkd
mo
musala
nasionalisme
nikon
olimpico
om
pedoman
pence
pengembangnya
prinsipnya
rakernas
rujukan
salatiga
selangkah
sendi
setyawan
seventeen
sleep
spbu
special
teaser
tekstur
terkendala
tersimpan
tunjukkan
two
ucapannya
udinese
urine
walcott
willy
yuan
acaranya
ajaib
akomodasi
are
artificial
ashley
atari
atletik
azis
belia
bergabungnya
berkesan
berlapis
bermakna
bersarang
bertanggungjawab
bibit
bimbingan
bppn
butler
carvajal
chiellini
clasico
debora
diamond
didaftarkan
dihiasi
dilirik
dipertanyakan
doping
dorong
fatmawati
fiskal
focus
gelael
geng
genoa
gosip
hdmi
holland
icon
ikhlas
image
inap
inka
jalinan
jogja
kalsium
karyawannya
kedah
kelab
kemenkeu
kemudi
keponakan
keramik
kesha
kimi
kolektif
kolektor
konstitusional
kosta
kurdi
kurus
kutai
lanka
lorong
luciano
maradona
marinus
mekar
memberatkan
memikat
memintanya
memotivasi
memprioritaskan
memuluskan
mendekatkan
meneken
mengeluh
menggalang
mentor
menumpang
merepresentasikan
merumuskan
mesum
mewajibkan
mikrofon
milner
miring
misterius
morbidelli
moyes
mw
ngawi
nolan
not
orangnya
paku
pamer
pdb
pelan
pelemahan
pelni
pemerasan
penggerak
penyelidik
penyiaran
perokok
princess
probolinggo
produksinya
puting
ragnarok
rantai
sadio
sepintas
server
singa
su
sugiarto
suryo
taufiq
teduh
tepung
terbantu
terbebas
terpapar
tertidur
teuku
thibaut
tiada
udin
ugm
umumkan
wave
weekend
wirausaha
wit
working
yah
yama
yanto
admin
advokasi
agency
aqil
argumen
ariel
bakso
bersembunyi
bersumber
berwajib
beverly
blogger
blunder
branding
bruto
budidaya
bukunya
bundar
buntu
celine
charge
charlie
color
coruna
database
delhi
dialihkan
digugat
diimplementasikan
dilupakan
dimaksimalkan
ditawari
ditumpangi
dono
duit
eddie
energy
engineer
enzo
estadio
euforia
fatah
fiji
fokusnya
forbes
from
gawai
gedor
great
harimau
hawa
hdr
hm
idolanya
indro
inklusif
jombang
jonathan
kalo
kapitra
karakternya
kasablanka
keberadaannya
kegembiraan
kemiripan
ketiak
kids
komputasi
kongo
kronis
laporkan
larut
leisure
leonard
lions
ludes
maklum
maldini
melamar
memadamkan
mematangkan
membanggakan
mempelai
memperlebar
memprotes
mencukupi
mengemudi
mengorbankan
merevisi
middlesbrough
minang
misal
moreno
morning
mutu
nahas
naiknya
optik
org
page
palmas
panda
pantura
parc
pasaribu
pasukannya
paulus
pawai
pelanggannya
pelengkap
pemadaman
pembenahan
pendataan
penulisan
penyampaian
perkawinan
permai
perombakan
persada
petir
phk
polhukam
postur
presidential
prototipe
purpose
putar
radius
raheem
riko
rivalitas
riza
roboh
sacramento
saga
sandera
save
sebidang
slogan
spectre
strap
superior
surakarta
tea
teguran
telanjang
terkendali
terlupakan
tiram
valve
vincent
wakilnya
zenfone
alpha
anderlecht
asuhannya
ayo
beasts
beku
bersorak
bertumbuh
bless
brutal
bugar
cd
ciptakan
creative
datangnya
denis
design
detroit
dibarengi
dicanangkan
dicintai
dipahami
dipersilakan
disclosure
ditenagai
diy
engadget
exchange
fadilah
fleksibilitas
gameplay
gerbong
guncangan
hansamu
ian
imbas
intelektual
interaktif
itb
jacksen
jeff
kawannya
kecurangan
kenyang
kilat
lelucon
likuiditas
local
mandala
marinir
marsha
masyarakatnya
mayjen
mazda
mekkah
membendung
menggempur
menghembuskan
menjelma
menular
menyoal
mindanao
motors
muri
nielsen
ong
owi
pelayaran
pemberlakuan
pemerkosaan
pemindai
pendopo
pengecualian
pengiklan
perdata
perhatikan
pikirkan
pin
pinangan
praktek
predator
proliga
propaganda
publisher
rahmad
ramon
raul
ready
rendy
rocket
sains
scudetto
sedunia
sehubungan
selebihnya
semaksimal
senggigi
setelan
sinisuka
siraman
syamsul
tajuk
tax
tenggorokan
terdeteksi
tunggakan
tyler
ulah
vardy
wabah
waskita
afgan
aleppo
alien
andres
ardhiyasa
aspar
awaluddin
badminton
bajaj
barbie
barkley
bazaar
belaka
bergegas
berkonsentrasi
berposisi
bersahabat
caesar
cangkir
champion
chester
chocolate
ciledug
coco
committee
cream
darmawan
diajarkan
dialokasikan
diaz
dicaprio
didalami
didi
digawangi
dihilangkan
dihubungkan
dikatakannya
dikisahkan
dinanti
dipadu
dipandu
diposisikan
diving
doanya
doktor
edinson
fadil
farid
firmansyah
gal
gala
heat
hemsworth
heryawan
il
inspeksi
jagakarsa
job
kakek
kandungnya
kedepannya
kemendikbud
kepemimpinannya
kewaspadaan
kiki
konsistensi
kontestan
kontribusinya
lab
laser
macbook
maha
manny
melantik
meletakkan
melirik
menangkal
mengantuk
mengibarkan
mengurusi
menyulap
merombak
mustofa
mutasi
najwa
orangtuanya
patuh
pegang
penayangannya
penculikan
pengenaan
pengeroyokan
penggantinya
penyajian
penyama
percintaan
persembahan
pijat
pledoi
polwan
ppn
presentasi
rekrutmen
ro
ryamizard
satya
screen
seram
shakhtar
sindrom
skype
sulitnya
superman
supermarket
supir
taeyeon
tank
techcrunch
teriakan
theo
tisu
tumor
valtteri
wagub
weekly
welbeck
wig
wolfsburg
zain
zte
agraria
aher
aisyah
ajudan
aleix
ander
aniston
aperture
bailly
bakayoko
belahan
beracun
berbarengan
berkeras
berperang
bersantai
bersinergi
bicarakan
bruce
bryan
building
but
button
cambuur
campaign
chievo
daydream
deteksi
dianulir
dihantam
dimenangi
dimuat
direalisasikan
direbut
disayangkan
ditanggapi
eksperimen
empuk
federico
fire
gairah
gaston
gugup
guy
hangtuah
hargianto
hehanusa
helm
hermansyah
imajinasi
interpol
intimidasi
inzaghi
islamic
josefina
jualan
kapasitasnya
kebumen
kemenkominfo
kepri
keramaian
keringat
keutuhan
kontemporer
kontributor
kudus
kulkas
legends
loh
lounge
malware
mangga
manusiawi
marin
mauro
membesar
meminimalisir
memperbolehkan
memperjuangkan
memungkiri
menaiki
mendasar
mengaitkan
mengembuskan
menolong
menyeramkan
merangsang
merosot
mg
miras
mood
objektif
orbit
orde
parfum
pasangannya
penggusuran
penguji
picture
playlist
presisi
profit
rene
rex
ruhut
sammy
sane
sc
sederhananya
selebar
services
sesegera
setiabudi
solossa
spielberg
stamina
suguhan
sukai
synchro
tembakannya
terealisasi
terinfeksi
terpampang
terpopuler
tetangganya
titiek
tong
tribune
ulasan
wasisto
wolf
yohana
abdurrahman
administratif
ananda
antibiotik
assen
asyik
atasan
baduy
bakti
bangkai
banking
banteng
barry
beralkohol
berapi
berbayar
bernardo
bingkai
bintangnya
bonek
cagar
cewek
choirul
danur
deportivo
dianggapnya
dibalik
diinisiasi
dikaji
dilimpahkan
dimatikan
dioptimalkan
dipergunakan
dirayakan
diskriminatif
dituduhkan
ditugaskan
dorna
dosis
draxler
dulunya
ear
ekuador
ellen
elpiji
enggartiasto
fighters
fikri
finalis
finance
france
garasi
geografis
guangzhou
haknya
hilman
hungaria
ilija
jafar
jakut
jelaskan
jera
jia
josep
jufriyanto
jurang
kb
kedepan
keppres
keunggulannya
kia
kiai
koni
kumpul
latih
lawatan
lisan
lubis
mahfud
maia
mekanik
memberitahukan
memperbanyak
menanduk
mencobanya
mengudara
menyangkal
metallica
minaj
mirza
nazar
ngobrol
party
pati
pembalap
pemerataan
pengaman
pengangkut
pensiunan
percetakan
pinggang
pingsan
rak
raqqa
rendahnya
resiko
ritme
rompi
rusa
samosir
sat
saul
sebelas
sitompul
sperma
stadio
starting
sutarjo
take
teleskop
temanggung
terbaring
terciptanya
terkumpul
tevez
theresa
tirai
topan
torsi
unai
uzbekistan
viii
vulkanik
wamena
wolff
xmax
angkut
aulia
austin
australian
bangkrut
basna
benak
berbahagia
berbatasan
berspekulasi
bodoh
booking
bosnia
brankas
caption
chairman
ciptaan
cobalah
crime
dibalut
dibenahi
diisukan
dilibatkan
dimungkinkan
dipikirkan
diredam
dishub
ditegaskan
ditorehkan
donat
eceran
feby
fest
fifth
fortuner
gavin
geforce
gejolak
geram
gerrard
gerwani
gm
hacker
heung
hill
humble
if
immobile
impossible
indramayu
interface
its
jenius
kabut
kantung
kas
kecintaan
keharusan
kelalaian
kemenangannya
kendall
kepribadian
kesetaraan
kesibukan
ketenangan
keterkaitan
kiprahnya
komplain
kpai
kuman
kuncinya
kupon
lake
letak
literasi
maestro
mampir
manson
marathon
melumpuhkan
membosankan
memeluk
memposting
mencermati
menerjang
mengedit
mengelilingi
menjabarkan
menkominfo
menonjolkan
mensos
menukangi
menyalahi
menyelesaikannya
menyingkap
menyukainya
menyukseskan
menyusuri
meracik
merajai
minh
moch
modular
nafa
nahdlatul
nanas
neuer
ng
nganjuk
nyanyi
outlook
pacitan
partisipan
paspampres
pasuruan
pemberontakan
penampang
penangguhan
pendingin
pengarah
pengertian
pengundian
playboy
polrestabes
pucuk
radja
rahadian
ronaldinho
rosberg
satupun
schalke
segelas
sekadau
sial
solar
stainless
sukamiskin
sup
tendean
terbawa
terjaring
terjawab
terkandung
terpilihnya
tersandung
tertimpa
thohir
ting
token
topping
westlife
yana
yourself
aa
abduh
acak
airasia
alba
aljazair
alone
alot
alzheimer
amanah
arman
aung
autopsi
awakens
basketball
batch
bautista
bayinya
beratnya
bersepakat
bersua
bertubuh
berurusan
blake
boe
britney
buronan
care
casing
chandra
christine
coach
cooper
cover
creator
curry
dataran
deadline
demand
diakibatkan
dianjurkan
dicoret
didier
diduduki
dieng
dilanggar
dinantikan
dipersembahkan
diprioritaskan
dipusatkan
disneyland
ditanyai
diterbangkan
diterimanya
dituntaskan
diundur
diva
dukcapil
dukuh
elektrifikasi
esa
esensial
gambut
gara
harmony
hasyim
hindia
huddersfield
huffington
ingatan
inklusi
ir
jagat
jalil
julie
jun
kampanyenya
kebocoran
kejam
kelulusan
kip
kompas
kronologi
lai
leverkusen
lord
lukita
madya
mandarin
marouane
mb
membanjiri
membekali
mempertajam
menanggung
menata
menggantinya
menggetarkan
menggiurkan
mengimplementasikan
mengiringi
menumpuk
merengkuh
meringkus
mie
mino
minor
mirage
mogensen
mutakhir
nge
nguyen
nicky
official
opera
panggil
pembatas
pembuluh
pemeliharaan
penerbit
pengacaranya
penontonnya
penyumbang
perempuannya
pergeseran
perkataan
permusuhan
persalinan
pharrell
pipi
pmk
prambanan
princes
private
psy
rain
ria
rockets
ryuji
safe
sampang
santunan
selebrasi
senator
sendok
separatis
sepertiga
serbia
shaw
shinzo
signal
sintetis
speed
spesifikasinya
standard
sungguhan
tani
tanoesoedibjo
teriak
tersangkut
touch
trade
ubud
walt
word
yamaguchi
yuli
zokora
zuckerberg
akpol
ambisius
anderson
arsitektur
baghdadi
bandang
belasungkawa
berdirinya
beres
berkonsultasi
bermimpi
berpacaran
bersikeras
btn
cameo
change
cilik
clooney
clutch
computer
cpu
daniele
davao
dave
diadopsi
diangkut
didanai
dier
diperhitungkan
dipisahkan
diputus
disamakan
disembunyikan
dituangkan
diucapkan
diuntungkan
diwawancarai
du
esteban
experience
feri
find
flight
foo
fungsionalitas
getaran
globes
halo
hartanto
harvard
hongaria
hop
hpv
hyundai
incubator
informasinya
ipda
jahe
johansson
juanda
kamura
karung
kasihan
kasper
kecanggihan
keluarkan
ketik
kewirausahaan
kickoff
kito
konglomerat
konvoi
kunjungi
kurator
kurikulum
lembang
liat
lily
mahmoud
make
mapolsek
marko
maroon
martinez
marzuki
meditasi
meet
melawat
meluap
memandu
mencopot
menegakkan
mengadili
mengherankan
menurunnya
menyalakan
menyelam
menyerbu
merauke
merta
more
mugello
mulyono
munchen
musk
nacho
nuklirnya
ocon
palapa
panitera
pemangkasan
pembajakan
penyiksaan
percontohan
perindo
perlunya
perpecahan
persaudaraan
persiapkan
persimpangan
pertanyaannya
philips
pi
place
poros
potro
praja
punk
pupuk
pvmbg
rembang
repot
representasi
rintisan
riuh
rivaldo
ronny
rouhani
ruko
running
sabuk
sambo
seharian
selayaknya
selesaikan
senapan
siar
sonoda
srikanth
summit
supardi
superhero
surplus
sweet
syaikhu
tang
tc
terserang
too
totalnya
tracker
tyson
utusan
virgin
vuitton
wear
yandri
yel
abc
acho
adidas
agresivitas
aktivitasnya
alarm
aprilia
ara
arahnya
asman
asri
bahas
batin
batubara
bengkalis
benyamin
berbisnis
berkabung
berkelas
bertemakan
blood
boca
bolt
borini
cagliari
capres
carrick
centimeter
cermat
charlotte
corp
curug
cynthia
diabadikan
digusur
dijawab
dimotori
dipajang
diperebutkan
diperluas
dipindah
diponegoro
dipungkiri
disandera
disantap
draft
eibar
fabregas
fosil
gang
grafik
hasanuddin
hermanto
hip
host
illegal
industry
ironisnya
jamuan
janjinya
jasanya
jelek
jinping
kaleng
kennedy
kepatuhan
kepulangan
kerber
kesalahpahaman
kidul
komjen
kontennya
kovacic
kramat
kurma
lalulintas
langkahnya
lennon
lift
lincah
lingkar
lloris
lunas
mad
maharani
mahmud
melibas
mendesain
mendukungnya
menembakkan
mengagendakan
mengakomodir
mengalokasikan
menganut
mengedukasi
menghimbau
menginisiasi
menjembatani
mitos
moana
moderat
mual
nari
ngotot
nike
nyanyian
oil
optimisme
pakem
pandai
panorama
pasarnya
password
paypal
pemberangkatan
pementasan
penata
pencabulan
pendengar
penyeberangan
persuasif
pertunangan
peruntungan
piatu
pizzi
pluit
pom
pretty
psikolog
pusamania
rama
ramping
ranking
record
remote
renault
rilisnya
rinjani
sahamnya
sami
sampul
season
sejuk
sekota
seruan
sucipto
superbike
tenar
tencent
terhadapnya
tewasnya
titan
toll
tragis
tukas
tunda
under
upayanya
usman
utami
wallet
wide
wigan
wiski
wongso
yuyu
zaky
zombie
aga
agennya
airways
aksen
alamnya
alvarez
anggi
animo
ardianto
arturo
asas
asimilasi
atp
august
avatar
balawan
banega
benih
beralamat
berebut
berjangka
berkembangnya
berlindung
bersalaman
bertambahnya
bloom
bloomberg
boyzone
bryant
cahyo
classic
cowok
culture
dara
dicek
dicurigai
dikemudikan
dipaksakan
ditindak
dokumentasi
dolores
dominic
dot
edar
emmy
emre
entitas
evelyn
faksi
felipe
fiktif
firefox
fisiknya
flynn
gatal
gattuso
gengsi
hafiz
hamburg
hanafi
haus
heard
heritage
hery
hidayah
hondo
hukumannya
ikonik
individual
investment
jackman
jc
joy
kaitkan
kebenarannya
kelasnya
kendrick
kerinci
kerukunan
ketidakpastian
konsulat
kresna
kuah
lapak
laurent
lemahnya
loyal
manokwari
mans
margin
meazza
meletus
meminimalkan
memphis
menerjemahkan
menerpa
menghindar
mengimpor
mengurai
mentawai
menyodorkan
merintis
mirwan
moratorium
nabi
nanda
natuna
neo
obrolan
olx
omong
onsu
operan
paduan
pakan
panca
pandjaitan
paramore
paten
pekalongan
pembantu
penasehat
pendaratan
pengampunan
penggarapan
penugasan
penyegaran
perawat
pertanahan
pmi
pnri
polo
porsche
pulo
punah
reinaldo
rider
rinciannya
rintangan
risma
rolls
room
roro
salmon
sebaik
see
segenap
segudang
sekolahnya
semenit
semeru
sihir
silicon
silverstone
simpati
sorong
soviet
stefan
sting
subdit
sudan
tanjakan
tap
teknisi
termas
teten
tilang
trip
triple
turunan
uea
vds
virgil
wn
yap
abaya
alessandro
alunan
angklung
army
atlanta
auditorium
bahrun
berambut
berkostum
bermartabat
beruang
bundel
calo
cap
casey
cipto
circuit
civic
collaborator
college
comedy
concept
corporation
credit
dalami
damaskus
damon
daur
delik
descendants
desmond
devisa
diatas
dideportasi
dior
dipidana
diplo
direkomendasikan
disiram
ditanyakan
dries
elton
embarkasi
exhibition
fifi
flag
fondasi
franchise
franck
garmin
gempuran
gerhana
ghani
gramedia
grey
ground
harman
hashtag
hz
icw
ikm
investasinya
islami
jago
jamil
joel
kaku
karanganyar
kartanegara
kartun
kebagian
keberhasilannya
kelainan
kementrian
keragaman
kerjakan
kesalahannya
keterlibatannya
khalayak
klitschko
kloter
knight
kuburan
kyle
lajur
laudya
lemas
letnan
liang
library
limited
logan
lulung
mapan
mardani
marina
mediatek
melemparkan
memberangkatkan
mementahkan
mendaratkan
menerimanya
mengagumi
menggusur
menghebohkan
menilik
menipu
menopang
mentalitas
menyambutnya
menyuruh
merkel
millennial
mingguan
miralem
monte
nemanja
nostalgia
olympic
once
owen
pangkat
paramount
pari
pebble
penampakan
penduduknya
pengantar
penggagas
pengikutnya
pengiring
penyesalan
periklanan
pistons
pose
proklamasi
prospek
psis
puji
purba
purwokerto
putusannya
radang
rangkap
remix
replika
reruntuhan
reserve
retak
roh
royce
safari
sakura
salihin
seberang
setibanya
sikapnya
silahkan
siwon
smalling
sn
soemarno
spektrum
sporty
standalone
stark
suaka
substansi
subur
suk
sukarela
sunset
susan
syihab
tenor
terbesarnya
tercinta
tergelincir
terindikasi
terlanjur
tersentuh
theatre
timothy
tingkir
toulon
tpu
ubah
ump
usa
vermansah
wakatobi
warnanya
yangon
yesus
zamrun
ziarah
ahad
akuarium
amelia
andal
antam
arfan
badannya
balutan
banggar
bantaran
berbohong
berkutat
bernapas
bernegosiasi
blanchett
carrie
cederanya
chand
cheng
ciuman
clarke
cohen
columbia
consumer
davide
davies
debbie
dede
default
detikcom
diimpor
dikecam
dilan
dilapisi
dipertanggungjawabkan
diretas
direvisi
ditinjau
eja
ekonomis
eminem
engkel
fernandinho
field
fusion
gbk
gian
gilang
girlband
gmail
gray
hadad
hamdan
harmonis
hills
honorer
houthi
hs
idaman
imin
indahnya
indiana
insinyur
internazionale
itunes
janda
juku
kameranya
kanit
kapuk
katering
kazakhstan
kelistrikan
kemauan
kemenko
kerinduan
kesayangan
koma
komplikasi
kri
kulon
kutu
lars
lepasan
lereng
libanon
lorde
maguwoharjo
makmur
marwan
matamata
matematika
maurizio
mcdonald
medicine
melecehkan
meledakkan
meleset
melulu
memberdayakan
memberhentikan
mendata
menegangkan
menekuni
mengabdi
menganjurkan
mengaplikasikan
menggodok
menghidangkan
menjajaki
menjelajah
menjunjung
menyedot
milovanovic
mobilitas
modifikasi
moneter
mudanya
multiplayer
nasihat
nathan
netral
novri
oklahoma
olehnya
ombudsman
otonomi
pad
pelaksanaannya
pelelangan
pelestarian
peluangnya
pena
penghalang
penghasil
peperangan
performance
persenjataan
personelnya
petasan
policy
politis
ponselnya
posesif
purwo
putuskan
rasis
refresh
restrukturisasi
riasan
router
rumahan
saba
samir
sani
sh
sinema
singh
skuad
soba
somalia
stagnan
tebet
technical
temen
tengkorak
terbenam
tercermin
terfavorit
teridentifikasi
terimakasih
terpuji
terpusat
tertanam
tindih
trail
ultimate
va
vino
yan
aktingnya
amandemen
apron
ayal
balaikota
barangkali
bener
berbendera
berdalih
beredarnya
berekspansi
berekspresi
berkepala
berlawanan
bersubsidi
berteknologi
bolanya
brisbane
brodjonegoro
budiyanto
buruan
buya
camila
cemara
cikini
clark
cola
cortana
curhat
dangkal
dashboard
debitur
deskripsi
dibongkar
didekati
dikemukakan
dikenang
dikhususkan
dilahirkan
diperintahkan
dipimpinnya
disampaikannya
disengaja
diteken
diterjang
diterjemahkan
dumai
eiffel
ekonom
electric
emir
entrepreneur
exit
fitriani
gajayana
gateway
gayo
gencatan
goh
gym
handset
harmoni
hebatnya
her
hunt
ifa
informal
inisial
ips
iritasi
iuran
jared
jebakan
jitu
joon
juju
kanjeng
kembarnya
kencan
kinerjanya
koes
kuantitas
kusuma
kvyat
launcher
lazim
legislasi
lembaran
leon
list
lonely
longsoran
loris
luasnya
ly
mahasiswi
malaria
marie
martins
matsunaga
mawar
mekah
melahap
melepasnya
melimpahkan
memaafkan
memory
mendikbud
meneriakkan
mengemban
menghajar
menginjakkan
menguap
menjauhi
menyaingi
menyarangkan
menyaring
menyiagakan
menyuap
merebak
merendam
merenggut
migran
minnesota
mp
mpok
munaf
mustafa
nano
nieto
nikmati
noise
nwokolo
oka
ousmane
panjangnya
patokan
pd
pedalaman
pedangdut
pembersih
pemusnahan
penciptaan
penggugat
pengrajin
penyewaan
perampok
perdanakusuma
pertikaian
petr
pewarta
piano
pirlo
pivot
platinum
politiknya
posting
potret
pramugari
primadona
ra
ramli
range
rapbd
regenerasi
relokasi
restorasi
ririn
rookie
rubber
saas
salling
samudera
sapu
sarri
sciences
segelintir
sejarahnya
seniornya
seratus
sfc
shelton
shot
sindhu
singkawang
sitorus
skpd
smelter
snsd
sofa
storage
strike
surface
syaraf
syiah
syukuran
tangganya
tatkala
tawarkan
tegang
telapak
tepuk
terdampar
terisolasi
terkuak
terminator
termohon
terpaku
terpanjang
tertimbun
thompson
tomo
trial
tumpang
uap
ucapkan
umroh
vin
vvip
walian
ws
yonhap
youth
adas
after
again
airnya
akademis
akhmad
akil
americas
anime
annabelle
antonius
asmat
aston
bashar
beleid
berjasa
berkampanye
berkuda
berkulit
berkurangnya
bermainnya
bersikukuh
bertempur
besiktas
bing
bintaro
blockbuster
brooklyn
bundle
busa
cakung
cendana
cermin
chatting
chicken
communications
commuter
counter
csr
curiga
dallas
daop
darul
daryatmo
davis
definisi
denver
dibungkus
dicuri
didepak
digosipkan
diikat
diimbangi
dikonversi
diperbarui
diproduseri
disingkirkan
disokong
ditangguhkan
doakan
dslr
duke
edin
education
efeknya
elvy
ernest
ethiopia
explore
eye
fajrin
fame
favoritnya
fergie
foxx
fresh
gadjah
gandum
gelang
generation
glasgow
gorilla
hans
hengkangnya
heynckes
indo
innovation
insulin
itikad
jajak
jameel
java
jawabnya
joao
joice
jordi
jpg
jubir
kakao
kaset
kasubag
kebaya
kehamilannya
kelahirannya
kemasukan
keresahan
kesuburan
ketapang
kewalahan
kiblat
kick
kimmel
knicks
koin
komersil
kompor
konsumennya
konvensi
konyol
kudo
kuping
kuta
kutub
ky
lantang
lapang
lex
lurah
madison
magang
mahir
manajernya
manhattan
marwa
mascherano
masduki
mathias
matraman
matuidi
maunya
megah
melantai
mementingkan
memprihatinkan
mendapatkannya
mengagumkan
menganulir
mengemuka
mengucap
mengurung
menimpanya
menjauhkan
menkeu
menyakiti
menyeruak
meretas
meroket
mia
miftahul
nikel
nugraha
panasonic
pasrah
pelaut
pemotretan
penantang
pengkhianatan
penuturan
perasaannya
perbukitan
perhimpunan
perselingkuhan
pertambahan
pertanggungjawaban
pertimbangannya
plot
podolski
polling
pratt
prinsloo
progress
rajoy
rambutan
rancangannya
remeh
rendang
rep
reynolds
runtuh
runway
samad
samudra
secangkir
second
sejajar
seterusnya
shakespeare
shalat
shenhua
sirah
soo
spears
sugar
sumbangsih
sunter
suratnya
talak
tangsel
tawuran
telat
terapkan
tergenang
terindah
tersendat
theater
tip
tmz
tumbuhan
turunkan
unggah
velden
wimboh
wings
yoon
ajukan
albar
alberts
ambassador
amran
analisa
andrean
angkot
anto
apps
aqsa
ardian
arsip
awareness
bacca
beatles
beng
bergambar
berkeinginan
bersilaturahmi
bertengkar
biak
bird
biskuit
bitung
boer
bot
bulls
cant
century
cesar
chun
cicilan
cintai
cl
coca
crossing
dahsyat
damayanti
dehidrasi
delta
dhawiya
dibersihkan
didapatnya
digoreng
dihormati
dikait
dikategorikan
dinilainya
dipadati
disalip
disamping
dititipkan
ditransfer
dog
dress
edm
ejekan
ekstrak
estimasi
fitra
fm
galau
gemuk
georgia
graham
granada
guam
hadirkan
handuk
hiv
hoki
husaini
ilir
importir
indian
iq
iskan
jeffrey
juhl
kadiv
karibia
karta
kcna
kearifan
kehebohan
kejujuran
kelangsungan
kesembuhan
khasnya
kkb
klaster
kremlin
kuhap
kurangi
kutipan
kw
kwan
lakon
layarnya
lcr
leader
lo
lohan
lompat
lu
maladewa
mancur
mateo
melorot
mendidik
menganalisa
menganiaya
mengatasinya
menggantung
menggemari
menggerebek
menggigit
menggugah
menghirup
menguras
merangkak
milisi
misano
motorola
mufakat
muse
naufal
noda
norma
ohio
pacheco
padatnya
palermo
pandangannya
pemaparan
pembantaian
pemesan
pemrograman
penganggaran
penggiat
penyalur
peralihan
perth
phoenix
pickford
playmaker
potensinya
ppk
pramac
ramen
rapor
rasuna
rempah
rileks
rog
rojo
romero
sachsenring
sanak
scbd
sekda
semangka
seng
sepadan
serah
sheet
shop
siak
sihar
siliwangi
spontan
standing
strip
suksesor
sumpit
suprapto
surajaya
takdir
taufiqulhadi
tawar
teheran
temui
terkoneksi
terpancing
tersiar
tertipu
tertuju
threshold
tien
tk
tontonan
torres
treble
tusukan
urat
vp
warehouse
widjaja
xhaka
zainal
zaitun
zulkarnaen
abidin
ads
afif
algojo
alutsista
alvin
ambruk
ankara
anna
anyer
apex
ashraf
atmo
autodromo
avenue
aviation
backup
bahana
baim
barangnya
barulah
beach
begitulah
berbalas
berdampingan
bereksperimen
berembus
berkreasi
berpidato
berputar
bersekolah
boateng
bubaran
budjana
buriram
cabut
calya
casting
cempaka
cgv
ciamis
cikeas
civil
correa
council
dane
delivery
demokratis
dennis
despicable
detektif
diadili
dibawanya
dibuatnya
dideritanya
digali
diganggu
dihabiskan
dihancurkan
dinaikkan
disadari
disalahgunakan
discord
disk
drogba
dul
dunn
eduardo
edwards
embel
estate
evil
fanny
fight
furnitur
galaksi
gambarnya
gandul
gentar
gerry
gigit
grindelwald
grip
guillermo
handball
hanung
haru
herald
ht
huni
ijab
inflamasi
inkubasi
irianto
irigasi
isian
ivy
jaguar
jajang
jakabaring
jaman
japan
jarum
jenewa
joan
joey
kacau
kalsel
karma
katalog
kawin
kecurigaan
kedamaian
kejanggalan
kekecewaannya
kekosongan
kemenperin
kendal
kesabaran
keseharian
keterlambatan
klein
kolaborasinya
kotanya
kram
kudapan
kudeta
kuil
kumala
langganan
leluhur
luca
magnet
mandat
masukkan
mattia
melambat
melenggang
memasok
membayarkan
memilikinya
memperlambat
memperlancar
memulainya
memungut
meneror
menganggapnya
mengunyah
menyambungkan
menyeberang
menyeimbangkan
menyetir
merajut
mereda
mesjid
mewujudkannya
mic
mitchell
mj
moeldoko
nabil
nasionalis
neraca
neto
nicholas
nicola
nongkrong
nusakambangan
nyoman
obyek
ogah
oki
oliver
original
outlet
pahala
panci
pasif
peer
pembaharuan
pemetaan
penembak
perbaiki
pertamax
pesertanya
philadelphia
piring
piringan
plug
pondasi
pool
praktisi
pribumi
production
propam
provokatif
rano
reina
rekapitulasi
repatriasi
resah
romi
rooms
royalti
rukun
rumania
rusaknya
rush
sambut
santap
sape
saumlaki
sawahlunto
sciglio
segitiga
sejujurnya
sekuat
self
semedo
semudah
sependapat
serena
sianida
simpanan
sindiran
siswanto
skin
somad
songket
soon
sprint
stakeholder
staples
stnk
sudewo
sulut
sungkan
swt
ta
tabel
taipan
tanam
tancap
tangki
tatap
taufiqurrahman
tekstil
teladan
terbentuknya
terberat
terdegradasi
terlama
terluar
topeng
traore
truck
tyas
vader
value
watt
wba
wicaksono
zakir
zein
aborsi
adiputra
adonan
agya
akrabnya
alphabet
amatir
anemia
ansor
aries
armaiyn
astronaut
azpilicueta
bakrie
ballroom
basel
basi
bayangan
bayer
bb
bebek
benang
berawan
berimbang
berinisiatif
berkepanjangan
bermukim
berobat
berpose
bersamanya
bersanding
berstandar
betina
binsar
binti
bph
brighton
bristol
bromo
bubur
budapest
capai
carl
chang
chevrolet
chou
clippers
cost
coupe
dananya
darwin
datanya
diabaikan
diedarkan
difungsikan
dipercepat
dipermalukan
diplot
disorot
ditanam
ditata
ditukar
diverifikasi
dumbledore
effect
ello
emilia
empoli
engagement
ep
eyeliner
fenerbahce
frasa
girona
guardians
hambalang
hercules
hijriah
hikmah
impact
inkubator
intoleran
itupun
jackie
jalak
jeruji
jiran
juang
jyp
kadernya
kapita
kawakan
kebohongan
kegaduhan
kehakiman
kejurnas
kemunduran
keraguan
kesayangannya
kesiapannya
ketebalan
ketenagalistrikan
ketertarikannya
ketidakadilan
ketidakhadiran
khasiat
kipas
klender
kolestrol
kontrakan
kristal
kuas
lalai
latuconsina
layout
leia
leica
lembah
leto
liberal
listing
lugas
majikan
malcolm
manahati
manta
matsutomo
mayer
melimpah
memasukan
membekuk
membuatmu
memperburuk
mempercayakan
mempublikasikan
menanggulangi
menganggu
mengejek
mengharumkan
mengintervensi
menirukan
menyutradarai
merahasiakan
met
milad
miniatur
mochamad
mother
narasi
oman
omen
operasionalnya
orasi
orleans
our
palau
pamela
panggang
pelbagai
pelukan
peluncurannya
pembeda
pemerintahannya
pengapalan
pengeboman
pentagon
penumpukan
penyeimbang
pepohonan
perfect
pewarna
pikachu
pkk
plan
polos
pressing
prostitusi
qingchen
rambu
ranjang
rapid
ratio
rebus
reseller
ride
robertson
sakitnya
salad
saputro
sausu
semangatnya
seo
setoran
shield
shin
shohei
sidak
singkatnya
skytrain
small
sparrow
stephan
stephens
stroberi
sunil
superstar
suzuka
suzy
swadaya
syafii
syndrome
takahashi
tanjungpinang
tape
tayyip
terkapar
terlahir
tersukses
tinggalnya
tingkah
train
vicente
visio
vizcarra
wardhana
were
werner
wilshere
yaya
yayan
yudisial
yuri
zone
zoom
aids
ak
akselerator
alfredo
amazing
ambisinya
anis
ario
aryanto
asistennya
audi
aula
avintia
babel
background
bangkalan
batuk
bem
berafiliasi
berantakan
bercinta
berdesain
berkirim
berlomba
berpenduduk
berwujud
bio
boks
borja
buatannya
bugil
bukittinggi
candra
capello
charger
chart
chung
comic
conjuring
cruyff
dam
davy
diaktifkan
diantara
diaplikasikan
dibayangkan
dibesarkan
dibikin
dibuatkan
didiskusikan
difasilitasi
dikejutkan
disandingkan
disimpulkan
diterpa
diupayakan
division
donatur
doni
dpo
dyah
erawan
erwan
eunhyuk
farah
feed
fishing
fp
frankfurt
genetik
giat
gibran
giggs
gloria
hakan
haley
hang
hariman
hela
helmy
hogwarts
hoon
howard
hugh
iduna
ingatkan
islamiyah
iso
istora
ja
jajanan
janeiro
janet
jazeera
jemput
jurassic
kalijodo
kardiovaskular
karimun
karo
katulampa
kaviar
kejadiannya
kekeluargaan
kelihatannya
kemakmuran
kencana
kerjaan
kiat
kisahnya
koala
kodam
komplet
kua
kukuh
kultur
kumpulkan
lada
laver
lego
lesu
lisa
lisbon
login
luapan
marcello
marine
mariska
martabat
mass
melambungkan
memar
membesut
memboyongnya
memeragakan
memetakan
mempersoalkan
memproyeksikan
menanjak
menantu
mengadukan
mengedarkan
menggendong
menggulingkan
menghimpun
mensosialisasikan
menyambung
menyegel
menyelimuti
menyiratkan
microfinance
millennium
mimpinya
mixed
mnc
mni
motegi
nakhoda
networking
nicole
ninja
nunggu
nyenyak
pajero
pambudi
panser
paper
pelacakan
pelatihnya
pembangunannya
pemodal
penantian
pengantaran
pengerahan
pengerukan
penghubung
pengkajian
pengungsian
penyambutan
penyanderaan
penyehatan
perkampungan
peroleh
perpindahan
persiapannya
pertalite
pesiar
preman
probiotik
progo
psps
quick
rachman
racikan
ransel
rawa
return
riana
ribut
ritchie
robbie
rogue
royale
rui
saku
samsu
santun
satlak
scan
schuman
seattle
sekuelnya
selektif
sheikh
shelter
shenzhen
sherina
shooter
silinder
sinilah
ski
spark
stick
stranger
sukmawati
sunday
susanti
suspensi
swafoto
syahputra
tahukah
takbir
tambun
tampan
teddy
tegaskan
temenggung
terbendung
terbuang
tergugat
terpukul
tindakannya
tingkatan
tingkatkan
transformers
trilogi
tvri
ustadz
wagner
wanda
when
willem
wira
wirawan
wolverine
work
wta
yudha
zainudin
agaknya
anarkis
anastasia
angela
anjlok
antre
arafah
arcade
arnold
avokad
ba
babakan
bachtiar
bahar
bandingkan
beltrame
benteke
berbenturan
berbuntut
bergulirnya
berhasrat
berkesinambungan
berlangsungnya
berlubang
berminyak
bernegara
berpenampilan
bertunangan
bo
board
bontang
bremen
bucks
calderon
candreva
capek
carok
casillas
cekcok
cemburu
cerdik
chevron
cube
danang
dbs
dean
deep
delima
demografi
dessert
dianugerahi
dibekuk
dibunyikan
dicatatkan
didaulat
didengarkan
diinformasikan
diketuai
dilewatkan
dimungkiri
dio
dipertemukan
dipungut
disana
ditampung
ditembus
diutamakan
don
dosa
dota
dwigol
economic
ego
ekstremis
emral
ende
endless
engineering
ericsson
european
fabiano
faridz
fate
fia
files
follower
frans
freed
fun
gamblang
gangnam
gatra
ge
gili
gorengan
halid
haruna
haryadi
he
hendri
hipertensi
hour
idenya
ina
inspiron
ionic
iptu
jazuli
joanne
joni
kabag
kak
kandangnya
karl
keaslian
keistimewaan
kelam
kelaparan
kemenkes
keran
kerok
kerr
kesegaran
kesenangan
ketenaran
kokain
komarudin
kpi
kredibilitas
lagipula
lanskap
lantunan
lemparan
lerby
lineup
lintang
lubuk
magnesium
magnitudo
mahendra
mahesa
mainz
manfaatkan
mangunkusumo
map
maraton
martowardojo
melodi
mem
memainkannya
memanipulasi
membebani
memperkokoh
menamakan
menelepon
menggembirakan
menghabisi
menghukum
menginginkannya
mengontrak
menukar
menyisihkan
meriam
merubah
misinya
molotov
mulutnya
musical
nabati
nagita
natalie
naura
never
niantic
nicki
observasi
ocha
olivia
orisinal
paddock
pailit
pajaknya
pantau
paser
pasta
pelak
pemalsuan
pemanis
pemondokan
penciuman
pencoblosan
penegasan
pengeras
perangkatnya
perbanyak
perkumpulan
perputaran
pertemuannya
petty
pompa
prakiraan
purnomo
rafflesia
raharjo
ramayana
rani
rasional
rasul
rekreasi
ringgo
rismaharini
sabah
samanya
schmeichel
selaras
selimut
sensasional
serge
simpsons
sinabung
soccerway
soedirman
sorry
stabilization
strootman
sudrajat
sugeng
suherman
sulaeman
suplai
survey
suzdal
taipei
tambak
tapanuli
tarakan
tembaga
tergeletak
terpeleset
terserah
tersesat
tersinggung
tier
timah
tinggalkan
tmii
topic
traksi
transfernya
transgender
troy
tse
tulungagung
turnya
uskup
validasi
vero
vodka
vokasi
ward
warta
wawancaranya
wellington
wibawa
width
akustik
alhamdulilah
ama
andhika
andriana
anehnya
angon
antv
arsa
asin
atiek
autofocus
away
azarenka
bagai
bantal
banting
barbera
berbadan
bercokol
berkepentingan
berpangkat
berpolitik
berterimakasih
bhinneka
bild
bimbim
bodinya
bongkar
bra
britania
brothers
buktikan
bumd
bungkuk
bungkusan
buntut
busuk
caballero
cabul
canon
capcom
cawapres
cetakan
cgi
cipali
clarkson
corruption
cp
cv
dapil
daryono
dedikasi
dello
derita
diakuinya
dianiaya
diartikan
dibukukan
digelarnya
digitalisasi
dihadapan
dikartu
dilatarbelakangi
diluar
diminum
diparkir
diperagakan
dipersenjatai
dipinjam
dipuji
disemayamkan
ditabrak
diukur
djakarta
early
endri
enzim
epl
eredivisie
familier
fasih
fery
films
foxes
fra
gajinya
giorgio
goncalves
growth
gunting
haiti
hajatan
hamburger
handal
hefner
helper
hendrawan
hias
idulfitri
iims
ikhsan
intan
iringan
ismaya
jacob
jeju
kaisar
kaka
kalanya
kaltara
karun
katarak
kawanan
kd
keabsahan
kegemukan
kehendak
kejaran
kelley
kepiting
kerapu
ketajaman
kewenangannya
kitkat
koleksinya
koordinat
kppu
kusnandar
kustomisasi
langsing
larson
latitude
lavrov
lenna
letaknya
lifestyle
lippo
liriknya
liur
lively
louvre
lsi
lumrah
luncurkan
makanannya
marissa
mayoral
mekanis
melaporkannya
meluapkan
memajang
memakainya
memastikannya
membuatkan
memihak
meminjamkan
menag
menawar
mencairkan
mencederai
mencoret
mendongeng
menerbangkan
mengamuk
mengetuk
mengidolakan
mengkritisi
menimbun
menjajakan
menuruti
menyandera
menyundul
merendahkan
mermaid
middle
milyar
mitranya
mls
modalku
monza
most
moussa
mozilla
na
naruto
nengah
niki
nonstop
nurani
observatory
octo
odemwingie
ono
optimalisasi
osaka
ostapenko
pamong
pangkal
patty
pcc
pearl
pelancong
pelarian
pellegrino
pemirsa
pendampingnya
penendang
penenggelaman
pengabdian
pengen
penjadwalan
penyihir
perajin
perempatan
perintis
perjuangannya
persie
petai
pileg
pindad
pirates
pltu
portrait
prasetya
prekuel
progresif
pulogadung
raline
ratna
rawamangun
rental
report
resto
retribusi
retro
rights
ruddy
sa
saingan
salzburg
sandal
saud
sebanding
selancar
setu
silih
sirkulasi
squad
staff
stylish
sunarto
suns
taemin
tag
tangis
teknologinya
temperatur
tennis
terapung
tiketnya
timses
tonggak
uc
utah
vii
wangi
wiji
wozniacki
aan
add
adhyaksa
adnan
airbag
alun
amfibi
ampera
angle
anshori
artha
bacaan
bagasi
baliknya
balok
bantahan
banti
barometer
bawakan
benarkah
berang
berbaris
bercampur
berduel
berhembus
berkoalisi
bernard
bernasib
bernyawa
berpadu
bersiaga
berteman
bertiga
berunjuk
biaggi
blusukan
bnnp
boeing
bonaventura
bose
brawijaya
breath
brent
brigade
bt
buckingham
cambridge
caps
chairul
cheese
cilandak
circle
clip
cr
cska
daley
darker
darmono
dawet
deadpool
diantar
dibeberkan
diciduk
dicopot
digaji
diguyur
dihapuskan
dihebohkan
dikeluhkan
dikenali
dikontrol
dinominasikan
dipangkas
dipaparkan
diperkaya
dipertandingkan
dipukul
diracik
direnovasi
dirlantas
diterjunkan
dituju
diurus
duanya
dunk
dwayne
eksploitasi
elba
estetika
eun
farhat
feel
florian
flow
fly
foreign
form
freedom
fundamental
gaikindo
giring
glamor
gosling
gowa
gugat
gunanya
guys
guyuran
hampa
hariyanto
highlight
horn
iko
indera
inisiator
inneke
insomnia
irit
isbat
jad
jadikan
jantan
jim
kalideres
karel
kari
kartel
kasi
kasim
kasino
kasur
keane
kedaluwarsa
keleluasaan
kematangan
kemensos
kemesraan
kemewahan
kidal
kidambi
kilo
kimchi
klasifikasi
koeswoyo
komika
kompatriotnya
konsekuensinya
koreksi
krakatau
kwarda
lamban
lansia
lcd
ledak
letjen
liberty
lingga
linux
living
logitech
lokalisasi
losail
lotus
louisa
lucasfilm
luxury
lydia
mainstream
makro
mangrove
march
mariano
mariyuana
marotta
mattis
megawatt
meliput
meluangkan
meluruskan
memborong
membran
meme
mempercantik
mempercayai
memperhitungkan
memvonis
mendobrak
menebak
menertibkan
mengalirkan
mengasah
menggelapkan
menggenapkan
menipis
menyederhanakan
menyeleksi
menyusup
merakit
merayakannya
merayu
merilisnya
mesra
michigan
minahasa
minions
mira
momongan
moraes
munas
nagreg
nangis
nasibnya
native
ndf
neville
nio
nyai
ofensif
only
optical
ora
organization
orientasi
paco
padam
panasnya
pascal
pavel
payet
pelopor
pemalang
pemasar
pemerhati
pencalonannya
pendapatannya
pendeta
penerbang
pengaruhnya
pengekspor
pengemis
penghematan
penjajakan
penyelewengan
penyuluhan
percuma
pgn
pie
pma
praktiknya
principal
professional
protagonis
puri
purwarupa
rangkasbitung
raperda
recovery
reses
respek
rinni
rm
roadshow
romahurmuziy
rr
sadikin
salahuddin
samurai
sejuta
selangit
seperempat
sesampainya
setiadi
shopback
siahaan
silangit
sirih
sirna
size
softbank
something
soul
spiritual
sudin
sulis
sulung
sungkar
sungmin
sute
suvenir
suwardi
suzzanna
swipe
syahrul
taraf
tart
taslim
teigen
teja
tektonik
teletubbies
terbentur
terjemahan
terkecil
terkejar
terlempar
ternate
terpukau
tersirat
timo
tiri
titanic
tournament
upayakan
vargas
vine
virginia
vogue
vortex
walkman
waluyo
want
wijnaldum
wilson
wp
yenny
ying
zalora
about
addison
adelaide
advanced
adventure
age
ahed
aksara
alwi
aransemen
arcandra
arjen
artifact
artistik
astronom
atasi
audiensi
aurora
awas
azzurri
badung
bagusnya
bams
bantalan
bcl
bdni
belarusia
benitez
berasumsi
berdakwah
berevolusi
bergandengan
bergoyang
beringin
berkeliaran
bertabur
bonai
boot
broto
bs
buncit
cesc
chain
chanel
chapecoense
chemistry
cipayung
ciro
come
content
contest
conti
daddy
dawn
days
degeneres
dejan
demokratik
detak
devi
dgi
diagendakan
diberitahu
dijemput
dilema
dilintasi
dimodifikasi
dimutasi
diperkosa
dirangkum
dirimu
dirusak
disertakan
disidangkan
ditanamkan
ditaruh
ditengah
ditiupkan
doku
eder
ekspedisi
eksportir
enkripsi
etam
ever
factor
flyer
forest
francis
fransisco
fuji
gabon
gesture
gianluca
godin
groove
guinness
halangan
harun
haryanto
henderson
hendy
hokage
how
idc
imbalan
imbasnya
industrial
indy
integrated
intermediate
ipod
iqbaal
irene
iri
itc
jakpus
jang
janggal
javi
jcc
jilbab
judulnya
juki
kahfi
kanwil
karib
katedral
kebanjiran
kecerahan
kegembiraannya
kekuatannya
kelangkaan
kemungkinannya
kenang
kenya
keponakannya
kepopuleran
kerepotan
kesediaan
ketetapan
kiagus
kiswanto
kontestasi
korean
kpud
kualanamu
kubus
kumar
kunto
kwh
lanjutkan
late
latjuba
lesung
ligamen
lippi
lpg
maafnya
magetan
mansur
melanie
melintang
memperbaharui
memperjelas
mencampuri
mendetail
mengekspor
mengelak
menghapuskan
mengubahnya
mengumbar
menonaktifkan
mentas
menunggangi
menyamar
menyengat
menyiksa
menyongsong
mepet
metropolitano
meyer
migrain
milo
mind
moeloek
monyet
motocross
moura
mugabe
muller
murphy
natalis
nato
ngapain
nina
niro
noah
nuggets
olympiakos
omega
ota
otamendi
palm
pastika
peak
pelataran
pemakai
pembongkaran
pembuangan
penamaan
pengakuannya
penyitaan
perhatiannya
perkantoran
perkaranya
perkenalan
pernahkah
perrie
persik
person
pertengkaran
pesangon
pesimis
pesimistis
pesut
petaka
petrokimia
pijar
pinang
plat
popsivo
prayogo
prestasinya
pujaan
pyeongchang
raid
raiden
ramlan
rantau
raw
region
relaksasi
renyah
rok
ruby
russell
salon
sampingnya
sayapnya
scaller
schick
seine
selamatkan
selection
senyuman
serbuk
seremoni
shaarawy
shabu
she
soleh
spal
startups
tanduk
tarung
terapis
terens
terpakai
tertabrak
teruji
them
they
tiger
tinja
try
tulisannya
tumpah
tumpuan
ujungnya
urgensi
usahakan
uzur
valid
venus
visinya
viva
vivi
viviane
volvo
vulkanologi
wa
wade
wardana
wheat
winfrey
wow
wujudnya
years
access
adobe
adsit
agam
agent
alamsyah
amiruddin
amoled
andien
arabia
arwah
asset
audiens
awam
ayana
bae
bantul
basri
bayam
bayauw
bazar
bengkak
berbintang
berdamai
berhalangan
berjamaah
berjibaku
berkarakter
berkewarganegaraan
bermesin
bernostalgia
bertabrakan
bintan
biologis
boling
break
brno
brussel
budayawan
bukaan
cantiknya
cape
capture
carsten
changi
children
christinna
chyna
cia
citizen
clear
clinic
colin
court
creep
dalih
dayak
deals
defoe
dendi
dianut
diapresiasi
digantung
digeser
diintegrasikan
dikira
diler
dipatahkan
diperkenankan
diringkus
ditaklukkan
ditegakkan
ditlantas
ditutupi
djokovic
dora
dynamic
elly
eni
entry
etienne
etnik
evolusi
expert
fachruddin
fallon
fandi
fiesta
finalisasi
foil
folder
freiburg
gandaria
gani
gembrong
giri
gondola
gowes
hafal
harbour
harington
herbal
hibrid
hilal
hoegeng
hongkong
hutapea
ibaratnya
imbal
imunisasi
information
insider
iora
irwansyah
jagorawi
jomblo
josh
jubah
kapas
karanda
keamanannya
kean
kecepatannya
keji
kenakan
kenny
keripik
kesukaan
kharis
khatulistiwa
kk
klimaks
kognitif
komentarnya
kramatjati
kubica
kucuran
labs
lakinya
laksono
lalui
lanud
latvia
leeteuk
lekat
lembata
leroy
licin
lindelof
lingkungannya
lng
lost
lsm
lutfi
major
mawson
memberikannya
memboikot
membujuk
memperdaya
mempertandingkan
memungkinkannya
memverifikasi
mencintaimu
mencurahkan
mendeskripsikan
menengok
menepati
mengatasnamakan
mengenaskan
menggapai
menggratiskan
mengoyak
mengusahakan
menimba
menkopolhukam
menyesatkan
menyimpannya
menyusui
meryl
mieke
miranda
mix
mnet
moka
moreira
morrissey
mushola
mx
nakal
nasrudin
nexus
ngada
niken
nirkabel
novak
nyeleneh
ospina
padepokan
pamor
panahan
panja
pantes
paraguay
parisiens
pasarpolis
patra
peletakan
peluncur
pendayagunaan
pengukuran
penjelasannya
penularan
pergelaran
peristirahatan
persawahan
petik
piawai
pinggul
piranti
pixar
pradipta
praha
preferensi
priority
prize
proporsional
proteksi
psn
pu
puing
pundak
puspa
railink
rasmussen
reale
reli
remake
responsif
ribery
rimini
robek
rongga
rusdianto
sadis
sadli
saipul
santo
seat
sebenernya
securities
selamatan
serangga
serum
setiyono
shawn
shireen
sing
singgih
singkarak
sistematis
smoothie
smurfs
snake
soeparno
solois
sook
soundcloud
split
stars
strata
strategic
studinya
subdirektorat
sudiro
sudjana
suicide
sumbawa
suplemen
swordsman
tafsir
talk
tampilannya
teki
telin
terbebani
terharu
terkaya
terkonfirmasi
terperangkap
terselesaikan
there
thermal
tj
trengginas
tribute
tubuhmu
tumbuhnya
tumpukan
tunangan
udayana
unicef
union
urus
vancouver
vote
webcam
wehrlein
widianto
wu
xp
yellow
ylbhi
zaini
zainul
zikir
zoe
zverev
abdi
adipati
ahmadiyah
allan
ampg
ance
anggarannya
annisa
anonim
apjii
apung
atraktif
atur
atut
bakatnya
bannon
barzagli
baz
benci
berantai
berbangsa
berbulan
berdansa
berdiam
berendam
bergairah
berjiwa
berkecepatan
berlarian
bermotif
berpergian
berselancar
bersin
bhakti
bidikan
bikinan
bilangan
birmingham
bkpm
bp
bpkb
bpn
buangan
bujur
busquets
cakram
caribbean
cholil
clock
collection
concert
connect
coubertin
daan
dadakan
dealer
debutan
department
dera
destiara
diamini
dibangunnya
dibedakan
dibiayai
dibintanginya
dibukanya
dicalonkan
dicap
difilmkan
digabung
digit
dikombinasikan
dimunculkan
discovery
diselimuti
diserbu
disewa
ditebus
diteliti
ditelusuri
ditimbulkan
ditreskrimum
drummer
duffy
ega
ek
eleven
empire
erin
estafet
evening
eyed
fals
fanatik
febrianto
felix
fiber
fiera
fine
floor
fowler
gazzetta
geger
geliat
genggaman
gerah
glastonbury
gran
granit
griffin
gugusan
gumpalan
gw
hadirin
halftime
harupat
haruslah
hiddleston
hinca
hirota
historis
hiu
hizbullah
horizon
humor
imbut
infus
intiland
islan
jadilah
jantungnya
jarinya
jasmine
jerry
jiangsu
kalahkan
kamaludin
karate
katolik
kebesaran
kegirangan
kekejaman
kekompakan
kelumpuhan
kemeriahan
kenikmatan
kepergiannya
keroncong
kerupuk
kiatisuk
know
kobaran
kolosal
komikus
kompromi
konstan
kornea
koroner
kreatinin
krisna
kumuh
kuncoro
kutukan
kyrie
lan
lance
laura
liputan
loans
lupakan
maarif
magazine
maja
majalengka
maki
malaikat
male
mandy
marchisio
marianus
memasangkan
membeku
membengkak
membiasakan
memo
menaikan
menampakkan
menanggalkan
mencurigai
mengamini
mengandaskan
menganggur
mengetik
menggarisbawahi
menghantui
menghendaki
mengisap
mengubur
mengucurkan
mengurungkan
menjelajahi
menjilat
mensyaratkan
mentereng
menuangkan
menunggak
menyelundupkan
menyimpang
mhz
mount
mt
multinasional
nana
nanya
nikola
oplet
overdosis
oxford
palet
pangdam
panji
panpel
pantang
paparazi
paralayang
pastel
paula
pedestrian
pegadaian
pekat
pelemparan
pelicans
pemimpinnya
pemulangan
penagihan
penambangan
pendarahan
pendemo
penderitaan
pendudukan
pengadil
pengukuhan
penjemputan
penjepit
perakitan
percikan
persepam
pesannya
pga
phantom
phd
photo
picmix
piramida
plafon
plastic
print
profesionalnya
provider
quicken
rakitan
ramirez
realitas
reni
rias
rick
right
rina
ringgit
risa
riyad
rockstar
rooftop
rotterdam
rusunawa
sableng
sampe
sanitasi
sao
sauna
scarlett
schumer
sebisa
sehabis
sejenisnya
seksama
sekumpulan
selvi
semarak
sembelit
senegal
sepengetahuan
setebal
shake
shazam
simatupang
singgah
sisinya
sita
situbondo
smartfren
soraya
southeast
struktural
studies
suciwati
sudarso
surel
suyudi
syekh
tampilkan
tanahnya
tanjungbalai
tantangannya
tega
tegangan
tekan
teliti
tepian
teramat
terbelah
terhebat
terhindarkan
terim
termurah
terpecah
terprovokasi
tetaplah
tifatul
timbulnya
togean
tomlinson
toto
translate
treatment
trigger
tripadvisor
tunisia
twice
twin
ue
utut
verizon
veronika
vinci
vrij
was
wuryanto
ye
yoghurt
yong
zahir
zahro
zealand
zee
absensi
activity
akuntabel
almarhumah
amanda
amarah
anggrek
angke
angriawan
anniversary
antoni
antrian
arteri
asnawi
associated
asusila
atb
baht
bajunya
baking
bandit
barus
belafonte
beliung
bell
bendung
beraliran
berapapun
berdagang
berefek
bergetar
berkarir
berkenalan
berkeyakinan
berkibar
berkilau
bermacam
bermodalkan
bernafas
bernthal
berpandangan
bersenggolan
bersinggungan
bertipe
bimo
blora
bone
booming
boro
britama
bustomi
butter
buy
cadar
canggung
carles
cbs
cikal
cilic
cj
coleman
command
concern
condong
copy
culkin
custom
dagangannya
dahaga
dailymail
defender
deliserdang
demensia
dendy
dengarkan
dharmasraya
didenda
diedit
dies
digandrungi
digunakannya
dijamu
dikantongi
dikeroyok
dikucurkan
dilakoninya
dinyalakan
dipadamkan
dipasangi
dipecahkan
dipekerjakan
diperuntukan
dirgantara
disegel
disfungsi
diskors
ditertibkan
ditulisnya
diversifikasi
dividen
dominasinya
dominique
donetsk
donghae
durant
eksotis
eksterior
elon
et
everest
evra
fall
faris
fariz
fasilitasi
flazz
fleet
float
fotokopi
fransiska
fransiskus
french
funding
furtuoso
gadai
genie
gerilyawan
gesekan
gigitan
goeslaw
goyang
gozali
grade
grasi
gresini
gsmarena
ibadat
icc
idi
iglesias
indigo
insidious
istilahnya
jadwalnya
jake
jaktim
jaraknya
jejaknya
jelajah
jhon
jihad
jumbo
junaidi
junk
junto
kabau
kano
kapital
kebijakannya
kecukupan
keeping
kegelisahan
kelestarian
kelor
kemana
kemarau
kepanikan
kerang
kesekian
kesetiaan
kestabilan
ketajamannya
keto
ketok
kiko
kilas
kings
kisruh
kitty
klan
klb
klinis
koko
kolagen
kolusi
kompeten
konsentrat
korsleting
kretek
kubik
kulitnya
labu
laksanakan
lambert
laras
larry
latte
launch
legion
lesmana
linda
lipi
lokakarya
loop
lotte
ls
lumpuh
lututnya
mafia
magis
mahakam
majikannya
manakala
mantra
mate
mattalatta
matteo
membayarnya
membekukan
membuntuti
mempermalukan
menagih
mencarikan
mencerahkan
menenggak
menggeluti
menggulung
mengontak
mengusap
menimpali
meniti
menitikberatkan
menobatkan
menodai
menukarkan
menyadarkan
menyelipkan
menyertai
menyudutkan
menyurutkan
merampas
merdu
merotasi
mess
mexico
migrasi
mile
mimi
minimarket
mixer
mofu
monopoli
mujahid
muliaman
multimedia
municipal
nantikan
nasri
nest
netralitas
ngaji
niall
nishimoto
nopol
oca
okto
olaf
oliveira
omar
operasinya
operation
osama
otaknya
paloh
paradise
parahyangan
parfi
partners
pdam
peas
pelacak
pemateri
pembekuan
pemberani
pemrosesan
penajam
penanggung
penyakitnya
penyuka
pernafasan
persekongkolan
pertaruhan
perusahan
petambak
photos
piero
pincang
pkh
playground
poinnya
popularitasnya
ptun
radiasi
raditya
rafinasi
realisasinya
reddy
rego
rekrut
ribet
rice
rings
roadmap
roberts
robson
rokan
roland
romagnoli
ron
round
ruki
russo
saber
sainz
salemba
samator
santosa
sastrawan
sbn
sbs
scuderia
sdn
seba
sebutkan
sediakan
sekunder
sekutunya
selada
sen
seneng
sera
sergi
sesar
setingkat
setir
seto
shaun
shortcut
silvio
singkong
sohibul
solonya
sotheby
soto
spt
stefanus
stream
subjektif
sukma
sumedang
sungkeman
supari
supratman
surachman
sushi
sweater
takata
takjub
targetkan
tegak
tengahnya
tentukan
terdesak
terdorong
tergeser
tergoda
terik
terkontrol
terlampau
timberwolves
tipikal
titi
traveler
trenggalek
turnbull
twilight
ufo
vans
vegan
vendry
vidi
visum
volunteer
walking
waseso
weibo
wesley
western
westminster
wh
wiro
yogurt
yun
zainuddin
abk
abstain
adakan
adnani
aero
agatha
agregator
airnav
akihito
akuntansi
alim
alor
alternative
amalia
amaq
amy
analytics
angie
anjuran
antiterorisme
apiknya
apk
apoel
aquila
arang
areal
arist
artefak
aryo
ashanty
aturannya
automatic
bab
babe
baghdad
bahagianya
bamus
banjar
barcode
barnum
bedeng
bein
bengkel
bening
bentukan
berasa
berempat
beriklan
berkeadilan
berlogo
berorientasi
berpelukan
berseberangan
bertekstur
bertransformasi
beruji
beto
bh
bias
biayanya
biografi
biola
birthday
blong
bolivia
bonita
boost
breaking
brokoli
brussels
buleleng
bumper
bungsu
bunker
cacing
cahya
camry
cars
cassio
cell
celsius
ciputra
coke
complex
coo
corak
coretan
corner
cpo
cruz
cry
cucunya
darth
dear
deden
definitif
detailnya
dibanjiri
diberitahukan
dibidik
dicerna
dick
difoto
digeledah
dihidangkan
dimusnahkan
diniyah
dipilihnya
disiagakan
ditakuti
ditebak
ditelan
diusut
djaka
dl
dokternya
dondokambey
dreams
duga
duluan
eki
electronics
elektronika
emirsyah
ergonomis
erna
expedia
favorite
figo
flip
followers
foods
formation
fossil
fukushima
ganas
garda
gbkp
gennaro
giacomo
gift
gli
goodison
gravidarum
greatest
guantanamo
gucci
gum
gurun
gurunya
gutierrez
gwen
habisnya
hanum
harrison
haryono
hasutan
hellas
hermawan
hidungnya
himpunan
hobinya
hokkaido
hope
horizontal
hornets
husni
hutang
icbm
ihza
ijin
imagine
imf
inf
inspiratif
instruktur
interactive
irvan
jalankan
jangankan
jansen
jepara
jerusalem
jkt
jpo
judd
jumpai
kadek
kantuk
karantina
karat
kardinah
kbs
keenamnya
kekeliruan
kekeringan
kelembaban
kemendag
kemhan
kemoterapi
kepa
kerabatnya
ketiadaan
ketidaknyamanan
khairy
kieran
kobe
koja
korporat
kurt
lampard
lana
lane
latief
lemonade
len
lengang
lesbian
lestusen
lille
llorente
loncat
lumowa
lunar
luthfi
magnitude
mallarangeng
manufacturing
marjin
marka
mart
martabak
maskot
masood
maxime
meal
medio
melek
melukis
memaklumi
memanfaatkannya
membahasnya
membantai
membelah
membenci
membimbing
memilah
memindai
memperagakan
mempopulerkan
menegur
menembaki
menemukannya
menenggelamkan
mengemudikan
mengetahuinya
mengintai
mengobrol
mengombinasikan
menikam
menimbang
menkumham
menyebalkan
menyetop
menyiasati
menyisipkan
menyuplai
merelakan
metana
mewacanakan
milwaukee
minangkabau
minecraft
mirzani
misalkan
monako
moscow
mulan
mulyana
mumbai
nadine
naim
naskahnya
nathaniel
nations
netra
nevada
ngerti
nik
noer
nopember
nurbaya
nuri
obor
oleskan
overclock
paredes
parkiran
pawiro
peace
pemakzulan
pemboman
pemisahan
pencairan
pendaftar
pendengaran
pendidikannya
penyederhanaan
pepaya
perempatfinal
permana
permendikbud
permusyawaratan
perusakan
perwakilannya
pestisida
petak
pinisi
pionir
pkpi
positifnya
prema
preventif
prisia
programnya
rafa
rahasianya
rainbow
ramainya
ranch
rapbn
rapuh
raymond
reading
rebutan
recep
renato
richie
ricuh
riyadi
rocky
roten
rumpoko
rusdi
sahid
saiman
sakai
salazar
saldi
sanggar
santan
sarwendah
screenshot
sei
sekitaran
selebritas
sentani
sepatutnya
serunya
serut
setup
shift
shutter
sign
simbolis
sin
sindo
sipir
socrates
subjek
sukarno
sunu
swedish
takbiran
tamansari
tambunan
tandem
tangkapan
taobao
taruhan
tatanan
teka
tell
tengku
terbongkar
teringat
terlena
terparkir
tersubur
tertata
tertembak
terungkapnya
thuwunna
tidung
tokonya
tone
tonton
trisula
twitch
ujicoba
umbrella
urin
versace
viking
wahidin
wakaf
wakapolda
wakapolri
wamil
wd
welcome
westbrook
whitson
why
wisuda
xiii
xx
yanti
yoko
abdel
addie
address
akunnya
akut
alamiah
almond
amiens
amri
andry
anggy
angsa
anker
aoyama
asmaranya
assembly
az
azerbaijan
azka
baa
bagikan
bahasan
balenciaga
bandnya
bangtan
baoding
bapaknya
barak
basic
bauran
beats
beken
berbobot
bercak
bergelut
berjejer
bermalam
berseteru
bersihkan
bersimpati
bersolo
biometrik
biopik
bj
bkn
boxing
bram
bratislava
cakap
canada
candaan
candy
carnival
cassano
ceria
cha
cheers
chichibu
choice
cijantung
cilincing
civilization
claude
colorado
comics
copenhagen
cosmo
cosmopolitan
dahi
dakota
datangi
delevingne
dhakiri
dharmawan
diameter
dianggarkan
dibekap
dibobol
didera
digigit
digodok
dihidupkan
dikoordinasikan
dinasti
diobati
dipopulerkan
dirilisnya
disasar
diselundupkan
disembuhkan
diseret
ditantang
ditemukannya
ditiadakan
ditilang
ditiru
dituliskan
dll
donna
donovan
dublin
dunkin
dw
dwiki
dzumafo
eg
ekshibisi
eksistensinya
embrio
empati
escobar
eskalasi
eusebio
fallout
farmasi
farouk
ffb
fiba
fighting
fiturnya
flare
flat
flying
forever
foxconn
frustasi
gagah
galih
gameiro
gastronomi
gates
gawat
gegana
gembong
gerald
gerd
geser
gibbs
godzilla
goffin
goresan
grant
gsp
gusi
hai
harahap
harajuku
hariono
harum
hate
havana
hawkins
hendaknya
history
hitler
holiday
hospitality
hove
hualien
hummels
hyo
ikutan
imas
impiannya
internasionalnya
iseng
islah
issi
itf
jauhnya
jenuh
jimly
journey
juke
kadal
kadir
kaltim
kanselir
kantin
karen
kasir
kazan
kegelapan
kegemaran
kekaisaran
kekurangannya
kelimutu
kelinci
kelompoknya
kensington
kepatutan
keprihatinan
kepunyaan
keretakan
kesana
ketatnya
ketuhanan
kid
knowles
koleganya
komoditi
konfrontasi
kos
koulibaly
kronologis
kuatnya
kuis
kuliahnya
kursinya
kuswanto
laik
lamborghini
langdon
lengkapnya
leopard
lhkpn
liechtenstein
lifting
lindsay
lobster
logis
lompatan
macos
mahalnya
maintenance
mak
malala
manor
marini
marshall
marshmallow
martini
maryland
masehi
mashable
mccain
medal
mekanismenya
meledaknya
memaksanya
memanaskan
memanjang
membabi
membalasnya
memerhatikan
memposisikan
mencampur
mencarinya
menempatkannya
mengadaptasi
mengaksesnya
menganggarkan
mengawinkan
mengeksploitasi
mengembangkannya
mengenakkan
mengepung
menggairahkan
menggantikannya
menghentikannya
menghindarkan
mengintip
mengisolasi
mengokohkan
mengunggahnya
menguntit
menitipkan
menolaknya
mentransfer
menyebarluaskan
menyemarakkan
menyokong
meresahkan
merseyside
mertesacker
meruntuhkan
messaging
michelin
miko
mina
ming
misa
mod
modernisasi
mojo
mokodompit
monoksida
mountain
mulya
muridnya
nafkah
nata
neil
ngidam
nil
noerdin
novita
nurhayati
ovo
padu
pagu
pahlevi
palimanan
pancingan
panggungnya
panutan
parameter
passion
paud
pecandu
pegangan
pelibatan
pellu
pelontar
pemenangnya
pencekalan
penentangan
penerbangannya
penggalian
penggila
pengirim
penumpangnya
penusukan
penyangga
penyelam
penyengat
penyu
perbedaannya
perekam
perilisannya
perintahkan
perjumpaan
permasalahannya
pertemanan
petrus
philipp
pikap
piket
pikirannya
platformnya
plontos
pneumonia
pot
prasasti
prism
proctor
psikotropika
puja
pwa
queens
rabat
rail
ramp
redenominasi
riot
riyandi
rum
rx
sandjojo
santapan
say
schiller
scorer
seadanya
segara
sejarawan
seledri
sembalun
serbuan
shock
showman
showroom
sinai
singkatan
sirup
sis
siur
skeptis
skk
skors
slipi
slovenia
soesilo
solutions
sosialis
speech
stafnya
standarisasi
standarnya
stewart
suhartono
sukardi
supplier
supriyadi
sutera
sxsw
syawal
syok
tabuhan
tam
tante
tara
tekankan
temuannya
tercium
tergiur
terhalang
terisi
terjamin
terjangkit
terjepit
terkontaminasi
termutakhir
terparah
terpesona
terpikir
tertolong
terurai
testis
tetapkan
thr
thurman
tiago
tirta
titans
tite
todung
tonight
toy
tunanetra
tunangannya
tuntutannya
turn
turner
ubahan
usher
uus
vina
warning
where
windsor
witness
wojciech
xxi
yacht
ylki
yo
yup
zuma
abah
abdillah
abimana
aburizal
achievement
advertising
aldi
alejandro
alessio
alfamart
alphard
alumunium
amali
amplifier
antena
antik
aquatic
arkeologi
aseng
asi
astronot
atensi
atom
attack
autisme
bada
bait
barnes
bata
batalnya
bean
beautiful
bebatuan
bellamy
benevento
bentang
berau
berdomisili
berformat
berg
berhamburan
berkonflik
berlipat
beroperasinya
berpatroli
berpenghuni
bersantap
beyond
bhineka
bidakara
bidangnya
bilqis
bis
blank
bolong
bontoala
bordir
broadway
bully
cabe
caleg
caroline
cendol
charity
cidera
cipanas
cmo
cnbc
collins
commercial
conmebol
couture
covergirl
cowell
cranberries
crown
ct
dalil
date
dibelanya
didedikasikan
didiagnosa
dieksplorasi
dikarunia
dikepung
dimasukan
dimengerti
dinginnya
dinner
diperketat
diprogram
dirindukan
dirujuk
disalahkan
disambungkan
disatukan
disc
diserap
diskusikan
diwartakan
doang
dreamers
ds
duetnya
dur
ea
eat
economy
egois
enteng
erp
error
esensi
ethereum
fachrudin
fadhil
fattah
fayakhun
firma
fs
gayus
gemilangnya
gerabah
ghost
gijon
giro
gladbach
godaan
gorong
grosir
grosjean
grupnya
guatemala
haikal
hariri
hayward
hendry
hengky
henrique
hentinya
here
hiphop
ibf
ichsan
ip
iris
islands
jafri
jak
jambu
jbl
jepit
jepretan
jeratan
jok
js
jualnya
jude
jumanji
jungle
kabila
kaburnya
kalimalang
kartunis
kcj
kecap
kecocokan
kehancuran
kejora
kelenjar
kelolaan
kelolosan
kembung
kemerahan
kemkominfo
keown
kepariwisataan
kepercayaannya
kepincut
kerahasiaan
keramas
kesengajaan
ketersediaannya
kirimkan
klaten
kompilasi
komplotan
konsul
kosambi
kredibel
kristiani
kulonprogo
kuntz
kur
kurniadi
kusam
kyrgios
lanjuti
lauk
lava
legalitas
lempeng
letkol
letty
levante
lil
lina
livi
lock
logika
lovato
lowe
luang
luhur
majapahit
maker
malaka
maling
mamasa
mandalika
mandara
mangkuk
masud
matip
mcfadden
mdpl
melancong
melayat
meleleh
melingkar
melumat
membawahi
membelanjakan
membutuhkannya
memperdalam
mempererat
menaker
mendahului
mendera
mendinginkan
mengekspos
mengeliminasi
menginvestasikan
mengistirahatkan
mengklik
menikahkan
menua
menyemangati
menyulut
meramalkan
merampok
merantau
merapatkan
merger
merpati
mes
message
mio
misil
mistis
mobilisasi
mochtar
momok
monreal
morris
muslimin
muzani
name
nature
negerinya
nets
newt
nfc
nihil
noire
nurhidayat
observatorium
odyssey
olla
ornamen
osis
palangkaraya
pamit
pangkostrad
parahnya
partikel
partnership
patologi
pelimpahan
pemecahan
penawar
penerjemah
pengangkutan
pengenal
penggabungan
pengorbanan
penindasan
penyisiran
perabot
perceraiannya
perencana
periferal
perotti
pertahankan
perutnya
pesatnya
pets
piaraan
piza
po
poppy
porong
prapatan
profile
psv
ptt
punggawa
pure
purut
purworejo
rafinha
rajawali
rakyatnya
rally
ramsay
rataan
ravi
rawit
redding
referee
register
regu
remitansi
republic
rerata
resident
revenue
reward
river
rohani
rudolof
rups
rusli
ryacudu
sahara
sakral
sanogo
sarang
sasongko
satlantas
satpam
sayyaf
schiaparelli
schweinsteiger
script
seaworld
secretary
sedikitpun
seeing
seenaknya
semangkuk
senegaranya
sentul
sepakati
sepenuh
setar
seukuran
shandy
showcase
sialang
siapakah
sigaret
simple
sisir
sistar
sistemnya
site
sneakers
sneijder
soerjadi
sosis
souvenir
sportif
ss
steril
stik
stylus
sunny
surround
suso
sutanto
suwandi
tabu
taburan
tahar
taj
takhta
tamimi
tanaka
tanggapannya
tango
tarifnya
tasyakuran
tdi
technologies
television
tempe
tenggarong
tengok
terangkat
tergantikan
tergerus
terguling
terkunci
terobsesi
tersungkur
terwujudnya
thalib
thank
thi
through
timbangan
tirinya
titipan
together
touchpad
touring
tunduk
tvn
twist
ulung
umurnya
usut
vintage
void
vulgar
wage
wahlberg
walsh
walter
wawrinka
weiser
werder
widyasari
wikipedia
winston
winter
woody
wujudkan
xu
yanuar
yoona
youtuber
zac
zhao
zonasi
abdulaziz
abimanyu
acts
adams
adrien
aduh
advan
advent
aerosmith
agro
ahm
ajip
akankah
albu
alfan
allen
allison
amino
ammar
amplop
ampun
anders
angus
anisa
anjingnya
antagonis
antapani
apbnp
arakan
arden
ardiansyah
areola
arlo
arm
artian
ashe
aspac
atlas
audy
aulas
ayyubi
baek
bafta
barista
barung
based
bate
battleship
beer
beirut
beny
berbusana
berdemo
berdiameter
bergaul
berhadiah
berkantor
berkhasiat
berkutik
berorasi
berperilaku
bersebelahan
bersosialisasi
bersusah
bertepuk
bertrand
bfc
bhumibol
biota
bisakah
bonar
bonfire
bonito
boon
bpr
bravia
brooks
budha
build
bush
campus
cancer
celeron
ceroboh
chance
chika
cimb
citanya
coding
conan
cox
cunha
dagangan
dame
dardak
daryl
davids
davidson
dawson
deket
dentuman
derbi
derek
dermawan
dewanto
diandra
dibela
dibina
diculik
didapati
didiagnosis
diekspor
digandeng
digenggam
dihadapinya
diingatkan
dijalaninya
dijebloskan
dilecehkan
dimanjakan
dino
dioperasi
dipanggang
dipelihara
diperparah
diprakarsai
dirakit
dirintis
disegani
disosialisasikan
disumbang
ditempel
diteror
dnf
dome
donor
dorce
drainase
drajat
dry
dyn
efendi
ejakulasi
ekowisata
ekstremisme
ekstrim
ela
elia
ely
embargo
embung
erik
erry
even
explorer
faizal
far
faza
finalnya
fischer
fort
fredly
gaek
gamers
garang
gayanya
gendang
genk
genting
georgina
geun
gfriend
ginter
glee
glitter
gorgeous
gosok
government
gpn
gq
grapari
grogol
groundbreaking
haider
halmahera
halusinasi
hamidy
hammers
hannah
heavy
hebei
hema
hengki
heroin
het
hitman
holmes
hologram
honduras
hotline
hotma
hrs
huong
iblis
ical
imut
independensi
index
indri
infanteri
inisiasi
inside
intoleransi
iterasi
jaeger
jahja
jajan
jakbar
jarvis
jasin
jatiwaringin
jatmiko
jerat
jinjing
jodoh
joint
josua
kafir
kambuh
kandungannya
kapalnya
karton
kasihnya
keanekaragaman
keberlangsungan
keberpihakan
kecintaannya
kedelai
kedondong
kedubes
kegilaan
keindahannya
kekhalifahan
keluh
kelvin
kembalikan
kemenlu
kenedy
keong
keraf
kerawanan
kesakitan
kesaksiannya
kesuksesannya
kharisma
knowledge
kodim
kolev
konawe
konspirasi
kontrasepsi
korem
krisdayanti
kuasai
kubis
kulinernya
kyung
lagerfeld
laksa
lampiran
lasso
lavigne
leap
ledger
lembab
lempar
leptospirosis
lihai
lila
lipstik
loyalty
lula
luwak
mamalia
manisnya
mante
marbun
marcell
marius
marlo
martha
marunda
melegenda
melipat
meluapnya
memalsukan
membangunkan
membantahnya
membelikan
membingungkan
membungkus
mempercayainya
memusatkan
memusnahkan
menamai
menampar
menantinya
mencekam
mendampinginya
mendasari
mendy
menemaninya
menempelkan
mengacaukan
mengagetkan
mengajaknya
mengajari
mengakhirinya
menggagas
menggema
menggerus
menghangatkan
menghanguskan
mengheningkan
menginvestigasi
mengonversi
mengupas
meniadakan
menyodok
merajalela
merasakannya
merchandise
merugi
meterai
milih
millenium
mmscfd
moa
mochammad
monika
mor
moran
moskwa
motorhead
mubarak
much
multifungsi
mus
musimnya
mv
nabire
nepal
nes
ngasih
niatan
nidji
nishikori
normalnya
normatif
nyali
organisasinya
organizer
orient
oven
ovi
owner
oy
pake
pakusadewo
pangarep
panjat
pantangan
paradigma
parrot
paskah
patricio
patrio
paulin
paviliun
pegolf
peka
pelawak
pelik
pellegrini
pembayarannya
pembuatannya
pemburu
pemeringkatan
peminatnya
peminjam
pemula
pendidik
penerapannya
penganut
pengembangannya
pengepul
pengereman
penggalan
pengingat
pengunjungnya
pengusiran
penjurian
pennsylvania
penuhi
penunjukkan
penyematan
penyertaan
penyiar
perfeksionis
perjudian
perkuat
persatu
pertiwi
pertumbuhannya
pescara
petersen
petikan
phu
pip
pkpu
pnbp
pokal
polesan
popup
pora
pori
portland
poyet
pressure
price
proaktif
propinsi
provokator
pudji
punggungnya
purwaka
qaeda
quinn
rambo
rasisme
ratus
re
refleksi
reklame
reog
rescue
rezeki
rhythm
rijeka
rise
risetnya
rspad
ruth
same
samsat
sartika
sauber
scene
schroder
seafood
sedekah
sekar
sekejap
sekuriti
selengkapnya
sembiring
semuel
send
senja
senyap
sepantasnya
sepopuler
sesuatunya
setengahnya
shoot
sig
sila
siluet
simpul
sirait
situlah
sokongan
solihin
sorot
southern
spesialisasi
spring
stalin
stigma
study
suga
suhardi
sulistyo
sungkawa
suntik
suporternya
supriadi
surfing
suryadi
sutjipto
swings
syam
syariat
sync
takeshi
takuya
tambahkan
tameng
tampung
tantan
tanyakan
tatum
tauhid
tello
telusuri
tenant
teras
terbayar
tercapainya
terendus
terfokus
tergerak
terguncang
terlatih
terlontar
tersusun
tertantang
terverifikasi
thx
titus
tombolnya
tongseng
topskor
toraja
trinity
troll
trust
turan
uav
umbara
umm
unhas
uns
uss
vc
venice
vera
vicarage
views
villeneuve
viola
vista
vita
vitorino
vw
wanggai
waras
waris
widow
win
winata
wizards
wulandari
xviii
yandi
yankee
yati
yes
yohanes
yordan
zakaria
zimbabwe
zizou
zucchini
ab
abis
abnur
aeon
agnelli
agresi
aidil
airbus
aksa
aksesibilitas
aktifitas
akuntabilitas
akur
alana
allied
amber
ambruknya
amis
andriy
angelo
animal
anjloknya
anomali
ant
arabika
arctic
argumentasi
arina
arizona
arjuna
asem
asetnya
ashram
astuti
atiqah
avril
awanda
axa
ayaka
badar
bahri
bake
baper
baubau
baya
bench
benchmark
benderang
benefit
berbangga
berbaur
berbelok
bergizi
beritahu
berjoget
berkedok
berkenan
berpegang
berperingkat
berpuas
berteduh
bertelur
bijaksana
bijih
billie
bintangi
bobotnya
bollywood
bosnya
bppt
buncis
bunganya
bungur
buru
buyar
cahyadi
campak
caracas
cards
cepatnya
ceper
ceri
chae
chapter
charlton
che
christiansen
christmas
ciawi
cimanggis
cinematic
ciptaannya
clapham
clara
clement
cobain
commonwealth
computing
condro
coret
costume
create
daimler
damkar
daniil
dea
denim
dfb
diasuh
dibenci
dicetaknya
difavoritkan
digabungkan
digerebek
diguncang
dihujani
dilestarikan
dilombakan
dimitrov
dipasok
dipatuhi
diperjuangkan
dipermasalahkan
dire
discover
disela
diselipkan
disetor
disitu
diskotek
dit
ditegur
ditekankan
ditembakkan
divre
djalil
dock
dpc
drag
drawing
dutra
eksibisi
ekstensi
ekuitas
elang
eliandry
elok
ema
emasnya
emergency
enaknya
eng
english
enjoy
epik
er
eriksson
erk
europe
expansion
facto
fauna
ferdiansyah
filsafat
flavonoid
francois
franklin
friendly
fuzhou
fx
gagarin
gallery
gap
gelagat
genetika
georginio
gerobak
getafe
girang
glukosa
gonna
goo
grohl
gross
guerrero
gugus
guinea
gustaf
hadangan
hamparan
hand
hartley
hathaway
heath
holdings
humanis
ico
icu
idlib
ign
imb
imun
indragiri
infinite
infrastuktur
insight
install
interkoneksi
ironis
isapan
izinnya
jacobs
jamin
jelangkung
jeli
jembrana
jenazahnya
jengah
jenisnya
jerami
joanna
jodie
julio
juna
kalibrasi
kalung
kamtibmas
kapanpun
kapok
kapolresta
kapolrestabes
karina
kdrt
keadaannya
kebahagiaannya
kebersamaannya
kebutuhannya
kedalam
keemasan
kejuruan
kelanjutannya
kelar
kemaren
kementeriannya
kentucky
kepunahan
kesepian
kesibukannya
ketangguhan
ketupat
kfc
kinect
kobayashi
kolaboratif
kolonial
kombatan
kompany
kompleksitas
komuter
konektor
konseling
konsuler
korek
ksau
lajang
lalang
lalat
langgeng
lauren
laurie
lead
lengser
liburannya
lichtsteiner
liew
lifetime
likes
listriknya
lithuania
liver
lokomotif
longgar
luigi
mads
mahyudin
mali
maliq
mamma
manan
mao
masita
mason
massachusetts
matias
matikan
mattel
mccartney
mediaset
melalukan
melegalkan
melelahkan
melengkapinya
melia
memancarkan
memanen
memarkirkan
membagikannya
membahagiakan
membandel
memberanikan
memperkosa
mempersulit
mempertegas
memprovokasi
menabung
menambal
mencegahnya
mencerna
mendefinisikan
menentu
mengacungkan
mengaji
mengatakannya
mengaturnya
mengecil
mengendus
mengentaskan
mengepak
mengeruk
mengesampingkan
menggebuk
menghadapinya
mengikis
mengindahkan
mengintimidasi
menguak
menguraikan
menontonnya
menyayangi
menyejahterakan
menyontek
menyosialisasikan
menyusut
merekayasa
meremehkan
merobek
minggunya
minho
monica
montolivo
moyang
muchlis
mudahnya
mural
muslimat
nagari
nanang
nate
ndeso
newey
newman
ngga
nine
nirvana
nitrat
nomer
nothing
novelnya
nyambung
ojo
ons
orange
outstanding
pakualaman
paralympic
parutan
peach
pejagan
pemaksaan
pembiaran
pemeriksaannya
pemindaian
pemutih
penangkaran
pencapaiannya
pencariannya
pencetakan
pendorong
penegakkan
penekanan
pengarahan
pengasuh
pengecer
penghancuran
penghasilannya
penjajah
penjajahan
penjinak
penopang
penyergapan
pepatah
perah
perdesaan
pereira
permodalan
permohonannya
perseorangan
persoalannya
pertandingannya
pertimbangkan
perwujudan
pesbukers
phillip
pical
pimpinannya
plate
potasium
prada
praduga
prerogatif
prostat
protect
psikis
psikopat
psoriasis
pupus
puzzle
quantum
quaresma
radeon
rakuten
ranger
ranjau
ratulangi
recall
reggae
resisten
revolusioner
riccardo
riil
riky
rim
robohnya
robotika
rocks
rogers
roja
romli
rono
rovers
ruslan
rusunami
sally
salto
sanalah
sarasvati
sastrowardoyo
schaller
scoop
sead
sebelahnya
sebelumya
sebesi
sederajat
sedia
sedini
seismik
sekeliling
sekiranya
sekujur
selesainya
senam
senegara
sentris
sepotong
serasi
sesat
sesudahnya
seutuhnya
shane
shearer
sheza
shinta
shitta
sholat
sierra
sigurdsson
simona
simpatik
simposium
simpson
singer
smile
sochi
sock
soe
sol
solidarity
sosoknya
soundgarden
source
statement
stella
stuttgart
suasananya
sugianto
suhadi
sukri
supriyanto
syarifuddin
syed
takzim
tamat
tanggungjawab
tania
tebas
tee
tenaganya
terawat
terbaca
terbakarnya
terbitnya
tersedianya
thukul
tidurnya
tika
tile
tilke
timbunan
tizen
tomi
toshiba
trading
trafik
traveller
trd
trem
trendi
trent
tubagus
uae
ubahnya
ubisoft
uhd
ukiran
ultras
undip
unggas
unggulannya
untukmu
upload
urbaningrum
utangnya
utility
ux
velg
velove
verbal
vulkanis
webb
wen
wii
winners
wladimir
woodward
wright
xenia
yos
yudhi
yutuk
zaenal
zebra
abdee
af
afiliasi
ag
ahn
akta
aktivasi
allure
alternatifnya
always
amel
analysis
anand
ancamannya
anggraeni
anji
anoreksia
antaranews
apotek
aremania
arki
aromanya
aryono
asahan
atr
atrium
aurelie
ayin
bachir
bahadur
balapnya
bandarlampung
banser
bantah
barata
bartje
bataclan
batakan
batangan
batuan
beat
berbaiat
bercahaya
berciuman
berdaulat
bergemuruh
berkegiatan
berlimpah
berproses
bertalenta
bertamu
bertaraf
beruntungnya
better
binjai
bkkbn
blokir
bmx
bonnie
brajamusti
briptu
browsing
brych
bsn
buaran
bulus
busway
byung
caretaker
castle
cate
cekoslovakia
celengan
celurit
cermati
cerminan
cetus
charli
christensen
cicurug
cikupa
cincinnati
ciputat
ciracas
coelho
cologne
corbyn
creation
dalai
darius
darma
daulah
deal
dedy
deir
deli
denyut
depo
desmosedici
determinasi
dhika
dhita
diagnosis
dialah
dialamatkan
diapit
diario
dibelakang
dibundel
dideteksi
dididik
digaet
digolongkan
dihadang
dihadiahi
dihajar
dihias
dikawinkan
dikenalkan
dikustomisasi
dimanapun
dimatangkan
dimensions
dipercayakan
diperdebatkan
dipetik
diraihnya
dirasakannya
direlokasi
dirombak
disertasi
disodorkan
disuguhi
disulap
ditempat
ditentang
ditinggali
ditotal
dituturkan
djalal
dolls
dprk
dvd
eagles
edit
eintracht
ekonominya
ekspatriat
elevated
elias
emtek
en
enembe
entikong
epson
espana
estelle
events
excel
facebooknya
falcao
farm
fcc
feeling
feminis
fibula
filipe
finishing
fk
flamel
fokuskan
follow
franky
freelance
fuso
futures
gabah
galacticos
galon
garansi
gdp
gelisah
gendeng
getol
giant
gisel
gladi
glover
gluten
greet
grid
grizzlies
guide
gulung
gundul
gutawa
habiskan
hackathon
hana
hands
hanoi
hat
haven
hawai
helio
hening
henny
hentikan
hera
heroik
hertha
hikmat
hobbit
homoseksual
horror
hulk
hun
hyukoh
idiot
igbonefo
igd
ikhwan
iklannya
ikrar
ilaga
imanuel
imunitas
incheon
infotainment
ing
innova
instant
interim
invasi
investama
ipar
ipong
irsyad
irwandi
iss
izzah
jaden
jadul
jahitan
jamaika
jerih
jermain
johanes
joker
jordania
jorginho
junhui
juniors
jupiter
kadaluarsa
kamarnya
kampusnya
kanjuruhan
kardashians
karst
kawa
kebiasaannya
kecemburuan
kedisiplinan
keigo
kejagung
kejari
kekayaannya
kelelawar
kemandirian
kemiringan
kenali
kendur
kengerian
kenop
kepegawaian
kepekaan
keringanan
kertajati
kicau
kingdom
kirab
kiranya
knightley
kolase
kolong
komunisme
komuro
koptik
krimea
ksad
kurdistan
kwk
lahat
laka
lapan
larang
lawang
legiun
lembu
lentil
letupan
lighting
lkbn
lone
luarnya
lucius
lumajang
mang
mangku
manutd
marasabessy
marek
margaret
marlon
mats
mbr
megapiksel
melaut
melissa
memanjat
memantul
memasarkannya
memasukkannya
membajak
membohongi
membolehkan
membombardir
membuyarkan
memergoki
meminati
memodifikasi
mempersempit
memublikasikan
memuncak
memutihkan
menaati
menandingi
menanggapinya
mendambakan
mendedikasikan
mendonasikan
menerapkannya
menerjunkan
meneruskannya
mengakali
mengerucut
menggangu
menggasak
menggoyahkan
menghadang
menginfeksi
mengkreasikan
mengosongkan
mengurutkan
menjaganya
menugaskan
menuntun
meradang
merazia
merekrutnya
mesinnya
mikir
mikta
minogue
mit
moise
mom
montpellier
mouly
mra
muat
mukri
mummy
nashville
nazarudin
nbc
newton
niche
nikki
niko
niujie
nov
nsync
nt
oddity
okta
orisinil
otentik
oto
oz
paceklik
pacers
pahami
pajajaran
palai
palmerah
pandawa
pane
pansel
pantun
paparazzi
paralel
paralimpiade
parent
pattinson
pe
pegal
pegawainya
pekerjanya
pelebaran
pembengkakan
pemeluk
pemikirannya
pemuka
penangkap
penceramah
pendeteksi
pendi
penerusnya
peng
pengeboran
pengibaran
pengoleksi
pengoperasiannya
penguin
penny
penyair
penyelundup
penyempitan
penyuplai
pepper
peraga
perenang
perri
persamaan
persembunyian
persinyalan
personalisasi
pertiga
pet
petualang
pg
phillips
phong
piagam
piknik
pinus
pippa
pisah
pluralisme
points
ponaryo
pope
portabilitas
portman
profesinya
prosedurnya
prsi
puding
punjabi
purbakala
push
quad
quality
rachmad
radhini
ramuan
rashid
ratner
raut
rayong
reader
redemption
rekornya
religius
ridley
rilisan
risikonya
ritz
riyal
robotik
roby
rocker
rod
rotten
row
royong
ru
rumusan
rural
rusuk
safitri
sahrul
saksikan
salawaku
salt
sampurno
sandberg
sandwich
sangkaan
sanjungan
saudari
saw
sayaka
scamander
schmidt
sebilah
seed
sekotanya
sektoral
sekuler
selayang
separuhnya
sepulang
seringnya
serpihan
setneg
sex
shi
siagian
sik
sikat
siloam
sirigu
skinny
skywalker
slack
slavina
slide
smiths
smurf
snoke
solve
sonya
spartak
sragen
starcraft
sticker
sudahlah
sukar
sundari
suning
sutisna
taekwondo
tahir
taktis
tales
tambora
tanggamus
taruh
tegar
telstar
terbawah
terjadilah
terjal
terjauh
terkoreksi
terkubur
terkuras
terompet
terperosok
terseksi
testosteron
tetep
theroux
thierry
tirto
todd
tomas
tor
tormo
transplantasi
traveling
triwulan
truly
ts
tupac
turf
twenty
uii
valerie
vampir
variatif
vega
visioner
vitali
volkswagen
volt
volumenya
wafid
wanyama
wendy
wheel
wibisono
wim
wood
wook
wushu
yarmolenko
yas
yifan
yuchen
yunan
yunita
zabaleta
zedd
zul
abedi
abel
abepura
abrams
abs
abun
active
adaro
adjie
adrenalin
agreement
ajie
ajudannya
alaska
allkpop
alumnus
amman
ange
anindito
anjungan
antarbenua
antarmuka
anthem
arogan
aru
aryani
athens
atleti
audionya
authentic
authority
axon
azas
azhari
backbeat
bagan
bagir
bala
balaraja
baliho
baran
barter
baskoro
batalyon
bawaannya
bebasnya
bedog
belaid
berbalut
berbisik
berdebat
berembuk
bergejolak
bergeming
beriman
berintegritas
berkasnya
berkeley
berlemak
bermanuver
bermerek
bertani
between
bicaranya
bihalal
bionic
biseksual
blaise
block
bnpt
boarding
bong
bowo
bpkp
brake
bsm
btpn
buckle
budayanya
bullying
buton
butterfly
cabin
caitlyn
calendar
campbell
carmelo
casual
catatannya
cause
cavill
cecep
cegah
cengkeraman
ch
chaos
chia
christo
chu
cilangkap
cluster
cnblue
coc
colt
compact
competitive
continental
corby
corriere
cosmetics
cotton
creed
crude
cto
cuman
curam
current
dadanya
daesh
dagingnya
dangerous
dasawarsa
defence
deluxe
deportasi
desanya
desi
destiny
dex
dhini
diagonal
diamati
diantarkan
dibentuknya
diberlakukannya
dicicipi
didaur
dideklarasikan
diemban
dika
dikelompokkan
dikeluarkannya
diktator
dinata
dinonaktifkan
diperdengarkan
diperolehnya
dirgahayu
dirikan
disaster
disclaimer
disekap
diseleksi
disikapi
disponsori
distribution
disundul
ditelepon
ditendang
ditetapkannya
ditipu
ditto
ditumbuhi
diulang
diupgrade
diwakilkan
djbc
dmitry
doan
dom
donuts
door
dornan
dos
download
doyan
dungeon
earth
edinburgh
eight
ej
ekspansinya
eksperimental
eky
elga
emak
emily
emosinya
enix
essential
exposure
extra
faced
feeder
female
feminin
fighter
flickr
flipboard
folklore
fonte
fortune
freddie
fuadi
gaduh
galang
galatasaray
gamepad
gate
gearbox
gedong
gempabumi
gere
gianni
gilbert
giovanni
goods
gotong
granat
gringsing
guards
guns
gunungkidul
guruguru
guyonan
hadar
hadiri
hadiyanto
haedar
hahaha
haid
hamstring
hamza
handoyo
hargai
harjono
hasanudin
hasbullah
have
heng
hewani
hian
hubungi
hui
hyoyeon
ibas
ignis
iib
imdb
indomaret
inkonsistensi
inovator
inten
io
isc
jaffer
jakub
jara
jarot
jasamarga
jepin
jimi
jne
jogging
jonny
jua
judi
judicial
junda
kab
kabiro
kadipaten
kajiannya
kaliber
kalteng
kasai
kaspersky
katup
kebanggaannya
kebangkrutan
kebhinekaan
kecelakan
kedekatannya
kedudukannya
keep
kegemilangan
kehangatan
keharmonisan
kejayaannya
kelakuan
kelembapan
kenangnya
kepingan
keriput
kertosono
kesannya
kesedihannya
kesehariannya
ketidakseimbangan
keyakinannya
keys
kiss
kkr
knot
koo
kopinya
koreografer
ksatria
kumbang
kurcaci
kurs
kyun
labelnya
lainya
lakoni
lalunya
lampau
landing
langsa
larasati
larsson
lawatannya
leeds
legimin
lenny
lenyap
leslie
leverdez
lidwina
lipatan
llc
lns
lob
lukasz
luksemburg
lusin
lusuh
lvmh
macem
magnussen
mahadewi
mahaka
makarim
malawi
mandagi
mania
manoj
mar
marcia
maribor
marisa
married
maryono
maryoto
mashita
matheos
mathew
matius
mc
mcmoran
medina
medistra
melalu
melampirkan
melon
memantik
membara
membentang
membereskan
memesona
memilihnya
memperkeruh
mempersatukan
mempertahankannya
menakuti
menandaskan
mendiami
mendung
mengantisipasinya
mengelar
mengembang
mengenakannya
mengenyam
menggantungkan
menggeliat
menggenangi
menggerogoti
menghafal
menghias
mengorbitkan
menjawabnya
menjegal
menjurus
mentalnya
menularkan
menunya
menyalin
menyilangkan
menyurati
merestui
meunier
mewawancarai
michiels
mick
militernya
misaki
misfit
moira
molor
mondo
moor
motta
muaro
multifinance
multiple
munawar
mura
murderer
muru
musi
nabila
nadi
nanga
naomi
nara
narendra
nasrani
nasrul
nct
ned
neneknya
ngawur
nikkei
nini
nirawak
noken
norman
npg
nrp
nyanyikan
ogan
omongan
origi
pabriknya
pacuan
padjadjaran
panggabean
parasut
pariaman
parodi
past
pdf
pecat
pejaten
pekannya
pelipis
pembukaannya
pemeringkat
penambah
penandatangan
pendinginan
penenang
pengambil
pengasingan
pengepungan
pengkhianat
pengosongan
penh
penikaman
penobatan
penyajiannya
penyebutan
penyuntingan
peradi
perancangan
perbukuan
perhotelan
perilakunya
peripheral
peritel
perlambatan
permintaannya
pertelevisian
peselancar
picchu
pilek
pimpin
pinocchio
pistols
pj
pmr
polanya
polaris
pomdam
ponpes
populernya
pph
prabayar
pratinjau
premis
prestige
prestisius
prisca
prisma
protection
proyeknya
pte
publisis
purbalingga
purnawirawan
quidditch
quo
rahang
raharja
rajutan
rawajati
rayuan
rebusan
rekonstruksi
rencanakan
reptil
request
residensi
residivis
resmikan
restaurant
revolver
rifky
ringannya
riquelme
robusta
rodrigues
romansa
romeo
roses
rudolf
rumi
rummenigge
sahut
samba
samin
sanches
sanders
sanksinya
schneiderlin
seagal
seantero
sebagus
secure
sedari
sejam
sekelilingnya
sekurangnya
selaput
selebaran
selembar
selian
selingkuh
seller
semburan
senonoh
sense
serdang
sergei
sesuka
setianya
shakira
shower
siberia
sinarmas
sirsak
slim
smear
smeltz
smpn
snorkeling
soekarwo
sofia
soliditas
sorongan
spam
spy
sritex
stabilisasi
stallone
stanford
stay
steak
steele
stefani
stein
step
stephanie
sucofindo
sukadana
sukamta
suksesnya
supremasi
supreme
suruh
surveillance
survival
sustainable
syehan
systems
syuro
tagline
tahta
takoyaki
tamah
tanggungan
tapir
taqwa
tasya
tatapan
tbc
tcl
teatrikal
teknisnya
tempatkan
temporer
tenggelamnya
terbantahkan
terbentang
terbukanya
tercecer
terdiam
terekspos
terelakkan
terenkripsi
tergambar
terhidrasi
teritori
terpotong
terselamatkan
terserap
tersibuk
tersulit
tertingginya
tertular
theresia
thread
ticketing
tik
tikar
tirtayasa
tko
tm
tobing
toby
toner
totok
toys
transportation
trend
trick
triliunan
trips
tucker
tutorial
tvxq
twit
tzu
urie
usulkan
vaughn
vecino
velvet
vertonghen
vixx
vol
watanabe
webber
weleri
whulandary
wilhelmus
winner
wirausahawan
wisatanya
wisconsin
wonosobo
yamin
yannick
yasmin
yingluck
yovie
yuki
yunho
yustinus
zainut
zambrotta
zico
zina
acha
aci
adem
adinda
african
agamanya
ahmet
aire
alcantara
alliance
allo
ambulance
ananta
ancam
angelique
angers
ani
ann
apes
aps
arit
arrow
asan
asgard
asih
asik
asimetris
ask
astrup
atalarik
atang
att
auckland
autis
aviasi
avp
aw
babeh
badaruddin
badau
bahasanya
bahtera
baitul
baktinya
bangganya
bangli
bangsawan
banner
barbados
barbara
barrack
barracuda
basquiat
baturraden
bawahannya
bebuyutan
belawan
beradik
berbaju
berbaring
berbiaya
berdandan
bergerilya
berkelakar
berkesudahan
berkewajiban
berkicau
berlisensi
bernafsu
berpendidikan
berpetualang
bersitegang
bertha
bertingkah
bertingkat
bertumpu
besarkan
bilas
bjb
blueberry
boat
bondowoso
boni
bono
boris
borough
boulevard
boyd
boyega
brett
brosur
built
builtin
bukankah
bulletin
burhanuddin
busananya
byte
cairo
calvert
cao
capt
cargo
casino
cedric
celup
centenario
chamber
cheryl
chiang
child
cici
cikopo
cipika
climate
cobaan
condon
convergence
crossover
cuka
cumming
cycling
daftarnya
dahlia
dakar
danamas
darmansjah
dato
dechapol
dee
defile
deposito
dialisis
diamkan
dias
dibanggakan
dibebani
dibyo
dicat
diciptakannya
dicuci
didaratkan
didefinisikan
dideskripsikan
digalang
digerakkan
digubris
diinginkannya
diinstruksikan
diinterogasi
diistirahatkan
dijabat
dijagokan
dikebumikan
dikomunikasikan
dikorbankan
diloloskan
dilumpuhkan
dimitri
dinasnya
diperdagangkan
diperingati
dipikir
dipoles
dipukuli
direbus
direhabilitasi
diriku
discussion
disergap
disoroti
disyukuri
ditumpanginya
ditutupnya
divya
dodo
doel
dominggus
dpi
dufan
durasinya
eastern
eba
eco
edc
editing
edo
elliot
emanuelle
endang
engelberd
engkau
engsel
ergo
escudero
estianty
estrogen
eu
faktur
fakultatif
falcon
father
fatih
fatuleu
feature
fender
ferrell
figc
figure
fillon
floating
folk
formulasi
franc
fred
freelancer
freezer
fuel
fuenlabrada
fulus
gagalnya
gantungan
garner
garros
gel
gelanggang
geospasial
gibson
gimbal
gisella
gki
glodok
gmt
gods
gourmet
grass
gru
guan
hajar
hajat
half
haluan
handika
handoko
hanna
haryo
hasilkan
hatchback
haul
hawking
hawthorns
headline
healing
heaven
helium
hemoglobin
hennessey
hessel
hey
hgb
hiatus
hidayatullah
higienis
hilmi
histeris
hormati
hotman
hours
hudson
hujatan
humphrey
hunting
identification
idx
ied
igor
ikhlash
indikasinya
inferior
infrastructure
initial
inkonstitusional
inpex
iptek
ira
isaac
istiadat
istimewanya
jaka
jamaluddin
jammy
janssen
jasadnya
jerikho
jerome
jhe
johns
johny
jornada
joystick
juaranya
kah
kahar
kahitna
kahlo
kaidah
kalendar
kamilla
kampar
kanu
kapitalisasi
kapsul
kasual
kasuba
kava
kawat
keahliannya
keakuratan
kebal
kebiasan
kec
kedaruratan
kei
keira
kejahatannya
kejauhan
kelabu
kelebihannya
kelengahan
kelenteng
kelopak
kemunculannya
kenaikannya
kepeduliannya
kepiawaian
kepikiran
keramat
kerbau
kerobokan
kesini
ketagihan
ketidakpuasan
khamenei
khatam
kirono
kocak
koi
kompatibilitas
komposer
konstruktif
konsumer
kortisol
kotaku
krama
kravitz
krishna
kroya
kts
kutoarjo
kwik
labeouf
lala
lam
lcs
leadership
legalisasi
lekukan
lendir
leni
lentur
lili
lionsgate
lonceng
lowery
lowes
lpi
lumia
lwin
macau
machu
magrib
mai
majid
makannya
malapetaka
maldives
mandailing
manga
maninjau
manipulasi
marshal
masagung
massoud
mastercard
masturbasi
matador
matematis
matrix
maudy
mbps
medico
meier
mejeng
melambaikan
melambangkan
melapisi
memaknai
membacanya
membalaskan
membandingkannya
membasmi
membelokkan
memberangus
membikin
membuktikannya
membulat
memeriksakan
memperberat
memperkenankan
memperparah
memproteksi
memupus
menambahi
menanganinya
mencanangkan
mencela
mencoreng
mencuatnya
mendepak
menelpon
mengambang
mengarahkannya
mengerem
mengganjal
menggondol
menggunggah
menghentak
menghujat
mengikutinya
mengkampanyekan
mengoreksi
mengumandangkan
mengumumkannya
mengunakan
mengusik
menhir
meninggi
menjejakkan
menjerit
menjiplak
mensejahterakan
menyaksikannya
menyamarkan
menyanggupi
menyemprotkan
menyimak
merambat
meratapi
mercon
mercure
meregang
mertua
mertuanya
metromini
mewarisi
mewartakan
mikroba
miles
ml
moderator
monolog
monument
moril
mrauk
muallimin
mukanya
mukjizat
mulyo
murka
muslimah
nakajima
nanjing
nantes
naples
nauru
ne
negarawan
nego
neural
neuron
nias
nino
niru
nisan
nyqvist
okami
okky
ola
orchestra
origami
origin
ot
oval
paint
pakta
panah
panama
pankreas
pantainya
pap
parang
parisien
pariwisatanya
pat
peci
pei
pelaminan
pell
pemakainya
pembimbing
pemerintahnya
pencatat
pendekatannya
pendistribusian
penetapannya
penggarap
pengumpan
pengumumannya
penitipan
penjamin
pensil
penyaring
penyaringan
penyebarannya
peparnas
perabotan
perakit
percayalah
perdelapan
pergaulan
perisai
perk
perkosaan
persibo
persyaratannya
pertahanannya
pertunjukannya
pesawatnya
pesulap
phablet
photograph
pick
picu
pilihlah
pilots
pioneer
piutang
pocket
polifenol
politeknik
poppie
porter
potehi
prajongjai
prakasa
premi
presley
profesionalisme
property
protestan
psikiater
purna
pusarla
queensland
radikalisasi
radon
ralph
ranocchia
ranting
rapih
ratifikasi
rea
recognition
reda
redknapp
reed
reeves
reflex
reid
ren
representatif
represif
reservasi
resistensi
resolusinya
rifan
rinaldi
riyanto
robotics
rockers
rom
romance
romo
rosa
rossa
roth
rudalnya
rujuk
sadiq
sahari
saints
sakhir
salak
sandiwara
sansan
sarkozy
sbmptn
schwarzenegger
scream
sdf
secukupnya
sedona
segel
sekecil
selasar
selokan
seninya
serasa
serempak
sergej
session
setapak
seth
settings
sgd
shadow
shark
shiloh
shinji
signora
silaturahim
sileri
simpar
sinclair
six
skenarionya
skrip
skull
soebroto
soemarmo
sofian
sorakan
sosialita
spike
spinner
sporadis
steering
stereotipe
stpp
strasbourg
strateginya
stress
substantif
sufi
sukoharjo
sulungnya
supandi
supercar
supervisi
syahid
syarifudin
syarkawi
tahlilan
tai
tampubolon
tamsil
tangisan
tarantino
tarawih
tasik
taufan
td
temanya
tentangnya
teratai
terdahulunya
terencana
terjangan
terlengkap
terpanggil
terpinggirkan
terrace
tersanjung
tersemat
tersohor
than
thowok
thrill
thug
tijani
timbang
tindik
tiup
tl
tolok
tomy
toure
trackpad
transport
trong
truffle
tsukiji
tu
tunjung
tyga
uganda
ulahnya
undercover
unitnya
upt
usang
usung
valero
very
vespa
vinil
vokalnya
von
waitress
wanderers
wasiat
waterpark
welly
wind
words
xii
yates
yeon
yi
yono
yoshi
ypg
yzr
zahara
zak
zoya
abbe
abbott
absolut
abstrak
abyss
actor
adapter
adinia
adiwiyata
administration
adolf
adreno
agendanya
agensinya
agl
agnes
akane
akarnya
akhlak
akronim
aksesnya
akte
aktual
albus
alcatel
alloy
alto
amit
amjad
andalas
animator
anshor
antarumat
anting
apus
archives
arik
ariska
arkeolog
arloji
arsy
artileri
arum
arviyan
asha
asmir
assassin
assists
astronomi
atlantik
atletnya
atwood
bachelor
bacsinszky
bagaikan
bahannya
bahaso
banggakan
bangunannya
bankir
bantargebang
basa
basarah
battery
bawen
bebop
bedagai
begiristain
begitupun
bel
belle
belvedere
benedict
beneran
berdych
bereuni
bergelombang
bergilir
berjemur
berkali
berkelana
berkenaan
berkerja
berkumpulnya
berlakunya
bermodal
berpaling
berpendapatan
berpikiran
berubahnya
berunding
berwajah
besutannya
bg
bidan
bigo
bingkisan
biologi
blah
boediono
bon
bordeaux
bowling
brace
bramantyo
brendan
budianto
bugs
calvo
cambuk
canfield
cannon
casa
cassidy
cebu
celananya
chambers
cherry
cherrybelle
chinese
christina
chul
cijeruk
cileunyi
cinderella
cindy
cinemas
cipratan
coaching
coin
companion
cong
cool
corbuzier
corentin
cornelius
countdown
craft
crazy
crillon
crisis
critical
cruiser
cuap
cultural
curahan
curian
dalem
damanhuri
dante
dao
dasi
datangkan
decak
depari
deutsche
dewanti
dhaka
dharmais
dibekukan
diberikannya
dibolehkan
dibumbui
didalam
dieksploitasi
digelontorkan
digiring
digitalnya
digne
diisolasi
dijalin
diklat
dikubur
dilacak
dilamar
dilandasi
dilempar
dimajukan
dimasuki
dimyati
dinaungi
dinikahi
dinosaurus
diposting
dipunyai
diramalkan
direktori
direspon
direstui
disandang
disembelih
disentuh
disiasati
disidang
displayport
disruptive
district
ditangkapnya
dites
ditularkan
ditumbangkan
ditundukkan
diusungnya
divide
dm
dohc
dolly
doyok
dudung
duhamel
dukun
dumping
duran
edukatif
ee
elio
ellyas
emerson
enamel
equity
erizman
everything
exxonmobil
fajri
faktornya
fauziah
feet
feng
fiat
fidel
filip
fkui
framework
franz
fui
fujimori
function
gabi
gantian
garfield
gasifikasi
gedog
gema
gemerlap
genosida
gentong
geo
geopolitik
ger
gerwis
gigih
gilimanuk
gilirannya
ginza
givenchy
globalisasi
gmf
goyah
grille
griya
gto
gubenur
gurita
gymnasium
gyroscope
habibi
hadiahnya
handle
handling
handstand
hangzhou
hapus
hatf
hb
hdd
hemas
herlambang
herzegovina
heysel
hood
hooters
hotelnya
hrd
husnul
hutchison
hwan
iago
ibiza
icao
ifab
iga
iker
ile
inna
interogasi
islamabad
isolasi
isuzu
iu
jailangkung
jamak
jamal
janin
jaringannya
jatipadang
jeblok
jeon
jihadis
jing
jojo
journalist
jt
jules
kadis
kakap
kalbar
kalem
kaptennya
karam
karin
karyawati
katakanlah
kawal
keberlanjutan
keenan
keguguran
kekisruhan
kendalanya
kentara
kentaro
kepelatihannya
kerakyatan
kerentanan
keriting
kertajaya
keruh
keseriusannya
kesuma
ketawa
keterpurukan
kewajaran
khidmat
khoo
kicauannya
killer
kompi
kondom
konsen
konsensus
koral
korg
kors
kosuke
krakow
kronik
kuartet
kukunya
kumur
kung
lahar
latihannya
lau
lautnya
lazuardi
leandro
lebam
lehernya
lembong
lemmy
lens
leone
lequipe
lewin
lhokseumawe
liem
lip
lipa
literatur
lontaran
lose
losion
luntur
lupi
lurik
lyonnais
macaskill
macaulay
majemuk
makau
malamnya
malta
mami
marwah
masanya
matte
maximilian
mayapada
mci
meat
melanjutkannya
melatonin
melelang
melengserkan
melobi
memahaminya
membahu
membicarakannya
membludak
memesannya
memfitnah
memikirkannya
memilukan
meminimalisasi
memperbaikinya
memprakarsai
memproduseri
memutarkan
menakar
menaklukan
menancapkan
mencemarkan
mencemaskan
menciduk
mencontoh
mendemonstrasikan
mendeportasi
mending
mendorongnya
menebarkan
mengamanatkan
mengecilkan
mengenalnya
menggalakkan
menggelitik
menggila
menggosok
menggubris
menghakimi
mengibaratkan
mengikutsertakan
mengilap
mengintensifkan
mengonsumsinya
meniupkan
menjalaninya
menjulang
menstabilkan
mentok
menumpahkan
menuruni
menyalami
menyampaikannya
menyendiri
menyerahkannya
menyetor
menyuntikkan
meramu
merapikan
mercado
meredup
messages
michele
microphone
mikha
milestone
minister
miramax
miui
mma
mmbtu
mmhg
modi
mogot
momo
moss
mozes
muntari
murahnya
murakami
musuhnya
nabawi
nadia
narsis
nasofaring
natali
natalia
need
ngantuk
ngerasa
nichol
nimibutr
nirlaba
nitro
nong
norwich
nottingham
npl
npwp
nr
nums
nyentrik
octagon
okan
olympus
onky
operating
opor
opsional
oral
orangutan
origins
orkes
osasuna
osen
otentikasi
otopsi
outer
pacarnya
pair
pali
pallotta
palmer
pamannya
pandeglang
pangrango
parlementer
pastore
patrich
pawar
pecatur
pede
pemandian
pematangan
pemberkatan
pemecah
pemersatu
pemugaran
pemulihannya
pemulutan
penarik
pendahulu
pendana
pendanaannya
pendirinya
penentang
penenun
pengajaran
pengentasan
penggebuk
pengubahan
pengupahan
penjelajahan
penukaran
penyelenggaraannya
perapian
perbasi
perkenalkan
perkirakan
perlakukan
persennya
persisnya
persita
pertokoan
perumusan
pesilat
ph
phase
phinisi
pijakan
pino
pintarnya
piotr
pirang
pisangan
platini
plenary
powell
ppd
pradesh
prasangka
prawiro
premiere
pri
primera
priyo
productions
programming
prototype
proyektil
punisher
puppets
pusaran
puti
rachel
rahma
rancang
rangking
rangkuman
rara
raspberry
raven
redouane
relations
reply
residence
retorika
rifai
rimba
risau
rising
riung
rizaldi
romain
rontok
rosan
rote
rover
rytter
sabhara
safri
saksofon
salaman
salma
salmonella
salut
salvatore
saman
sampanye
sanaa
sansar
sapa
sapuan
sato
satrio
saung
sayed
sbsn
schedule
scientist
screening
sdr
sedalam
segunda
sekat
seksualnya
sekte
selling
senamuang
seok
sepeninggal
seperangkat
sepeser
sepupu
sequoia
ser
serak
serangannya
serbaguna
seruyan
sesederhana
shara
shetty
sheva
sidempuan
silau
siluman
siman
simmons
simorangkir
singaraja
sistemik
sitkom
sj
skateboard
sodium
soerjopranoto
sokoliman
soler
somasi
sombong
sondakh
sounds
spesifiknya
spiegel
spray
sriti
straits
stride
student
stylist
subyek
sulap
sulistyowati
suram
surprise
suryani
sutra
suwondo
sven
switching
syahnaz
syamsudin
syrian
tahitoe
takaran
taksiran
takutnya
tanuwijaya
tapak
tarikan
taspen
tasty
taxi
telpon
telunjuk
tengkulak
tennessee
terbanggi
terbayang
terdalam
terdata
terdongkrak
terhibur
terigu
teritorial
terpikirkan
terpisahkan
tersambar
terselip
tez
tgpf
thani
theft
thumb
thunderbolt
thuraya
ticket
tidore
titip
tohpati
toksikologi
toleran
tomang
tompi
tonjolan
tp
tr
trayek
tree
triumph
tsai
tsc
tumit
tumpangan
tumpeng
tumpul
tun
tunjuk
turunannya
twc
uban
ubi
ucl
ukhuwah
ulangi
uli
ultimatum
ulum
umpatan
una
underwater
unduh
unlimited
urusannya
uya
vanda
varietas
vatikan
ventilasi
verrel
veto
vila
villar
vitro
vma
vocal
vx
wacom
wajo
waller
warni
whittaker
widjojanto
wildansyah
wonton
yakini
yard
yellen
yesung
yogya
yudikatif
yuliana
yusup
zapata
abd
abnormal
accelerator
accelerometer
adidaya
adriana
advance
adzana
ae
afni
agate
agrikultur
agustiar
aktifnya
akurasinya
alaba
alangkah
alert
alexandra
alfie
alimin
alva
alwyn
aminah
amitrapai
ana
anadolu
andrianto
anggara
anggraini
another
antibodi
apartemennya
apec
apu
arbain
arbeloa
arda
ardi
ardiles
ashwini
aspirin
ass
assessment
associate
augsburg
aus
autentik
autopilot
axis
axl
ayudia
azam
azan
babelan
badak
bahtiar
baines
bakalan
baker
bandingnya
banyuasin
barbosa
barbuda
baret
barusan
bas
basofi
basro
batasi
beck
becker
before
behind
believe
beni
berair
beraneka
berargumen
beraspal
beratap
berdimensi
bergembira
berhemat
berimplikasi
beriringan
berisik
beritanya
berkelit
berkesimpulan
berlantai
berliku
berlusconi
berlutut
bermusuhan
beroda
berotot
berpawai
bersandar
bersedih
berselingkuh
bersemayam
bersiaplah
bersimbah
bertelanjang
bertuah
berurutan
bhima
bibi
bidding
bidik
biduan
biksu
bintara
binus
bioaktif
bip
bivak
biz
blanko
bleu
bleus
bojan
bojong
bokong
bookmark
bopak
born
boros
branch
brands
brit
broadcast
budhi
bui
bule
burkina
burma
bya
cabral
caitlin
cakra
camcorder
canggal
capacity
capsule
carlson
carnaval
castano
catherine
catz
cdc
cekatan
ceres
cerutu
cfd
chai
champagne
changmin
channing
chapo
chastain
chats
cho
christoper
cigombong
clichy
coli
colokan
commander
compound
conrad
container
cordoba
cordon
course
crimes
cronus
crop
cupertino
curang
cx
cze
dado
daisy
damar
dany
dapet
darahnya
daren
dat
dateng
datuk
daughter
dedaunan
dein
deposit
designer
destro
det
diajari
dial
dibajak
dibantai
dibesar
dibesut
dicadangkan
dicermati
did
didahului
didata
diderek
digarapnya
digendong
dikehendaki
dikibarkan
dikomandoi
dikuburkan
dimainkannya
dimanipulasi
dimudahkan
dinamo
dipentaskan
diperingatkan
dipersoalkan
dipisah
diprotes
diraja
dirampas
diremehkan
disambung
disekitar
disuarakan
disukainya
ditenggelamkan
diterangkan
ditusuk
diungkapkannya
diusahakan
dnc
doddy
doktoral
dolby
domisili
doodle
doom
duchess
dude
duitan
dwikorita
ecommerce
economics
egg
ekky
ekosistemnya
ekslusif
elf
elgort
elisa
elise
empunya
endo
enny
epicentrum
epps
ereksi
erotis
erra
escrow
ethan
euclid
fabian
facundo
fade
fadia
famous
fanpage
fansnya
farmer
faso
fatimah
fb
feat
fetish
filippo
filosofis
fingerprint
fiona
flame
fletcher
florence
frozen
fundraising
funk
gabriella
gahar
gandeng
garap
gathering
gautama
geisha
genjer
geoff
geothermal
granite
greenwood
gregoire
groot
gsm
gubuk
gugatannya
gundukan
gusta
handheld
hanyut
harbor
harkat
harmonisasi
hartanya
has
hastings
hayati
haydon
hayley
hazel
headlamp
hearn
heinz
henge
hepatitis
herve
hewlett
himawan
hinaan
hollande
holy
honour
hopman
hsieh
hulkenberg
hunter
hutagalung
hutama
hypermart
ibundanya
iero
iger
iggy
ignatius
iia
iin
ikke
ilyas
imingi
impikan
imran
indoensia
indrayana
induknya
ingus
inipun
into
intuitif
investments
isaiah
jabat
jada
jalurnya
jargon
jefferson
jeje
jenggot
jenson
jeong
jha
jingkrak
jiro
jiwanya
jolla
julien
jungkook
juniornya
jupp
juwaini
kaktus
kamaluddin
karyono
kasepuhan
katun
kazumasa
keanehan
keasyikan
kebisingan
kecerobohan
kecipir
kedinginan
keikutsertaannya
kek
kelaikan
kelaminnya
kelantan
keller
kelonggaran
kemajemukan
kepalang
kepintaran
kerah
keranjang
kerry
kesebelas
kesederhanaan
kesinambungan
ketidakmampuan
ketimun
keuangannya
kezia
khairiansyah
khoir
khusyuk
kidman
kiev
kilangin
kilau
kinantan
kingsley
kititharakul
klasmen
klinsmann
knkt
kodak
kokpit
kolarov
komersialisasi
kompetitornya
konstelasi
konstruksinya
kontraproduktif
kordinator
kosmetika
kpop
kridosono
kristina
kumulatif
kushner
kusir
kwitang
kyai
kyrgyzstan
labo
lag
lagarde
lago
laksana
lebah
legitimasi
leiden
lekas
leluhurnya
lembap
lembeh
lentera
lewati
liao
liberia
lihatlah
lim
liquid
loco
lucunya
ludogorets
lycodon
lynn
madame
maitland
maksimalkan
malahan
malahayati
malibu
malih
malnutrisi
mambo
mantovani
mapping
marcella
margonda
markasnya
martian
masjidil
massimo
materai
matinya
mauritania
mawardi
maxwell
mayo
mccallister
mcenroe
mebel
medel
mediterania
mejanya
melalap
melecut
melempari
meletakan
meletakkannya
melewatinya
memandangi
membaiknya
membayangi
membekap
membuatku
memilki
memoles
memperkenalkannya
memperpendek
mempertanggungjawabkan
mempertontonkan
mempresentasikan
memuntahkan
menahannya
menangkapnya
menawari
menawarkannya
mendakwa
mendaur
meneguhkan
menelaah
mengampanyekan
mengayomi
mengebut
mengecap
mengecat
mengembalikannya
menggenapi
menggoyang
menghidupi
menghujani
mengocok
mengulas
mengunjunginya
mengurusnya
menjalar
menjamur
menjatuhi
menjejak
menterinya
menunggunya
menurutmu
menyanggah
menyebarkannya
menyeberangi
menyiram
meraba
meratakan
mercury
merekamnya
merevitalisasi
merobohkan
meyers
migme
milenium
mimin
minder
mindset
mine
minibus
missouri
mmi
monet
monroe
movement
mraz
msn
muak
multilateral
mumi
mungkinkah
mursi
mute
muti
myers
myriad
naif
nair
nasabahnya
navigator
navy
nayaka
nazionale
neira
nestle
newport
ngurus
nicko
nile
niles
ningsih
nirina
nit
nlp
notaris
novan
ns
nugget
numancia
number
nunukan
nyepi
ochoa
odense
op
orban
organizing
oriental
otorisasi
ovarium
packard
pacunya
paji
pakaiannya
palo
pandu
panelis
panenka
paranoid
parkes
parupalli
pasiennya
pastry
payakumbuh
pcie
pecel
pedofilia
peggy
peledakan
pelembab
peliharaannya
pematangsiantar
pembekalan
peminum
pemulung
penahan
penahanannya
pencaharian
pencerahan
pencetus
penciptanya
pencitraan
pengerjaannya
penggandaan
pengintaian
pengintegrasian
pengrusakan
penjarahan
penyegelan
penyewa
penyimpanannya
penyuapan
perahunya
pereyra
pergerakannya
pergudangan
perjuangkan
perkenalannya
perkusi
perpisahannya
persewangi
persibat
perumnas
perundang
pesakitan
petra
pewaris
pgri
philosophy
piaggio
pintas
pitana
pittsburgh
planning
plasma
plugin
poirot
poppins
powerpoint
ppm
prakoso
pram
prevalensi
prijono
primadi
processing
produce
prolegnas
promosinya
promoter
promotion
protokoler
psikotes
pujo
puspita
putranto
qs
quasar
quest
raam
rachmawati
radin
ragil
rahmatan
rahmawati
raider
ramalan
randy
rangers
reasons
rebranding
recording
reddit
redmayne
regular
rekamannya
remember
rendi
repackage
reset
response
rinca
ringsek
risalah
risih
rn
roar
rogan
rohim
roscosmos
rubuh
rully
rushdy
rusuh
rycko
saad
salahudin
saliman
sampling
sanur
sardono
sarinah
sasarannya
satellite
saudarinya
sayer
schultz
scilly
scorpio
sctv
section
segiri
seisi
sejagat
sekaliber
sektarian
sekuritisasi
selly
seluk
selular
sema
semar
semboyan
senggang
seno
sensitivitas
separah
sepupunya
serapan
sereal
serotonin
seskoal
seteru
shakur
shangri
sheffield
sheriff
siklon
silahturahmi
silvia
sinematik
singgasana
singkirkan
sitepu
skripnya
skutik
slow
sonic
sosmed
speedboat
spherical
sprocket
sss
standby
statham
stevens
stimulasi
straight
stretch
subo
substansial
suites
suits
sukaesih
sukmanto
sulfur
sulteng
summarecon
sunat
supermodel
supriyono
suri
suroto
swalayan
syahrial
sykes
taklim
takutkan
talaud
tale
tanggalnya
tanta
tasa
task
tatjana
tattoo
tekadnya
telaga
telematika
tematik
tempoyak
terbatasnya
tercintanya
terdepak
tereliminasi
terganjal
tergusur
terjadwal
terjang
terjerumus
terkepung
terkirim
terlindungi
termuat
tersalurkan
terselubung
tertunduk
terusan
tesfaye
testimoni
th
thinking
threat
tiesto
timeline
timun
tiruan
tjahjadi
tobacco
tolitoli
tomb
tongkang
tpp
trackball
transaksional
transfusi
trends
triadi
tribut
tripoli
trisakti
tumiwa
ubk
ucok
ud
ulangan
ulayat
unilateral
uranium
uranus
urea
usain
utk
vagina
vandalisme
vernon
versinya
victory
vientiane
viewfinder
vinh
vinicius
visit
voyage
vulture
wallace
walmart
warren
wasekjen
wheels
widya
wiratmaja
wk
wolfenstein
wulan
xix
xpress
xps
yodi
yosep
yudhistira
yulia
yurie
zara
zaskia
zendaya
zoo
zoonosis
zulfikar
zwiebler
abaikan
abby
abl
accounting
achilles
actress
adakah
adapula
adhiguna
administrator
adventures
advisory
agustin
aint
akg
aks
aktornya
akuatik
akuntan
alain
alfamidi
alice
alkatiri
almere
amirul
ampere
analogi
analyst
anc
andaikan
andayani
andra
anestesi
angan
anggar
animation
anoa
antarnegara
antologi
anwari
apanya
ape
aperta
apnea
apotik
apparel
appi
apri
aquamarine
arahannya
archos
ardy
aria
arisan
ariyo
armando
arsyadjuliandi
asamoah
asdp
asrul
asyari
atasannya
atase
atri
audience
aurat
automated
autosport
baasyir
backlight
bag
bahayanya
bain
bajak
bakwan
ballad
banana
bandwidth
bappeda
barabai
barrier
basir
batangas
baturaja
batusangkar
bayangkara
bedroom
belumlah
bentegodi
beranda
berbasiskan
berbatov
berbesar
berbulu
berbumbu
berdemonstrasi
berdosa
bereksplorasi
berfikir
bergelimang
bergurau
berjabat
berkelahi
berkelompok
berkepribadian
berkhianat
berkorban
bermuara
berolah
berperforma
berpromosi
bersentuhan
berserakan
bersoda
bertatap
berulah
berulangkali
berwawasan
besarannya
besoknya
bfi
bhabinkamtibmas
biadab
biagio
bidara
biennale
bincang
bius
bko
blazers
blossom
bmi
bohemian
bona
bonjol
bootcamp
boots
botak
brata
brawn
breakthrough
brenner
brush
bug
bugatti
buket
bulacan
burundi
buyout
cadena
calabria
came
cantona
carrara
carrier
carroll
catat
cb
cellular
cemoohan
ceritakan
cerna
charly
chemical
chuseok
cibiran
cibitung
cilodong
ciloto
ciparay
claire
clayton
clyne
coating
colomadu
comment
comprehensive
congress
converse
convertible
cooler
cooperation
cornet
counsellor
couple
critics
cukur
curi
curtis
dai
dalan
damn
darren
dault
davison
dayung
dd
degan
delph
demontrasi
deodoran
derawan
desy
detour
dg
dialirkan
dibagian
dibelikan
diberkati
diberondong
dibocorkan
dibohongi
dicairkan
dicantumkan
dicarikan
dice
dicetuskan
didesak
didikan
didoakan
diduetkan
difitnah
dig
digalakkan
digulung
dihimbau
diibaratkan
diikutsertakan
diinvestasikan
dijabarkan
dijebol
dijejali
dikampanyekan
diketahuinya
dikreasikan
dilawan
diledakkan
dilihatnya
dimensinya
dinar
dipakainya
diperjualbelikan
dipertegas
diplomatis
dipresentasikan
dirampungkan
dirobohkan
dirumuskan
disandangnya
disapu
disaring
disco
disease
disesalkan
disisipkan
ditanda
diterbitkannya
ditikam
ditilik
diwariskan
dokumennya
dolken
dorodjatun
dracula
drink
dualisme
duduknya
dunst
dy
dynamo
earl
easy
ebrahim
edgar
eh
eindhoven
ekologi
elyas
emblem
energik
energinya
enough
epilepsi
episenter
equinox
estonia
ether
etos
euis
eve
ew
expedition
extended
facial
fakdawer
fake
famili
fantasy
faruq
fat
featuring
fei
feige
fenny
feud
fiction
firasat
flavio
flicker
fluktuatif
folat
fraksinya
fraser
freddy
frost
ftv
futuristik
gaddafi
gadung
gael
gagasannya
galicia
gallas
galungan
gampong
gan
ganjalan
garpu
geely
gelak
gelarnya
gembel
gempar
generated
geostasioner
gestur
gi
gimmick
giovani
girlfriend
giselle
gkr
gloucestershire
gnabry
gonzalez
graduate
grams
gratisan
gravitasi
greene
grenfell
gubernurnya
guido
gulai
gurauan
gustavo
guthrie
hadapannya
haidar
halimah
hallyu
hambali
handayani
hangus
hannover
hardcore
harold
hartati
hashim
haya
helena
heli
heong
hidden
hiruk
his
hisap
hmm
hold
homo
honey
husin
hyderabad
ibo
idan
ikhwanul
ill
ilusi
ilustrator
implementasinya
incubus
industries
infinix
infografis
informasikan
inginnya
inkonsisten
inspirasinya
intersepsi
intro
inventaris
investigatif
ipdn
irina
ironi
islamiyyah
isnaini
issue
istikharah
isya
jabrik
jacqueline
jacques
jaelani
jamaludin
jamnya
jana
janganlah
jannah
jenaka
jetstar
jie
jimin
jinak
jis
jlo
jugalah
jutawan
kakanwil
kal
kaligawe
kamus
kanguru
kara
karapan
kasubbag
kawalu
kawasannya
keagenan
keberuntungannya
kebodohan
kebolehan
kebutaan
kedengarannya
kegunaan
kekaguman
kekesalannya
kekhawatirannya
kekhususan
keladi
kemari
kemas
kendalinya
kepartaian
kepedasan
kepemudaan
kepiawaiannya
kepopulerannya
kepraktisan
kesempatannya
kesulitannya
ketan
ketidakhadirannya
keynote
kibar
kibor
kicker
kimura
kir
kiwi
knalpot
koarmabar
koh
kolding
komplit
konjen
koopsau
kopiah
kordinasi
korelasi
korup
kosmonot
kp
kreasinya
kriminalitas
kristian
kristus
kt
kubah
kunciran
kusnadi
kustodian
kwon
kyaw
laa
labuhanbatu
laci
lahannya
lahirlah
lajangnya
lambatnya
lapian
laughter
laun
lawak
leci
legislator
lembur
lena
lenteng
less
leukemia
lexus
lightsaber
lindungi
lineker
lis
litbang
lloyd
lodewijk
loreng
lot
loud
loved
loving
lues
lukito
maag
macklemore
maddox
maftuh
maggie
mahakarya
makasar
maknanya
malia
malut
mamanya
manajerial
mandek
manejemen
manu
marilah
marsda
martir
martua
maruli
masal
maserati
masia
materinya
maulid
maw
mayestik
mcknight
meadows
mean
mediator
mee
melodrama
melonggarkan
memarkir
memayungi
membelot
memblok
membolos
membulatkan
membusuk
memenjarakan
memeras
memercayakan
memerintah
memimpikan
meminumnya
memompa
mempersingkat
mempesona
memudar
memupuk
memupuskan
mena
menahu
menangguhkan
menangkan
mencemooh
menceraikan
mencocokkan
mencontek
mencukur
menculik
mendahulukan
menegosiasikan
mengangkatnya
mengapung
mengencangkan
mengendalikannya
mengering
menggunting
menghangat
menghantuinya
menghapusnya
mengharuskannya
menghipnotis
menghujam
mengikatnya
mengiyakan
mengonfirmasikan
mengoper
mengorbit
mengungkit
mengusungnya
menjangkaunya
menjelaskannya
menopause
mensesneg
mensyukuri
menyakini
menyanjung
menyebrang
menyergap
menyuruhnya
merajuk
meramal
merapi
mercy
merealisasikannya
merebaknya
mereformasi
merge
mestalla
meteor
mewariskan
mila
miligram
miliuner
million
millwall
minatnya
mint
misbahul
mladenovic
modelnya
moment
monokrom
monsters
montana
montenegro
monty
mosi
movies
mrs
mubarok
mulk
multitasking
murcia
murder
musiman
mutilasi
mvp
mystery
nafi
naked
naluri
nang
nassar
nasyid
natasha
nawawi
nazareth
neal
neapolitan
negera
nextgen
ngopi
nh
nickel
nixon
nobody
nola
novi
nozomi
nuestra
nulis
nuraidah
nutrition
ny
nyari
nyono
obsesi
olele
onew
onsen
oplosan
oracle
orah
oranje
orkestra
oseng
otoriter
ounce
outsourcing
overlap
overtime
owl
packer
pai
pajangan
panamera
panduwinata
pangerapan
pantulan
paradox
parangtritis
parliamentary
parma
parmesan
parunya
pascasarjana
passing
pastor
patch
patenggang
patrice
patrik
patrol
pattaya
pauh
payahnya
payudaranya
pecahnya
pecundang
pedurungan
pelayanannya
pelonggaran
pelti
pelunasan
pembocoran
pemboran
pemerkosa
pemicunya
pemilikan
pemrotes
penanganannya
pencanangan
pencopotan
pencuci
pendengarnya
pendiriannya
penebusan
pengelolaannya
penghancur
penghibur
pengibar
penguat
penimbunan
peninsula
penjaminan
pennant
pensiunnya
penuhnya
penumpasan
penuntasan
penyamaran
penyataan
penyedot
penyelenggaran
penyemangat
perancah
perangkap
perasan
perawatannya
peredam
perhutanan
perkuliahan
perlihatkan
perlukan
permain
persentasenya
persika
pertigaan
pertunangannya
perundangan
pesepeda
pestanya
pete
petempur
pewarnaan
pickup
pikuk
pitbull
pitching
pitlane
plagiarisme
please
politisasi
pong
poo
porsinya
portabel
ports
ppa
pragmatis
prayitno
presidennya
prestise
processor
profilnya
proper
propertindo
proporsi
prosedural
psdkp
puig
purwanto
purwantoro
pussycat
putarannya
puth
putusnya
pwi
qantas
quincy
quique
rabbit
rafah
ragi
rakhmat
rame
rami
raoul
rapatnya
raptors
rasialis
ratnasari
razak
realita
receiver
redmond
release
relevansi
reminder
reno
renzo
resmob
restitusi
revi
revival
rhapsody
rianto
rijksmuseum
rivan
rivelino
roc
role
romania
romantisme
rony
rosario
russian
rust
rutenya
safiq
sagna
sai
saifudin
saklar
samawa
santi
santika
sarbini
sasana
satar
saturday
sb
scoville
scroll
sdk
sebiji
segitu
seizin
sekamar
sekolahan
selebritis
selidiki
senad
senna
senora
sensei
sepinya
seporsi
sepuasnya
seramai
serbabisa
serbu
setio
seven
sewaan
sf
sharon
shinawatra
shinto
shirt
shonin
shots
shuttle
shuttlecock
sialnya
sianturi
sidangnya
sienta
silek
silikon
simalungun
skate
sling
smf
smkn
smyrna
snack
soares
sodik
sok
solange
songs
songwriters
sonny
soros
sos
soundrenaline
srikandi
standardisasi
stanza
stealth
stephane
stinky
strong
stupid
subaru
subsektor
sudi
sulistyawati
sulu
sumenep
sunni
sunoto
suntuk
surau
suryana
swami
swasembada
swear
sweeping
syamsu
syaugi
tabalong
tabloid
takbenda
tamara
tamparan
tanzania
tapos
tarmizi
tasnya
taste
tate
tatung
tawau
teken
tenteram
terakreditasi
teratasi
terbengkalai
terbitan
tercetak
terengganu
terganggunya
terjungkal
terkesima
terpelajar
tersayang
terselenggara
tertangkapnya
tesis
theta
think
tiganya
tiko
timbal
tindikan
tofik
tomei
tomorrow
touchscreen
tpi
traditional
trainor
transaksinya
transmedia
trawangan
tripod
trolls
trunojoyo
tsania
tt
tunnel
tuntut
ub
ukp
unibody
unifikasi
unlock
unpad
uny
uttar
uwais
vaksinasi
valuta
vampire
vanity
vava
villiers
vinyl
visanya
voters
vv
wajdi
wardoyo
watts
wbc
wbo
weah
wee
wikileaks
wildcard
wilfried
wiliardi
window
winslet
wintour
wirasti
without
wolfgang
would
wto
xcx
yaa
yayat
yazid
yew
yoyo
yus
yves
zamannya
zelda
zenith
zinc
zor
0
1
2
3
4
5
6
7
8
9
##nya
2017
##s
2018
##i
##an
10
##a
2016
##kan
dailysocial
##n
20
##e
30
21
15
##o
12
11
##t
16
##r
13
pebalap
000
17
19
18
##k
##y
##h
14
##l
22
00
##u
masingmasing
2015
cumacuma
##d
25
##m
23
100
anakanak
24
50
##er
##g
benarbenar
2014
##ng
##in
##p
##ing
40
500
28
##on
##c
27
##ya
26
2019
undangundang
orangorang
31
##lah
29
35
##2
60
200
2013
##b
45
##ri
##en
32
##ta
##1
##f
##si
##us
##man
vinales
##al
2012
##ah
##6
##di
##na
##3
300
##ra
##0
##is
##ar
setnov
90
##8
##es
##5
##4
70
negaranegara
##7
##9
##da
2009
##at
80
##ka
satusatunya
##ia
##z
##ku
samasama
55
2011
##as
##x
##mu
##ma
##to
2010
33
##la
36
##ang
##asi
34
##ni
##ti
##v
barubaru
ratarata
##w
##ed
##ur
150
##el
##le
##no
##ik
##ga
2008
72
##han
##or
75
##sa
##et
38
##um
37
##un
400
##li
diansyah
39
600
##ch
##ro
##ir
##ut
tibatiba
##ung
51
##ong
fredrich
42
##wan
64
halhal
250
##mi
44
kawankawan
2007
bersamasama
##de
##uk
##j
##ki
46
##ry
##ja
48
imbuh
temanteman
##ce
47
##il
2001
65
##am
##ter
09
pungkasnya
1999
800
88
2004
##gan
##ul
41
imbuhnya
##ne
58
##wa
2006
54
sambungnya
##ok
2020
lagulagu
f1
pungkas
seharihari
donnarumma
##os
52
##ck
apaapa
##lan
##tan
##te
##hi
##ak
##ai
mbappe
49
56
##it
06
120
##gi
pemainpemain
##ko
59
##me
##son
71
53
##do
##re
57
62
##ly
212
##ek
##ji
##tor
##ic
2000
43
berturutturut
dybala
08
##akan
##ton
07
##ty
2005
##ba
razer
99
##aan
##jo
74
##eng
##tion
zarco
##ion
##uan
69
##ha
##ian
##q
2002
##lo
##ran
95
##ie
##th
##ve
700
##annya
##isasi
##co
##san
##ol
67
02
runnerup
##bi
##se
barangbarang
##go
lagilagi
namanama
##ikan
##id
##itas
pihakpihak
##pi
05
01
1945
68
85
##ge
##dy
2022
##ap
##der
##yah
markle
##pa
61
chatbot
##ers
66
89
katakata
##mo
360
63
##ll
03
##za
##ling
##up
fintech
##yo
76
##bo
pupr
##ca
##ner
##tik
baikbaik
betulbetul
77
gojek
lainlain
81
nilainilai
##ey
##so
rikwanto
##io
##ble
##men
##ukan
##tif
fotofoto
romelu
##sari
##anto
##du
04
1990
78
79
bertahuntahun
##bar
##kat
##ono
2003
900
apriyani
obatobatan
1998
73
82
cuitan
##tu
87
96
masinton
##ih
##kah
berhatihati
hatihati
##atan
##ati
##ment
##ov
##ts
86
s8
##ad
##ana
##st
83
##pan
kioson
klubklub
350
##ani
##ari
##im
##lin
130
##ding
1000
91
bekraf
besarbesaran
lukaluka
##ine
##ngan
icardi
##nan
##yanto
180
450
bacajuga
yunadi
##den
##km
##land
##nto
##va
##wi
##yono
##ho
##rkan
##ting
##tis
mudahmudahan
tandatanda
##ny
##kkan
##zi
##om
##ot
##uh
tandukan
1997
##ke
##nnya
##syah
92
93
##one
##ze
1980
97
##adi
##em
##fa
##fi
kotakota
##cy
##dang
##ker
##ley
##sh
110
langkahlangkah
sepakannya
##au
##per
bimanesh
fiturfitur
tillerson
##mas
3d
produkproduk
raiola
rekanrekan
##bah
##uddin
101
84
bangsabangsa
berbedabeda
rekanrekannya
terburuburu
##les
##skan
haryani
paruparu
##din
##if
##isme
##lu
1996
cantrang
selasela
##mah
##tar
tahuntahun
##ay
##jang
##po
##tas
##wati
140
antirasuah
ransomware
##ru
##vi
2021
tanggungtanggung
##ity
##min
##ns
98
cugurra
disangkakan
masamasa
##ara
##ger
##ky
##mer
128
1992
##ber
##ff
##gu
##las
##lia
##rs
160
sylviana
##ada
##car
##ina
##ue
115
paparnya
sabusabu
##angan
##be
##ci
##ron
##tkan
kylian
proyekproyek
shopee
##ban
##bu
##dan
##rin
1994
boldsky
##ford
##ju
112
berkalikali
menitmenit
sugiana
##ation
##cing
##lang
##que
750
comvalius
daerahdaerah
##gen
##tasi
##hkan
##ris
##udin
##uri
1995
manamana
md3
##ria
##ss
##dra
##zer
wannacry
##nia
##sia
gopro
hakhak
mainmain
warganet
##able
##dung
##nt
##win
125
170
ahy
milenial
##by
##pu
##rat
##rt
94
mancity
menceploskan
##ip
##lis
##rah
##ring
##yan
114
dembele
fitbit
jauhjauh
oneplus
sudihardjo
##aran
##bang
##op
##pal
##ster
222
a1
aceshowbiz
brexit
gnpf
inasgoc
maute
##ala
##jaya
##ten
modric
perusahaanperusahaan
##ab
##fer
##ler
##pe
alihalih
jalanjalan
partaipartai
##dar
##ier
##ies
##mar
##yu
156
bianconeri
i7
wearable
##10
##ensi
##vin
1993
g20
perisic
##ahi
##anan
##atkan
##awan
##bel
##box
##cc
##chi
##ena
##kal
##ure
108
127
anniesa
blockchain
dzeko
hadimuljono
kemenpar
oezil
##back
##bat
##ita
##nda
##ps
##pun
240
alaves
bahanbahan
buktibukti
diamdiam
isuisu
moto2
##ali
##aya
##book
##ee
##ial
##ino
##kannya
##ui
##ver
##ye
akhirakhir
chigga
f2
pjanic
##cang
##ent
##field
##ham
##kar
##ksi
##mp
##rak
##rasi
##sen
##su
##tic
##tin
##ungan
##wo
ibuibu
medsos
##ef
##ft
##less
##nes
##ram
##res
##ud
189
pluim
samyang
stegen
##berg
##gar
##king
##oro
##rd
105
1080
bukubuku
marliem
##ain
##but
##est
##kin
##line
##mal
##pelatih
##red
##tel
1965
2030
650
bernardeschi
warnawarni
##age
##ini
##ium
##kis
##ld
##ologi
##oy
##yang
113
chainsmokers
esport
payfazz
tengahtengah
##00
##ata
##dge
##ist
##out
##tti
##way
1991
313
harihari
pulaupulau
rezaldi
saddil
vitolo
##2017
##ika
##ndo
##pat
##rik
##ua
444
seolaholah
swish
tempattempat
tribratanews
tridatu
vanesha
##ary
##ase
##eh
##jan
##lak
##lla
##ving
107
1970
cryptocurrency
kante
saksisaksi
##30
##jono
##ney
##sikan
##tang
##van
310
coworking
ryzen
sontekan
sundulannya
terusmenerus
##ao
##ator
##cker
##des
##era
##her
##hu
##lam
##nas
##nkan
##ori
##run
##tro
##tz
1989
abuabu
leganes
mahrez
p2p
programprogram
szczesny
terangterangan
##che
##dik
##isi
##len
##lle
##nce
##rang
##sasi
##sha
##tal
132
steelseries
##asan
##day
##ero
##lkan
##llah
##ore
##ow
##sky
##tra
##tte
bolasport
keylor
##cs
##ira
##jar
##rit
##vic
2023
audero
buruburu
crowdfunding
kapalkapal
kasuskasus
mandzukic
menpar
pundipundi
##50
##ard
##baran
##bun
##bur
##dah
##dai
##del
##ive
##jah
##jung
##logi
##set
bosz
destria
kessie
##dong
##ela
##eon
##ep
##gal
##jak
##nal
##nsi
##ova
##ping
##rus
##ski
##tama
##tha
comey
despacito
dilesakkan
iflix
mediamedia
rakitic
ruangguru
##11
##1s
##7s
##ade
##buk
##can
##duk
##gung
##inya
##ks
##ming
##par
##rip
##sk
##tur
##uran
102
133
1985
bertanyatanya
boyamin
garagara
klok
rochmadi
##3s
##dam
##eo
##masi
##mkan
##ndang
##net
##nti
##ock
##oh
##rdi
##rey
##rn
##rum
##sis
##tian
##wah
##wat
1438
175
256
batshuayi
khaththath
lindeloef
m1
rumahrumah
simic
spaso
terlapor
##asih
##bet
##bia
##boy
##con
##dak
##dir
##kai
##lisasi
##low
##nik
##oo
##sar
##sin
##tak
##tech
106
280
aiptu
boyzlife
genpi
nsh
sematamata
sticar
tokohtokoh
##ct
##fikasi
##gang
##har
##hin
##lat
##let
##onal
##pak
##pet
##port
##tive
##uhan
##utan
##wood
1080p
122
1984
berbulanbulan
durov
haay
lallana
megabintang
sylvi
yorrys
##8s
##af
##bung
##cher
##fin
##gn
##jat
##kam
##kap
##lli
##mon
##my
##pas
##pel
##unan
##wara
104
124
1987
199
234
5000
aurier
citacita
coquelin
desadesa
diimbau
grabpay
quipper
sampaoli
sugbk
suhariyanto
##aka
##aki
##alan
##ale
##awa
##bal
##bus
##ea
##fc
##ista
##ito
##iyah
##light
##ls
##ms
##ndi
##pn
##uf
##ulan
##usi
##uti
109
171
1983
alatalat
alcacer
chromebook
ditunggutunggu
faktafakta
kingsman
maqdir
pelanpelan
pioli
poinpoin
sekolahsekolah
solanke
tech3
##ahan
##anda
##anya
##cho
##cle
##gis
##je
##los
##mata
##nu
##pol
##rejo
103
111
bamsoet
bellerin
calhanoglu
cepi
contraflow
dimentahkan
ganjilgenap
gbla
ideide
lessa
madhang
monetisasi
mustafi
nadiem
situssitus
synchronize
verratti
zudan
##15
##ac
##cus
##dri
##ert
##ite
##jen
##jin
##kit
##kum
##ous
##ship
##sih
##sta
##tai
##tt
##una
##urkan
##usan
116
119
alpukat
b2b
buahbuahan
choel
deliveree
driyono
feedr
hanis
marclei
nontunai
puel
sylvano
##alisasi
##alkan
##ansyah
##asikan
##bing
##burkan
##ction
##dji
##ella
##ex
##gas
##gat
##hd
##hy
##iran
##kut
##ngi
##oni
##ou
##pp
##sah
##sya
##we
##zo
129
135
137
190
1986
220
ciamik
kemendes
khloe
lesakan
lyke
murakabi
p20
pernakpernik
stapac
suju
##ach
##akkan
##ast
##bong
##cana
##daya
##dia
##ev
##fo
##gram
##ire
##kul
##lik
##og
##olo
##sport
##sy
##tangan
##ther
##uda
##ura
##utkan
##uw
##vasi
##vr
##wu
117
145
1982
365
3x3
bertubitubi
carpool
ezpeleta
giallorossi
i5
kalinic
kelompokkelompok
soompi
varane
##aji
##ami
##apan
##bangan
##cia
##dem
##ds
##ei
##ess
##ett
##gate
##hari
##house
##ida
##ila
##ile
##ima
##indo
##kes
##lar
##llo
##lt
##narkoba
##ning
##oda
##ola
##ory
##oto
##pang
##pati
##rich
##tle
##tri
##ual
##ullah
123
134
1966
1973
2025
340
720
880
belotti
ditreskrimsus
jict
jualbeli
maharasyi
puigdemont
s2
sodoran
tokotoko
voxy
wuling
##12
##5s
##aja
##aman
##andi
##cat
##ddin
##die
##dis
##gkan
##ib
##iri
##kir
##lit
##mani
##sik
##sono
##ssa
##stan
##sus
##tnya
1950
850
ataribox
caracara
depay
g30s
habishabisan
handanovic
k8
lagalaga
natshir
sennheiser
##alam
##ate
##atif
##band
##board
##cu
##dha
##eb
##edi
##eri
##fe
##gon
##he
##kasi
##ket
##lina
##ongan
##pen
##putra
##raan
##rem
##rini
##tara
##ug
##ungkan
##val
##ves
##vo
##wono
##yi
142
144
169
3ds
5mp
arrmanatha
arsul
berjamjam
bokeh
callejon
europalia
klimg
mignolet
mobilmobil
ongki
phonearena
saghara
sebutnya
siwei
soetta
srchttpscdns
v7
widiade
##20
##ahkan
##aks
##alah
##ance
##angkan
##api
##arto
##bas
##burg
##cara
##cok
##com
##dus
##ging
##gut
##illa
##iro
##kas
##kus
##lon
##lot
##lung
##mat
##mia
##ndra
##news
##nis
##oe
##omo
##point
##pres
##puk
##rie
##shi
##song
##tika
##time
##ulasi
##uskan
##via
##ware
##yun
1962
1988
320
330
468
arcore
canelo
cr7
darmian
diunggahnya
dwimawan
enggar
j7
kadangkadang
karyakarya
komdis
n219
plbn
satudua
sjahbandi
tuttomotoriweb
vr46
witan
##24
##6s
##awati
##bak
##cha
##cita
##dian
##eni
##ery
##fan
##ght
##gs
##isa
##ish
##jam
##jani
##late
##mak
##mba
##mc
##minasi
##nai
##ob
##ona
##pin
##ret
##ril
##rry
##rul
##tone
##tus
##udi
##uhkan
##ungi
##yadi
##yat
##zaki
118
126
1920
835
bendabenda
deezer
ezechiel
giias
jedun
mekeng
menyianyiakan
oblak
pigai
pixabay
preloved
puingpuing
s3
tolisso
u2
upload20
vainglory
##13
##aca
##ack
##and
##ane
##are
##bank
##bon
##bor
##bury
##cation
##cio
##ense
##formasi
##harap
##hop
##hur
##iya
##kali
##lay
##lly
##mann
##max
##nci
##nd
##nk
##oa
##ora
##oyo
##pay
##ren
##rian
##sak
##sco
##sian
##sing
##teng
##tikan
##tono
##yati
##yer
##zal
##zin
141
1979
3000
airbnb
berjalanjalan
berlamalama
bermacammacam
brilio
cuitnya
doogether
f5
gionee
kemdagri
klaassen
lemar
macammacam
membesuk
menjeratnya
ndouassel
qaidah
rajamohanan
ramairamai
selsel
setho
stormi
stroll
videotron
##17
##2016
##9s
##ahu
##ama
##asa
##ave
##bilitas
##bin
##bit
##bs
##cal
##cari
##dal
##das
##dt
##ec
##ekan
##hai
##hon
##ien
##katan
##krak
##kung
##lasi
##lum
##nah
##nasi
##ort
##pkan
##pus
##ral
##rk
##ruh
##sek
##sman
##tam
##tek
##tes
##tv
##uer
##ville
##well
##ys
##zhou
139
155
1938
1971
235
270
8mp
begovic
bookslife
gillnet
golovkin
harbolnas
iwobi
jutting
kupukupu
mastuki
millenial
moto3
obligor
overwatch
paytren
pubg
quadcore
sleekr
tamasia
terkawal
timpal
titiktitik
tuchel
tukasnya
wantedly
##all
##askan
##bakan
##buhan
##djo
##dog
##ere
##ew
##fl
##gasi
##gor
##iasi
##ins
##itan
##juan
##lie
##lp
##madi
##mont
##nata
##ness
##ngkan
##plan
##ppa
##pto
##pung
##pur
##ras
##rek
##rizal
##rnya
##rti
##rto
##takan
##taman
##tarkan
##ted
##uit
##uksi
##ult
##uma
##unya
##vas
##works
##yak
##yana
##yani
##zio
121
174
1960
1976
2024
275
76ers
aksiaksi
arkit
baleg
bareksa
belimobilgue
bepe
buwas
charliyan
ciriciri
disambangi
dpreview
ecstar
foody
garisgaris
gasly
hapilon
hubla
kimmich
kurasi
moba
onlinepajak
oriordan
pbfc
ps4
rempahrempah
shela
soes
v2
##4s
##aikan
##angi
##anti
##asia
##bab
##bility
##bol
##cca
##daran
##dhi
##eman
##eth
##ez
##gmen
##gue
##ical
##inasi
##isan
##ksa
##kur
##lian
##lih
##lio
##logy
##lok
##lor
##lus
##makan
##mk
##mor
##negara
##oid
##pik
##ple
##pon
##ruddin
##sel
##sion
##sme
##star
##sun
##tani
##tat
##tiar
##tir
##town
##uhi
##ula
##vy
##wang
##zar
154
1967
1974
230
480
660
acommerce
berkukuh
bripda
cutrone
eatever
g1
hamsik
henhen
kristiyanto
kvitova
lemina
lumbalumba
malumalu
muannas
nilmaizar
paslon
pergub
rinna
sayurbox
swiftkey
tripoin
u11
##ash
##ating
##ball
##bek
##bir
##buh
##cap
##ein
##eksi
##ell
##endi
##eran
##esi
##fiq
##gah
##gap
##gara
##gc
##get
##gh
##gok
##guna
##iah
##ifikasi
##ingkan
##jari
##kang
##kel
##lakan
##lap
##lek
##loh
##mbar
##mudi
##od
##osis
##ovic
##rad
##rio
##rr
##rta
##saan
##saka
##sie
##sir
##sit
##sm
##sor
##tip
##tya
##uasi
##uki
##ulur
##upan
##yama
##zz
1500
165
178
208
574
baladacintarizieq
berjagajaga
berlombalomba
berpurapura
bolabola
fidget
gadjian
halodoc
helptask
homepod
hooq
ilotte
karetan
masalahmasalah
mekes
nzonzi
pagarra
paladins
pennywise
pulisic
qlue
sebaikbaiknya
sebesarbesarnya
sewaktuwaktu
sewenangwenang
styleheight
sunaryanto
supeltas
suppo
suratsurat
tcash
toffees
trogneux
unggahannya
vape
venturebeat
vivofit
##40
##amkan
##ano
##aw
##besar
##beth
##cak
##craft
##dini
##don
##duksi
##ebut
##eer
##egakan
##etan
##eus
##gawa
##grafi
##hub
##iana
##iang
##ingan
##ius
##kahan
##ken
##klik
##ktif
##lf
##lles
##luk
##mes
##nak
##nding
##ngin
##ngo
##nie
##nn
##nor
##nta
##ntoro
##oc
##off
##oke
##oli
##ont
##play
##pmk
##pot
##put
##rton
##ser
##tuk
##tung
##usia
##vis
##war
##zan
12mp
184
1958
1975
2049
238
260
378
550
akseyna
antargolongan
atocha
bartomeu
bayangbayang
bebernya
beritaberita
bersenangsenang
bersiapsiap
d850
dedik
doain
girder
goretzka
jogjarockarta
kasbani
laiskodat
lamalama
localbrand
millennials
ngolo
pesanpesan
reddoorz
segansegan
shkodran
skriniar
spdp
tekateki
tinder
unsurunsur
videovideo
##antas
##arat
##arno
##base
##cam
##cci
##cek
##cil
##ctive
##ctor
##dih
##dor
##ector
##ens
##eu
##face
##far
##form
##gel
##ggang
##had
##hie
##hip
##hor
##ivitas
##ivity
##jikan
##jing
##lop
##mad
##mbang
##meter
##ology
##ox
##pah
##qi
##ric
##rong
##ros
##rut
##sty
##suk
##tie
##tori
##wski
13mp
167
195
1969
1d
201
285
airpods
alunalun
amartha
anyarnya
aplikasiaplikasi
awuk
berkonten
brainly
bripka
detikdetik
digaungkan
djaring
duitku
expander
finansialku
fp1
giornata
gmic
gunandjar
h1
headband
howedes
hwayugi
istirahatlah
jenguk
keok
kiswinar
lawanlawan
m2
m7
m750
maneger
menggencarkan
o2
parastesh
partenopei
pensosbud
pojk
poskotanews
q2
rapimnas
shapovalov
siswasiswi
stunting
thinkpad
tiaptiap
tkdn
yadian
zuck
##ace
##ae
##cut
##dangkan
##ehan
##end
##erang
##ete
##fus
##gaan
##gokan
##gol
##gra
##guh
##hiro
##ilan
##ilkan
##iu
##jakan
##kad
##kara
##kuan
##lda
##mark
##mik
##mine
##mis
##more
##mpit
##negoro
##nga
##nte
##ode
##okan
##oleh
##ome
##ons
##ors
##osa
##peng
##pos
##produksi
##pt
##rahman
##ray
##ries
##ruk
##sal
##sertifikasi
##shire
##sial
##snya
##tuan
##tul
##uga
##umpul
##utang
##wk
##won
##yn
##yur
1070
16mp
183
185
1968
1978
225
249
287
2ne1
333
7000
a5
aghnia
anterin
ayatayat
berbondongbondong
bincangbincang
bukukita
cancelling
carousell
chg90
confero
cuitannya
dribel
duolingo
echon
gelato
grabnow
hestu
hololens
imbau
imingiming
incinya
investree
kacangkacangan
kanakkanak
layanglayang
mallsampah
mattauch
mewantiwanti
michy
micin
muschietti
nonmigas
pemufakatan
ramburambu
rankireddy
refund
rins
s1
sandelwood
seranganserangan
starla
syahrin
takam
thaad
waspadai
##16
##18
##23
##2s
##60
##aannya
##arang
##ato
##bt
##care
##cell
##cik
##cur
##eda
##ede
##eka
##eli
##elli
##engan
##enna
##eno
##esa
##ful
##gai
##gin
##grasi
##gun
##hab
##hana
##harjo
##hina
##ight
##ii
##indonesia
##itasi
##iz
##jaan
##jaja
##jiang
##jk
##jong
##juk
##kaan
##kata
##kok
##kol
##ktur
##lic
##life
##link
##liter
##mana
##mang
##mbung
##mental
##misi
##mun
##nc
##ngnya
##oi
##olong
##oma
##ose
##plikasi
##polis
##pora
##publikasi
##ritik
##rra
##rsono
##rung
##sang
##sey
##side
##tah
##tec
##tomo
##tong
##ture
##tut
##ugh
##vation
##visor
##wadi
##wangi
##wel
##yong
138
147
149
152
299
314
636
alkes
ansufri
artisartis
asetaset
aspas
bansos
berboncengan
berpindahpindah
bolakbalik
bukaemas
casilla
chandrabhaga
dicecar
direspons
doqar
ep9
erwanto
g25
gh70
gm70
healthtech
hyperemesis
immerse
immersive
irzan
jelasjelas
jojonomic
karius
kemenaker
kemnaker
kerrab
kolasinac
lantun
lembagalembaga
lightroom
m3
mengakselerasi
merekmerek
motorland
oleholeh
otavio
otenta
pdtt
pertembakauan
pullbear
rappler
s7
sampaisampai
stindl
subsidair
sukasto
tgupp
umtiti
warnawarna
widiasih
##100
##21
##37
##45
##80
##aa
##amad
##amen
##ant
##atis
##away
##baru
##basi
##beli
##berry
##bil
##bowo
##brak
##brata
##bul
##buri
##cet
##chai
##dap
##disi
##dok
##dou
##duh
##eep
##ering
##etes
##fah
##gma
##gy
##hal
##hara
##hs
##ht
##ice
##igh
##itkan
##jangan
##jawab
##jek
##jukan
##jun
##karta
##kecil
##kti
##lani
##laya
##lee
##lies
##luh
##maan
##ments
##mir
##mus
##nb
##nge
##ografi
##osiasikan
##paan
##pad
##park
##pis
##por
##puluh
##pura
##rai
##rama
##roni
##sat
##sc
##shing
##sinya
##sip
##swara
##tari
##toro
##tukan
##uat
##umi
##waan
##wak
##wal
##wen
##wing
##xy
##zen
162
172
173
176
179
1954
1977
1x24
370
372
425
430
512
999
b2c
bankbank
beneamata
beragendakan
berpaspor
bourdain
bpj
celades
coverciano
ddr4
ditresnarkoba
djarod
dmasiv
e3
endtoend
esthy
gaery
golgol
harapnya
headtohead
instax
juliansyah
kegiatankegiatan
kemristekdikti
kitabisa
krypt
labalaba
langitlangit
lovren
matimatian
naby
paypro
peertopeer
polrestro
rafathar
rinov
sandipala
sevel
supermoon
topkarir
uwrf
wareable
waswas
wilayahwilayah
##2018
##71
##ajang
##anak
##arah
##ayaan
##bahan
##belas
##bok
##bot
##buhkan
##cah
##cin
##cock
##cokan
##croft
##dani
##data
##dit
##down
##dul
##eau
##ejo
##ele
##emen
##eva
##for
##fw
##gala
##gna
##gong
##group
##gul
##gunakan
##hadi
##hong
##hulu
##iki
##iman
##inda
##inski
##isasikan
##jabat
##jad
##jal
##janto
##jepit
##jut
##kota
##kt
##kuk
##kun
##lai
##lau
##laut
##log
##manis
##md
##mg
##mos
##moto
##mpo
##name
##ngga
##olik
##ops
##orasi
##oun
##pacu
##pertaruhkan
##rar
##rasa
##reksa
##rita
##rm
##rom
##row
##rsan
##sna
##ston
##suka
##sur
##tics
##top
##trak
##uah
##uman
##unaan
##ury
##utus
##ved
##vision
##wakan
##wasih
##wisata
##work
##worth
##yung
##zil
##zir
##zy
##zzi
001
143
146
148
156a
1981
207
211
216
560
630
7380
atrans
beramairamai
berlarutlarut
bermainmain
berulangulang
bobol
cashless
comi
daeva
digenjot
dwiyono
gabigol
gizmochina
gudmundsson
gulen
h5
hammersonic
influencer
itdc
jandia
jevin
jkt48
klhk
lesgo
malignaggi
mardiaz
megax
meggie
melego
mjek
modusnya
nke
oconnor
oktavianti
ormasormas
printerous
raweyai
rifad
rojiblancos
saatsaat
semringah
siapasiapa
sipg
smes
sp3
suamiistri
sugiharti
suprajarto
tanamduit
telomere
tiemoue
touchten
uangteman
wakanda
womsiwor
x550iu
youbel
zaadit
##500
##88
##90
##apa
##aris
##ax
##bach
##bai
##bangkan
##batkan
##bri
##bukan
##byte
##cent
##cer
##coba
##dasi
##dd
##dera
##dikan
##dine
##diri
##dol
##eed
##een
##enez
##eny
##eta
##fire
##ganisir
##gb
##girl
##gp
##hak
##hman
##ick
##ics
##idasi
##ide
##ig
##ingat
##ingi
##ingnya
##itis
##ix
##ization
##jamkan
##jana
##jati
##jer
##koordinasi
##langan
##lgate
##lom
##lse
##mai
##maker
##mic
##nar
##neng
##nesia
##nggang
##nut
##oner
##onis
##oran
##organisasi
##over
##pd
##pungan
##quirer
##rial
##rianto
##rman
##rp
##rro
##rse
##ruksi
##sama
##sana
##sisi
##sius
##source
##ssi
##tc
##tem
##tivitas
##tk
##tom
##tory
##tr
##tusi
##tyo
##uang
##uin
##ukkan
##ulis
##unkan
##usaha
##uz
##vel
##ven
##vention
##view
##warman
##watch
##wear
##yon
##zali
##zor
##zza
015d
164
186
1953
1963
263
283
292
295
315
325
338
349
3s
4x2
520
540
820
90an
950
afrin
ambhara
antipancasila
arnautovic
awantunai
bartra
bauza
bekbek
benatia
botox
catokan
dianti
dipha
eurokars
eyeshadow
fonsi
g2
gambargambar
geevv
got7
herdiana
i8
idmarco
ingress
insta
intudo
iruna
ivosights
jubelio
kekonsuleran
keruktama
khadr
localstartupfest
lokasilokasi
m6
melchias
momenmomen
natalius
nonaria
octacore
parentalk
pemberkasan
pidananya
postingannya
prasetio
raptr
refa
rfef
rkuhp
salesforce
sevva
shookus
subsidier
swc
tandukannya
tinkerlust
topup
totopong
trevorrow
unbanked
viugraph
vuhl
warmbier
xedeka
yembise
zorc
##0s
##50u
##aelani
##alia
##ander
##araan
##aro
##atch
##atik
##aut
##awar
##bc
##bius
##bulan
##bungkus
##butkan
##chen
##chy
##cian
##cocokan
##dana
##dekade
##dh
##diana
##dua
##ear
##eg
##eira
##elar
##eld
##ensial
##erasi
##erg
##etkan
##eur
##ews
##express
##food
##fu
##gahan
##game
##gd
##gers
##ggung
##guhan
##harto
##hem
##hidup
##hir
##ible
##ica
##ifi
##ili
##ime
##iq
##iti
##iyanto
##jadi
##jatuhan
##jur
##karakan
##kawan
##lahi
##lasan
##led
##likan
##linda
##lison
##lity
##ller
##lyn
##maki
##masyarakat
##mbing
##ndam
##ningsih
##nse
##of
##ogen
##oko
##olan
##opi
##orn
##panan
##panjang
##parkan
##pers
##phia
##pid
##pikan
##pper
##rahan
##rb
##rel
##rella
##resi
##rge
##rko
##rley
##ronik
##room
##rot
##rri
##rso
##rudin
##sai
##smita
##spect
##stik
##stra
##suki
##syarat
##tahun
##ters
##tf
##tia
##tto
##uds
##ukir
##uro
##ux
##vator
##vb
##vina
##virus
##wanto
##week
##wer
##wijaya
##yangan
##yd
##yuki
##zawa
##zzo
131
136
157
158
159
166
1800
188
1972
205
224
245
265
3310
335
421
499
599
5d
6s
8000
abalabal
adriatma
afinta
alisson
bagibagi
bajindul
berdonasi
blangko
ceferin
defrel
deisti
deriyan
dijajal
dikisaran
diskresi
dongping
dusdusan
fabianski
fassone
flondr
fullview
g701vik
gboard
gohajj
gonalons
hitamputih
jph
julo
koke
labfor
lhk
lopicic
lulic
machmudin
manortor
mekamon
meled
mendatangkannya
mendekor
menghalanghalangi
midplaza
midtrans
muguruza
mursalim
narindo
niguez
novotna
obike
orami
ossetra
pegipegi
podjok
rajamobil
rosyita
rudiger
saptogiri
satusatu
sehariharinya
selecao
stockshot
sugihardjo
sumbersumber
sungguhsungguh
suntana
terkurasi
tersangkanya
treshold
ukirama
urich
wiljan
x20
yansyah
youre
yuyuk
##25
##68
##ado
##aging
##air
##ais
##antri
##ardi
##ated
##atile
##batan
##bay
##bine
##bl
##bound
##buhi
##bumi
##bungkam
##buran
##dad
##dahan
##deng
##dengan
##dharma
##dhy
##dja
##dro
##ech
##ect
##ening
##enny
##fast
##ffe
##fil
##fir
##fly
##fp
##goro
##gos
##gungan
##hl
##ias
##ichi
##idi
##iel
##igan
##iko
##ilah
##ington
##jahit
##jasa
##keluarga
##kom
##kron
##kusumo
##kuti
##laki
##lana
##leh
##lir
##lson
##lukis
##mars
##mbat
##mber
##mission
##muda
##mudah
##ndro
##night
##noto
##nsial
##nson
##obia
##ogi
##okasi
##ole
##oue
##ough
##ound
##own
##pahan
##persunting
##pong
##posisi
##ppe
##praktikkan
##proof
##raga
##rani
##rer
##rine
##rutan
##rw
##sawa
##sium
##ssy
##stein
##sudut
##sville
##tano
##timasi
##tosa
##trans
##trasi
##tta
##uannya
##uio
##ular
##uru
##uss
##ute
##wani
##water
##winata
##world
##yar
##yoga
##zu
##zzy
151
168
1959
197
202
2026
209
210
226
290
318
411
4k
610
625
720p
909
a7
acai
allardyce
b2p
bangsring
blakblakan
cagubcawagub
calciomercato
chicharito
churros
clapper
curhatan
datally
degdegan
dikebut
diproyeksi
duithape
gerakangerakan
gfny
h7
hoeness
ikutikutan
incarannya
indocomtech
infradigital
iwic
jeroannya
kalanick
kaliwono
katty
kongko
kontraterorisme
lastpass
lawble
legging
liestiadi
matchmove
mbakmu
memproyeksi
mencuit
mengular
multiyears
muslimahcenter
nurcahyono
nyia
oneglove
optix
pasarpasar
pelapak
pemotor
pertandinganpertandingan
perundungan
pradika
priharsa
priyambada
puhiri
qled
r80
raisi
rajekshah
randol
rapim
replicade
repotrepot
reskrimsus
savic
savik
simplidots
solidnya
sonos
sontekannya
soton
sprindik
suahasil
sulistina
t2
telasih
tiote
tix
tmcpoldametro
treasuri
triplogic
trippier
truecaller
uln
wanewar
yourselves
zieler
##0u
##19
##320
##65
##abi
##acy
##akar
##ald
##amal
##anjang
##any
##asaan
##aye
##bana
##barkan
##batik
##bawa
##bbs
##bd
##bear
##bedah
##belakang
##berger
##biskan
##blog
##body
##burn
##card
##ces
##chan
##chat
##cn
##cr
##daan
##dari
##dat
##date
##dc
##ded
##dent
##dim
##dium
##dnya
##dom
##dot
##drive
##dry
##dum
##dya
##ebom
##ection
##edo
##ej
##ene
##enia
##enne
##ensis
##erah
##eti
##fest
##ffin
##fikan
##gaji
##gam
##ges
##gg
##gkung
##gnya
##haan
##hah
##hala
##hama
##hati
##head
##heim
##hen
##here
##hias
##hing
##hisap
##hitung
##hobia
##humas
##hyun
##iba
##ich
##ihan
##ikasi
##inson
##ism
##iza
##jdi
##jet
##jid
##jil
##jn
##jon
##judi
##kaki
##keram
##kho
##kins
##kita
##kon
##kova
##krama
##ksir
##lav
##lera
##lier
##lim
##lingan
##lisa
##lnya
##long
##lter
##lud
##mala
##master
##matkan
##mbu
##med
##mentasi
##mper
##mping
##ndya
##nil
##olog
##ombolan
##ood
##orm
##ornas
##osta
##owski
##pack
##pai
##phone
##plakan
##pta
##ption
##rata
##read
##reich
##rgi
##riot
##ripsi
##rning
##ruan
##ruktur
##rumahkan
##rush
##rya
##ryanto
##sahkan
##sakiti
##sehat
##sep
##sson
##sti
##stic
##tarian
##tidak
##tinho
##tum
##tungan
##tweet
##udy
##uffle
##und
##upsi
##ural
##usul
##venant
##vio
##wald
##ward
##wich
##wig
##witan
##yaman
##yatt
##zia
##zic
##zynski
161
163
1940
1947
1955
196
1961
198
206
213
284
2s
311
328p8
329
355
420
440
553
570
812
a7r
battlegrounds
beralias
berharihari
berseloroh
bestival
bintangbintang
blipblox
brozovic
cashback
chatzbro
ciabatti
clova
dalligna
damore
descript
diotaki
doktersiaga
doomfist
dumolid
earcup
emiral
esim
exiner
fabinho
footbeat
fp2
ghouta
gmpg
h3
hitunghitungan
hollywoodlife
honeydukes
ibran
idec
indiegogo
ingub
inmobi
iringiringan
jtr
kesalahankesalahan
koinworks
kotakkotak
labbaik
lalamove
lorenzana
mannschaft
mariyanto
marshmello
mcraven
mdk
medicaboo
membeludak
mendatarnya
mentahmentah
nadipos
nawacita
pamelingan
pebalapnya
penista
perlahanlahan
pernat
persepakbolaan
poinposisi
popmama
ppsu
presale
privatq
ptba
razman
riefan
sanasini
saponara
satwiksairaj
sdw
sektorsektor
selambatlambatnya
sertamerta
spkt
suhermanto
taider
tambour
tanuri
tokocash
tost
tppu
ubergizmo
umanailo
unkrich
unzue
wakuliner
watuputih
yelyel
yusmada
zumiapp
zuzu
##67
##adang
##adu
##afkan
##aga
##alth
##amol
##ando
##andra
##antika
##arasi
##arif
##arso
##arta
##asta
##atika
##aton
[...]
